{
  "version": "1.0",
  "truncation": null,
  "padding": null,
  "added_tokens": [
    {
      "id": 0,
      "content": "[PAD]",
      "single_word": false,
      "lstrip": false,
      "rstrip": false,
      "normalized": false,
      "special": true
    },
    {
      "id": 1,
      "content": "[UNK]",
      "single_word": false,
      "lstrip": false,
      "rstrip": false,
      "normalized": false,
      "special": true
    },
    {
      "id": 2,
      "content": "[BOS]",
      "single_word": false,
      "lstrip": false,
      "rstrip": false,
      "normalized": false,
      "special": true
    },
    {
      "id": 3,
      "content": "[EOS]",
      "single_word": false,
      "lstrip": false,
      "rstrip": false,
      "normalized": false,
      "special": true
    }
  ],
  "normalizer": null,
  "pre_tokenizer": {
    "type": "Sequence",
    "pretokenizers": [
      {
        "type": "Metaspace",
        "replacement": "▁",
        "prepend_scheme": "always",
        "split": true
      },
      {
        "type": "Punctuation",
        "behavior": "Isolated"
      }
    ]
  },
  "post_processor": null,
  "decoder": {
    "type": "Metaspace",
    "replacement": "▁",
    "prepend_scheme": "always",
    "split": true
  },
  "model": {
    "type": "BPE",
    "dropout": null,
    "unk_token": "[UNK]",
    "continuing_subword_prefix": null,
    "end_of_word_suffix": null,
    "fuse_unk": false,
    "byte_fallback": false,
    "ignore_merges": false,
    "vocab": {
      "[PAD]": 0,
      "[UNK]": 1,
      "[BOS]": 2,
      "[EOS]": 3,
      "!": 4,
      "\"": 5,
      "#": 6,
      "$": 7,
      "%": 8,
      "&": 9,
      "'": 10,
      "(": 11,
      ")": 12,
      ",": 13,
      "-": 14,
      ".": 15,
      "0": 16,
      "1": 17,
      "2": 18,
      "3": 19,
      "4": 20,
      "5": 21,
      "6": 22,
      "7": 23,
      "8": 24,
      "9": 25,
      ":": 26,
      ";": 27,
      "=": 28,
      "?": 29,
      "A": 30,
      "B": 31,
      "C": 32,
      "D": 33,
      "E": 34,
      "F": 35,
      "G": 36,
      "H": 37,
      "I": 38,
      "J": 39,
      "K": 40,
      "L": 41,
      "M": 42,
      "N": 43,
      "O": 44,
      "P": 45,
      "Q": 46,
      "R": 47,
      "S": 48,
      "T": 49,
      "U": 50,
      "V": 51,
      "W": 52,
      "X": 53,
      "Y": 54,
      "Z": 55,
      "`": 56,
      "a": 57,
      "b": 58,
      "c": 59,
      "d": 60,
      "e": 61,
      "f": 62,
      "g": 63,
      "h": 64,
      "i": 65,
      "j": 66,
      "k": 67,
      "l": 68,
      "m": 69,
      "n": 70,
      "o": 71,
      "p": 72,
      "q": 73,
      "r": 74,
      "s": 75,
      "t": 76,
      "u": 77,
      "v": 78,
      "w": 79,
      "x": 80,
      "y": 81,
      "z": 82,
      "▁": 83,
      "▁a": 84,
      "in": 85,
      "ing": 86,
      "▁s": 87,
      "▁w": 88,
      "▁t": 89,
      "▁o": 90,
      "an": 91,
      "▁b": 92,
      "he": 93,
      "▁A": 94,
      "re": 95,
      "▁in": 96,
      "it": 97,
      "▁p": 98,
      "▁m": 99,
      "er": 100,
      "▁c": 101,
      "le": 102,
      "is": 103,
      "ro": 104,
      "▁the": 105,
      "ar": 106,
      "nd": 107,
      "▁g": 108,
      "▁on": 109,
      "▁h": 110,
      "▁d": 111,
      "▁f": 112,
      "al": 113,
      "la": 114,
      "ir": 115,
      "at": 116,
      "en": 117,
      "▁is": 118,
      "▁man": 119,
      "▁of": 120,
      "▁and": 121,
      "om": 122,
      "▁st": 123,
      "ck": 124,
      "lo": 125,
      "ith": 126,
      "▁with": 127,
      "or": 128,
      "ld": 129,
      "et": 130,
      "▁T": 131,
      "un": 132,
      "es": 133,
      "▁to": 134,
      "▁wom": 135,
      "id": 136,
      "on": 137,
      "▁wh": 138,
      "▁sh": 139,
      "▁do": 140,
      "and": 141,
      "rou": 142,
      "king": 143,
      "▁are": 144,
      "op": 145,
      "wo": 146,
      "ra": 147,
      "ed": 148,
      "ear": 149,
      "▁woman": 150,
      "ss": 151,
      "her": 152,
      "ic": 153,
      "▁bo": 154,
      "▁pla": 155,
      "ut": 156,
      "▁at": 157,
      "all": 158,
      "irt": 159,
      "eop": 160,
      "eople": 161,
      "▁Two": 162,
      "▁y": 163,
      "▁re": 164,
      "▁play": 165,
      "ting": 166,
      "▁l": 167,
      "ch": 168,
      "oun": 169,
      "ers": 170,
      "▁wear": 171,
      "▁an": 172,
      "▁wearing": 173,
      "▁sit": 174,
      "▁stand": 175,
      "▁people": 176,
      "wn": 177,
      "▁r": 178,
      "st": 179,
      "ide": 180,
      "ur": 181,
      "ge": 182,
      "ite": 183,
      "▁shirt": 184,
      "ild": 185,
      "▁n": 186,
      "oung": 187,
      "▁j": 188,
      "ile": 189,
      "gh": 190,
      "▁lo": 191,
      "▁ho": 192,
      "▁ch": 193,
      "▁ba": 194,
      "▁white": 195,
      "irl": 196,
      "▁co": 197,
      "▁young": 198,
      "el": 199,
      "um": 200,
      "▁wal": 201,
      "ad": 202,
      "▁girl": 203,
      "ot": 204,
      "ue": 205,
      "▁dog": 206,
      "lack": 207,
      "▁fro": 208,
      "▁out": 209,
      "▁black": 210,
      "▁his": 211,
      "▁boy": 212,
      "▁bl": 213,
      "▁be": 214,
      "▁while": 215,
      "▁wat": 216,
      "il": 217,
      "▁blue": 218,
      "▁th": 219,
      "us": 220,
      "ce": 221,
      "am": 222,
      "▁red": 223,
      "▁e": 224,
      "ver": 225,
      "ts": 226,
      "▁grou": 227,
      "▁sitting": 228,
      "▁men": 229,
      "up": 230,
      "ri": 231,
      "▁hold": 232,
      "▁standing": 233,
      "▁ro": 234,
      "▁playing": 235,
      "▁stre": 236,
      "▁child": 237,
      "ard": 238,
      "▁loo": 239,
      "▁group": 240,
      "▁street": 241,
      "oo": 242,
      "▁down": 243,
      "ve": 244,
      "ree": 245,
      "nt": 246,
      "im": 247,
      "▁walking": 248,
      "round": 249,
      "▁la": 250,
      "ow": 251,
      "▁sm": 252,
      "▁her": 253,
      "low": 254,
      "▁The": 255,
      "▁front": 256,
      "▁ta": 257,
      "▁holding": 258,
      "ks": 259,
      "ke": 260,
      "ul": 261,
      "ress": 262,
      "▁he": 263,
      "ent": 264,
      "air": 265,
      "as": 266,
      "▁gra": 267,
      "▁water": 268,
      "ct": 269,
      "ion": 270,
      "side": 271,
      "▁k": 272,
      "ie": 273,
      "ach": 274,
      "▁car": 275,
      "▁dress": 276,
      "bo": 277,
      "▁po": 278,
      "ying": 279,
      "ain": 280,
      "▁by": 281,
      "tle": 282,
      "ump": 283,
      "▁for": 284,
      "▁som": 285,
      "▁Th": 286,
      "▁up": 287,
      "▁as": 288,
      "▁ra": 289,
      "reen": 290,
      "hing": 291,
      "▁run": 292,
      "se": 293,
      "ay": 294,
      "igh": 295,
      "ack": 296,
      "▁S": 297,
      "▁bu": 298,
      "▁back": 299,
      "▁wor": 300,
      "ark": 301,
      "red": 302,
      "▁jump": 303,
      "uit": 304,
      "▁ne": 305,
      "▁An": 306,
      "▁green": 307,
      "▁women": 308,
      "▁M": 309,
      "ittle": 310,
      "▁one": 311,
      "▁sw": 312,
      "for": 313,
      "row": 314,
      "ap": 315,
      "▁looking": 316,
      "▁sk": 317,
      "one": 318,
      "▁hat": 319,
      "▁sn": 320,
      "▁outside": 321,
      "▁rid": 322,
      "form": 323,
      "to": 324,
      "▁bro": 325,
      "ble": 326,
      "▁Three": 327,
      "ood": 328,
      "ind": 329,
      "▁le": 330,
      "arge": 331,
      "ren": 332,
      "▁little": 333,
      "rough": 334,
      "▁side": 335,
      "▁large": 336,
      "▁bi": 337,
      "ther": 338,
      "▁through": 339,
      "▁P": 340,
      "▁v": 341,
      "ball": 342,
      "▁other": 343,
      "ellow": 344,
      "▁or": 345,
      "▁snow": 346,
      "▁ball": 347,
      "▁brown": 348,
      "▁yellow": 349,
      "▁two": 350,
      "erson": 351,
      "ly": 352,
      "▁sp": 353,
      "▁over": 354,
      "▁tra": 355,
      "lass": 356,
      "yc": 357,
      "em": 358,
      "ian": 359,
      "▁from": 360,
      "che": 361,
      "ure": 362,
      "▁their": 363,
      "ng": 364,
      "▁into": 365,
      "▁fo": 366,
      "xt": 367,
      "▁person": 368,
      "▁ma": 369,
      "ning": 370,
      "▁con": 371,
      "▁hand": 372,
      "▁build": 373,
      "▁building": 374,
      "ink": 375,
      "alk": 376,
      "lder": 377,
      "▁children": 378,
      "▁next": 379,
      "ig": 380,
      "▁small": 381,
      "rowd": 382,
      "▁near": 383,
      "▁F": 384,
      "other": 385,
      "▁jack": 386,
      "▁dressed": 387,
      "▁some": 388,
      "▁crowd": 389,
      "▁jacket": 390,
      "ight": 391,
      "▁so": 392,
      "▁grass": 393,
      "ving": 394,
      "▁clo": 395,
      "board": 396,
      "ground": 397,
      "▁te": 398,
      "ate": 399,
      "dy": 400,
      "walk": 401,
      "▁wa": 402,
      "▁riding": 403,
      "▁se": 404,
      "age": 405,
      "▁running": 406,
      "▁People": 407,
      "ph": 408,
      "ange": 409,
      "ling": 410,
      "▁around": 411,
      "▁off": 412,
      "▁another": 413,
      "ield": 414,
      "▁sc": 415,
      "ount": 416,
      "ycle": 417,
      "ep": 418,
      "▁C": 419,
      "▁pa": 420,
      "cer": 421,
      "▁field": 422,
      "ru": 423,
      "▁table": 424,
      "ick": 425,
      "▁sidewalk": 426,
      "▁Man": 427,
      "lasses": 428,
      "ff": 429,
      "ity": 430,
      "▁beach": 431,
      "▁orange": 432,
      "▁cam": 433,
      "ist": 434,
      "rying": 435,
      "ine": 436,
      "▁air": 437,
      "▁mo": 438,
      "ross": 439,
      "▁go": 440,
      "▁it": 441,
      "▁ar": 442,
      "▁fa": 443,
      "ture": 444,
      "▁stands": 445,
      "▁pink": 446,
      "▁per": 447,
      "▁sits": 448,
      "▁jumping": 449,
      "▁beh": 450,
      "▁behind": 451,
      "▁blo": 452,
      "▁watch": 453,
      "▁work": 454,
      "▁sun": 455,
      "ip": 456,
      "ll": 457,
      "iling": 458,
      "te": 459,
      "sh": 460,
      "ne": 461,
      "ter": 462,
      "▁perform": 463,
      "▁un": 464,
      "▁pic": 465,
      "way": 466,
      "▁background": 467,
      "get": 468,
      "ire": 469,
      "und": 470,
      "ans": 471,
      "▁park": 472,
      "▁com": 473,
      "ating": 474,
      "▁cl": 475,
      "by": 476,
      "▁top": 477,
      "▁tal": 478,
      "▁head": 479,
      "▁bike": 480,
      "▁sho": 481,
      "▁rock": 482,
      "▁dr": 483,
      "ice": 484,
      "▁wall": 485,
      "▁read": 486,
      "▁city": 487,
      "cing": 488,
      "ves": 489,
      "▁player": 490,
      "▁girls": 491,
      "ud": 492,
      "▁picture": 493,
      "▁alo": 494,
      "▁bic": 495,
      "▁looks": 496,
      "ame": 497,
      "▁camer": 498,
      "les": 499,
      "▁shor": 500,
      "uitar": 501,
      "▁sur": 502,
      "▁guitar": 503,
      "veral": 504,
      "▁that": 505,
      "▁par": 506,
      "▁dan": 507,
      "ool": 508,
      "▁hair": 509,
      "▁bus": 510,
      "ountain": 511,
      "▁dogs": 512,
      "ches": 513,
      "▁W": 514,
      "ill": 515,
      "do": 516,
      "▁clot": 517,
      "ub": 518,
      "pp": 519,
      "▁camera": 520,
      "▁wood": 521,
      "▁gu": 522,
      "▁talking": 523,
      "▁ac": 524,
      "ething": 525,
      "▁B": 526,
      "ors": 527,
      "▁something": 528,
      "ant": 529,
      "ccer": 530,
      "▁older": 531,
      "▁mid": 532,
      "▁ph": 533,
      "phone": 534,
      "▁along": 535,
      "▁walk": 536,
      "▁walks": 537,
      "ants": 538,
      "eat": 539,
      "dle": 540,
      "ive": 541,
      "▁lady": 542,
      "▁toget": 543,
      "▁soccer": 544,
      "▁together": 545,
      "▁hel": 546,
      "▁working": 547,
      "▁blond": 548,
      "▁bri": 549,
      "▁food": 550,
      "▁skate": 551,
      "▁colo": 552,
      "▁boys": 553,
      "if": 554,
      "▁gray": 555,
      "▁As": 556,
      "▁ad": 557,
      "ket": 558,
      "▁ben": 559,
      "ore": 560,
      "▁bicycle": 561,
      "▁smiling": 562,
      "kes": 563,
      "our": 564,
      "qu": 565,
      "▁him": 566,
      "ign": 567,
      "ction": 568,
      "▁uni": 569,
      "gg": 570,
      "▁has": 571,
      "ol": 572,
      "▁game": 573,
      "▁O": 574,
      "▁Asian": 575,
      "▁them": 576,
      "▁guy": 577,
      "▁plays": 578,
      "▁road": 579,
      "▁uniform": 580,
      "▁holds": 581,
      "imb": 582,
      "▁us": 583,
      "pe": 584,
      "▁sand": 585,
      "▁pre": 586,
      "▁comp": 587,
      "umb": 588,
      "ation": 589,
      "▁je": 590,
      "▁Four": 591,
      "▁Se": 592,
      "▁swim": 593,
      "▁skateboard": 594,
      "are": 595,
      "shirt": 596,
      "▁climb": 597,
      "▁bench": 598,
      "ale": 599,
      "▁und": 600,
      "▁che": 601,
      "▁pants": 602,
      "▁glasses": 603,
      "ath": 604,
      "▁br": 605,
      "▁kid": 606,
      "▁under": 607,
      "est": 608,
      "▁stage": 609,
      "▁coup": 610,
      "▁shorts": 611,
      "gs": 612,
      "ies": 613,
      "sing": 614,
      "mer": 615,
      "▁pur": 616,
      "▁carrying": 617,
      "▁suit": 618,
      "▁dirt": 619,
      "ped": 620,
      "▁abo": 621,
      "▁get": 622,
      "▁pain": 623,
      "▁pro": 624,
      "ward": 625,
      "▁baby": 626,
      "▁couple": 627,
      "▁mountain": 628,
      "▁tree": 629,
      "▁face": 630,
      "▁flo": 631,
      "▁base": 632,
      "▁outdo": 633,
      "▁wait": 634,
      "ha": 635,
      "▁G": 636,
      "▁sing": 637,
      "ell": 638,
      "hes": 639,
      "▁fem": 640,
      "oto": 641,
      "▁tan": 642,
      "led": 643,
      "▁ha": 644,
      "▁en": 645,
      "▁Several": 646,
      "▁bal": 647,
      "▁bas": 648,
      "ping": 649,
      "▁old": 650,
      "▁pool": 651,
      "▁foot": 652,
      "▁hor": 653,
      "ag": 654,
      "▁stri": 655,
      "▁long": 656,
      "▁jumps": 657,
      "ok": 658,
      "ust": 659,
      "▁tri": 660,
      "▁boat": 661,
      "▁taking": 662,
      "ull": 663,
      "▁fl": 664,
      "▁sign": 665,
      "▁each": 666,
      "▁race": 667,
      "▁basket": 668,
      "▁mic": 669,
      "▁chair": 670,
      "▁shop": 671,
      "▁doing": 672,
      "▁dark": 673,
      "▁coat": 674,
      "▁micro": 675,
      "▁watching": 676,
      "▁across": 677,
      "ican": 678,
      "uth": 679,
      "uring": 680,
      "▁mus": 681,
      "▁jeans": 682,
      "▁Y": 683,
      "▁mot": 684,
      "▁area": 685,
      "▁team": 686,
      "▁cat": 687,
      "▁male": 688,
      "▁middle": 689,
      "mp": 690,
      "▁day": 691,
      "▁att": 692,
      "▁photo": 693,
      "▁ve": 694,
      "▁hands": 695,
      "met": 696,
      "ple": 697,
      "▁spe": 698,
      "▁band": 699,
      "▁helmet": 700,
      "ugh": 701,
      "ence": 702,
      "▁store": 703,
      "▁rest": 704,
      "▁ground": 705,
      "▁motor": 706,
      "▁wind": 707,
      "▁who": 708,
      "▁horse": 709,
      "▁gat": 710,
      "▁de": 711,
      "▁room": 712,
      "▁bar": 713,
      "▁performing": 714,
      "ey": 715,
      "ome": 716,
      "▁toy": 717,
      "▁swing": 718,
      "stru": 719,
      "▁surf": 720,
      "ired": 721,
      "▁eating": 722,
      "▁female": 723,
      "▁being": 724,
      "▁sweat": 725,
      "▁L": 726,
      "▁baseball": 727,
      "ful": 728,
      "jo": 729,
      "▁mouth": 730,
      "▁color": 731,
      "▁music": 732,
      "ry": 733,
      "▁op": 734,
      "▁using": 735,
      "▁ex": 736,
      "▁Wom": 737,
      "▁football": 738,
      "▁Ch": 739,
      "▁ten": 740,
      "▁arm": 741,
      "▁striped": 742,
      "▁she": 743,
      "▁set": 744,
      "rel": 745,
      "▁purple": 746,
      "glasses": 747,
      "ment": 748,
      "▁ca": 749,
      "iv": 750,
      "nis": 751,
      "▁sl": 752,
      "cks": 753,
      "ess": 754,
      "▁look": 755,
      "▁mar": 756,
      "▁fis": 757,
      "▁toward": 758,
      "▁prep": 759,
      "ming": 760,
      "▁runs": 761,
      "aper": 762,
      "▁train": 763,
      "▁enjo": 764,
      "▁window": 765,
      "▁cross": 766,
      "▁adul": 767,
      "struction": 768,
      "ty": 769,
      "▁whe": 770,
      "▁tre": 771,
      "haired": 772,
      "▁Young": 773,
      "▁ag": 774,
      "▁past": 775,
      "dd": 776,
      "▁ob": 777,
      "▁tennis": 778,
      "▁sunglasses": 779,
      "▁reading": 780,
      "▁bot": 781,
      "ching": 782,
      "ner": 783,
      "▁clothing": 784,
      "▁players": 785,
      "▁three": 786,
      "▁microphone": 787,
      "ents": 788,
      "cean": 789,
      "aur": 790,
      "oking": 791,
      "vered": 792,
      "▁There": 793,
      "▁flow": 794,
      "ght": 795,
      "ak": 796,
      "ee": 797,
      "aring": 798,
      "▁its": 799,
      "ted": 800,
      "▁basketball": 801,
      "▁ocean": 802,
      "▁cap": 803,
      "▁fla": 804,
      "ade": 805,
      "ance": 806,
      "▁app": 807,
      "▁dis": 808,
      "▁show": 809,
      "▁watches": 810,
      "▁during": 811,
      "▁motorc": 812,
      "▁sa": 813,
      "rest": 814,
      "▁outf": 815,
      "▁pass": 816,
      "▁can": 817,
      "leep": 818,
      "▁climbing": 819,
      "▁kids": 820,
      "▁restaur": 821,
      "lderly": 822,
      "▁bright": 823,
      "use": 824,
      "▁again": 825,
      "▁restaurant": 826,
      "ix": 827,
      "▁mark": 828,
      "▁outfit": 829,
      "▁against": 830,
      "ley": 831,
      "▁stick": 832,
      "ging": 833,
      "man": 834,
      "▁fire": 835,
      "▁umb": 836,
      "▁dancing": 837,
      "rella": 838,
      "▁umbrella": 839,
      "▁bow": 840,
      "str": 841,
      "▁smile": 842,
      "▁rides": 843,
      "ces": 844,
      "▁elderly": 845,
      "▁open": 846,
      "▁throw": 847,
      "ft": 848,
      "▁I": 849,
      "▁high": 850,
      "▁hill": 851,
      "▁bag": 852,
      "io": 853,
      "▁dri": 854,
      "very": 855,
      "▁li": 856,
      "▁des": 857,
      "▁ri": 858,
      "▁posing": 859,
      "▁wooden": 860,
      "▁One": 861,
      "▁trees": 862,
      "▁about": 863,
      "je": 864,
      "▁outdoor": 865,
      "▁having": 866,
      "▁covered": 867,
      "▁they": 868,
      "ated": 869,
      "▁drin": 870,
      "▁waiting": 871,
      "▁market": 872,
      "▁all": 873,
      "ort": 874,
      "▁swimming": 875,
      "stum": 876,
      "ruck": 877,
      "▁getting": 878,
      "▁colorful": 879,
      "utting": 880,
      "▁costum": 881,
      "▁floor": 882,
      "▁trying": 883,
      "aning": 884,
      "▁bear": 885,
      "ily": 886,
      "▁construction": 887,
      "▁workers": 888,
      "▁motorcycle": 889,
      "▁very": 890,
      "ycl": 891,
      "▁mat": 892,
      "ial": 893,
      "▁cle": 894,
      "▁gr": 895,
      "▁busy": 896,
      "▁ice": 897,
      "▁cell": 898,
      "▁shirts": 899,
      "▁night": 900,
      "▁singing": 901,
      "end": 902,
      "vers": 903,
      "▁fence": 904,
      "▁kit": 905,
      "▁cart": 906,
      "▁pol": 907,
      "vel": 908,
      "▁instr": 909,
      "▁hu": 910,
      "▁new": 911,
      "▁Woman": 912,
      "▁instrum": 913,
      "ast": 914,
      "▁met": 915,
      "▁book": 916,
      "▁This": 917,
      "ier": 918,
      "iff": 919,
      "▁D": 920,
      "▁fe": 921,
      "ition": 922,
      "▁path": 923,
      "ron": 924,
      "▁light": 925,
      "ler": 926,
      "od": 927,
      "▁H": 928,
      "▁bat": 929,
      "▁stair": 930,
      "▁compet": 931,
      "ject": 932,
      "less": 933,
      "▁han": 934,
      "▁board": 935,
      "▁line": 936,
      "▁laying": 937,
      "▁Some": 938,
      "chen": 939,
      "▁ev": 940,
      "▁sleep": 941,
      "▁truck": 942,
      "▁pie": 943,
      "▁Men": 944,
      "pack": 945,
      "▁paper": 946,
      "▁body": 947,
      "▁ride": 948,
      "▁hats": 949,
      "▁clothes": 950,
      "▁inside": 951,
      "▁others": 952,
      "▁beard": 953,
      "▁kitchen": 954,
      "ac": 955,
      "cket": 956,
      "▁cellphone": 957,
      "ys": 958,
      "▁cour": 959,
      "▁kick": 960,
      "▁making": 961,
      "▁grassy": 962,
      "▁surround": 963,
      "▁river": 964,
      "▁pus": 965,
      "▁backpack": 966,
      "gra": 967,
      "▁track": 968,
      "▁brick": 969,
      "▁laugh": 970,
      "▁takes": 971,
      "▁bik": 972,
      "▁metal": 973,
      "wing": 974,
      "▁big": 975,
      "▁art": 976,
      "▁towards": 977,
      "▁full": 978,
      "ckey": 979,
      "▁step": 980,
      "▁enjoying": 981,
      "sc": 982,
      "als": 983,
      "▁mach": 984,
      "▁cow": 985,
      "iz": 986,
      "▁af": 987,
      "ny": 988,
      "▁ready": 989,
      "able": 990,
      "▁al": 991,
      "▁cre": 992,
      "▁hard": 993,
      "▁tank": 994,
      "cor": 995,
      "▁cor": 996,
      "br": 997,
      "ses": 998,
      "tic": 999,
      "ines": 1000,
      "▁me": 1001,
      "▁gather": 1002,
      "▁Five": 1003,
      "▁drum": 1004,
      "ding": 1005,
      "oot": 1006,
      "pla": 1007,
      "▁R": 1008,
      "▁painting": 1009,
      "▁sweater": 1010,
      "▁Child": 1011,
      "▁piece": 1012,
      "▁sub": 1013,
      "▁lake": 1014,
      "▁trick": 1015,
      "▁tr": 1016,
      "▁pl": 1017,
      "▁several": 1018,
      "▁above": 1019,
      "▁photogra": 1020,
      "rican": 1021,
      "▁am": 1022,
      "ller": 1023,
      "iving": 1024,
      "hered": 1025,
      "▁count": 1026,
      "ird": 1027,
      "▁going": 1028,
      "ere": 1029,
      "▁box": 1030,
      "▁kne": 1031,
      "merican": 1032,
      "▁many": 1033,
      "▁stone": 1034,
      "▁snowy": 1035,
      "▁dance": 1036,
      "▁colored": 1037,
      "ved": 1038,
      "▁bes": 1039,
      "art": 1040,
      "ork": 1041,
      "▁vest": 1042,
      "▁wave": 1043,
      "▁brid": 1044,
      "▁shopping": 1045,
      "▁wheel": 1046,
      "co": 1047,
      "ium": 1048,
      "we": 1049,
      "ym": 1050,
      "▁class": 1051,
      "▁onto": 1052,
      "▁hi": 1053,
      "ons": 1054,
      "riend": 1055,
      "▁uniforms": 1056,
      "▁surrounded": 1057,
      "▁tur": 1058,
      "ones": 1059,
      "ched": 1060,
      "▁worker": 1061,
      "room": 1062,
      "▁dra": 1063,
      "▁fr": 1064,
      "elling": 1065,
      "▁snowboard": 1066,
      "sp": 1067,
      "▁cra": 1068,
      "▁sha": 1069,
      "▁crowded": 1070,
      "▁smiles": 1071,
      "▁pra": 1072,
      "▁outdoors": 1073,
      "▁beside": 1074,
      "aut": 1075,
      "▁E": 1076,
      "▁bre": 1077,
      "▁pul": 1078,
      "ists": 1079,
      "▁gear": 1080,
      "▁todd": 1081,
      "▁convers": 1082,
      "▁adults": 1083,
      "▁stud": 1084,
      "▁house": 1085,
      "▁pole": 1086,
      "▁rain": 1087,
      "▁drinking": 1088,
      "uch": 1089,
      "▁2": 1090,
      "▁Af": 1091,
      "▁lif": 1092,
      "amily": 1093,
      "▁poin": 1094,
      "▁phone": 1095,
      "▁after": 1096,
      "ary": 1097,
      "▁jo": 1098,
      "▁lea": 1099,
      "▁teen": 1100,
      "pt": 1101,
      "▁fountain": 1102,
      "▁door": 1103,
      "iew": 1104,
      "iful": 1105,
      "▁gathered": 1106,
      "autiful": 1107,
      "▁hit": 1108,
      "▁boot": 1109,
      "▁chas": 1110,
      "▁leap": 1111,
      "▁hanging": 1112,
      "▁event": 1113,
      "ates": 1114,
      "ather": 1115,
      "ich": 1116,
      "▁ele": 1117,
      "▁catch": 1118,
      "▁subway": 1119,
      "▁bridge": 1120,
      "sel": 1121,
      "▁ap": 1122,
      "▁we": 1123,
      "▁friend": 1124,
      "▁family": 1125,
      "ening": 1126,
      "▁carri": 1127,
      "ffit": 1128,
      "gging": 1129,
      "▁ballo": 1130,
      "▁arms": 1131,
      "▁flowers": 1132,
      "▁African": 1133,
      "▁away": 1134,
      "▁gym": 1135,
      "▁graffit": 1136,
      "▁skirt": 1137,
      "aged": 1138,
      "▁preparing": 1139,
      "ane": 1140,
      "unch": 1141,
      "▁lot": 1142,
      "▁ey": 1143,
      "▁leaning": 1144,
      "ement": 1145,
      "▁object": 1146,
      "▁costume": 1147,
      "▁toddler": 1148,
      "bble": 1149,
      "hair": 1150,
      "▁hockey": 1151,
      "▁beautiful": 1152,
      "▁forest": 1153,
      "▁offic": 1154,
      "▁Many": 1155,
      "▁short": 1156,
      "▁comput": 1157,
      "▁attem": 1158,
      "ious": 1159,
      "▁sleeping": 1160,
      "▁steps": 1161,
      "▁does": 1162,
      "▁no": 1163,
      "ime": 1164,
      "▁take": 1165,
      "▁ski": 1166,
      "▁trail": 1167,
      "▁make": 1168,
      "▁cont": 1169,
      "▁guys": 1170,
      "▁fishing": 1171,
      "▁graffiti": 1172,
      "▁fil": 1173,
      "▁plaid": 1174,
      "▁rope": 1175,
      "▁shoes": 1176,
      "▁appear": 1177,
      "▁machine": 1178,
      "▁Children": 1179,
      "▁pat": 1180,
      "ong": 1181,
      "▁vol": 1182,
      "▁prepare": 1183,
      "▁stro": 1184,
      "▁asian": 1185,
      "▁four": 1186,
      "▁adult": 1187,
      "lic": 1188,
      "suit": 1189,
      "▁N": 1190,
      "▁win": 1191,
      "ish": 1192,
      "▁equ": 1193,
      "ash": 1194,
      "app": 1195,
      "▁like": 1196,
      "▁police": 1197,
      "▁stairs": 1198,
      "eep": 1199,
      "▁cur": 1200,
      "entle": 1201,
      "▁conc": 1202,
      "fe": 1203,
      "ho": 1204,
      "▁selling": 1205,
      "▁pub": 1206,
      "ery": 1207,
      "ersey": 1208,
      "▁shirtless": 1209,
      "▁lad": 1210,
      "▁pract": 1211,
      "ring": 1212,
      "▁J": 1213,
      "▁tall": 1214,
      "arf": 1215,
      "▁jersey": 1216,
      "▁sunny": 1217,
      "▁setting": 1218,
      "be": 1219,
      "out": 1220,
      "▁bet": 1221,
      "▁pe": 1222,
      "▁glass": 1223,
      "▁numb": 1224,
      "▁rocks": 1225,
      "yclist": 1226,
      "bee": 1227,
      "ps": 1228,
      "▁opp": 1229,
      "iting": 1230,
      "▁cup": 1231,
      "▁stat": 1232,
      "▁pose": 1233,
      "▁racing": 1234,
      "▁sky": 1235,
      "▁view": 1236,
      "▁sil": 1237,
      "▁wet": 1238,
      "▁putting": 1239,
      "ering": 1240,
      "▁gentle": 1241,
      "▁list": 1242,
      "▁fore": 1243,
      "▁chairs": 1244,
      "▁cowbo": 1245,
      "▁volley": 1246,
      "▁equip": 1247,
      "av": 1248,
      "isbee": 1249,
      "▁both": 1250,
      "▁throwing": 1251,
      "▁pushing": 1252,
      "▁corner": 1253,
      "hic": 1254,
      "▁blow": 1255,
      "ats": 1256,
      "▁ramp": 1257,
      "▁drink": 1258,
      "▁parade": 1259,
      "▁have": 1260,
      "▁sweatshirt": 1261,
      "▁slide": 1262,
      "ween": 1263,
      "▁public": 1264,
      "▁between": 1265,
      "▁volleyball": 1266,
      "▁American": 1267,
      "▁plast": 1268,
      "▁kis": 1269,
      "▁flip": 1270,
      "▁laughing": 1271,
      "▁ladies": 1272,
      "ined": 1273,
      "▁dist": 1274,
      "cture": 1275,
      "▁works": 1276,
      "▁someone": 1277,
      "▁flag": 1278,
      "▁instruments": 1279,
      "▁fruit": 1280,
      "▁computer": 1281,
      "▁equipment": 1282,
      "▁ent": 1283,
      "▁squ": 1284,
      "▁pick": 1285,
      "▁stop": 1286,
      "chool": 1287,
      "▁hot": 1288,
      "▁couch": 1289,
      "ase": 1290,
      "▁rail": 1291,
      "▁scen": 1292,
      "▁shou": 1293,
      "▁pictures": 1294,
      "▁vend": 1295,
      "▁vehic": 1296,
      "▁fish": 1297,
      "▁displa": 1298,
      "▁wr": 1299,
      "▁bed": 1300,
      "rete": 1301,
      "▁gar": 1302,
      "▁glo": 1303,
      "cking": 1304,
      "▁woods": 1305,
      "▁spea": 1306,
      "▁bottle": 1307,
      "▁plastic": 1308,
      "▁which": 1309,
      "▁playground": 1310,
      "▁poses": 1311,
      "▁party": 1312,
      "▁concrete": 1313,
      "de": 1314,
      "▁but": 1315,
      "▁bird": 1316,
      "▁pit": 1317,
      "▁stru": 1318,
      "▁dock": 1319,
      "ope": 1320,
      "▁hood": 1321,
      "phones": 1322,
      "▁statue": 1323,
      "▁K": 1324,
      "hed": 1325,
      "▁cig": 1326,
      "iding": 1327,
      "ally": 1328,
      "▁yard": 1329,
      "▁gold": 1330,
      "▁midair": 1331,
      "▁attemp": 1332,
      "▁winter": 1333,
      "ace": 1334,
      "▁mas": 1335,
      "▁net": 1336,
      "▁shovel": 1337,
      "ggles": 1338,
      "▁ear": 1339,
      "▁was": 1340,
      "▁pad": 1341,
      "ert": 1342,
      "▁bucket": 1343,
      "▁bikes": 1344,
      "▁number": 1345,
      "▁cowboy": 1346,
      "ience": 1347,
      "os": 1348,
      "ining": 1349,
      "ators": 1350,
      "ical": 1351,
      "▁Bo": 1352,
      "▁veget": 1353,
      "bor": 1354,
      "ms": 1355,
      "uff": 1356,
      "▁tat": 1357,
      "ests": 1358,
      "▁anim": 1359,
      "▁emp": 1360,
      "ctor": 1361,
      "▁St": 1362,
      "▁seated": 1363,
      "▁reads": 1364,
      "▁attire": 1365,
      "▁apron": 1366,
      "▁ite": 1367,
      "▁home": 1368,
      "▁fall": 1369,
      "▁stra": 1370,
      "▁just": 1371,
      "▁left": 1372,
      "▁spor": 1373,
      "▁cream": 1374,
      "▁distance": 1375,
      "cl": 1376,
      "▁ed": 1377,
      "▁aud": 1378,
      "▁ind": 1379,
      "▁cutting": 1380,
      "▁happ": 1381,
      "▁what": 1382,
      "▁cooking": 1383,
      "▁blan": 1384,
      "▁beer": 1385,
      "▁roo": 1386,
      "▁kneel": 1387,
      "az": 1388,
      "ber": 1389,
      "ns": 1390,
      "ned": 1391,
      "ric": 1392,
      "ini": 1393,
      "▁school": 1394,
      "head": 1395,
      "▁bags": 1396,
      "▁vests": 1397,
      "▁buildings": 1398,
      "▁Fr": 1399,
      "▁cliff": 1400,
      "▁where": 1401,
      "▁newsp": 1402,
      "▁pulling": 1403,
      "ban": 1404,
      "fet": 1405,
      "too": 1406,
      "▁ser": 1407,
      "▁tent": 1408,
      "▁cut": 1409,
      "lee": 1410,
      "▁station": 1411,
      "▁plat": 1412,
      "aching": 1413,
      "▁rider": 1414,
      "aret": 1415,
      "▁Little": 1416,
      "▁grill": 1417,
      "▁cigaret": 1418,
      "ug": 1419,
      "▁wrest": 1420,
      "▁var": 1421,
      "▁Girl": 1422,
      "▁bowl": 1423,
      "▁appears": 1424,
      "▁practic": 1425,
      "▁vegetable": 1426,
      "▁tattoo": 1427,
      "▁inf": 1428,
      "▁pot": 1429,
      "▁hors": 1430,
      "ony": 1431,
      "▁rela": 1432,
      "▁bare": 1433,
      "ely": 1434,
      "ctators": 1435,
      "ights": 1436,
      "▁mountains": 1437,
      "▁crossing": 1438,
      "▁showing": 1439,
      "▁instrument": 1440,
      "▁court": 1441,
      "▁edge": 1442,
      "▁blanket": 1443,
      "▁vi": 1444,
      "▁scarf": 1445,
      "▁paint": 1446,
      "▁Grou": 1447,
      "▁Ind": 1448,
      "▁structure": 1449,
      "hle": 1450,
      "na": 1451,
      "pher": 1452,
      "ins": 1453,
      "▁ban": 1454,
      "▁land": 1455,
      "▁right": 1456,
      "ading": 1457,
      "▁bubble": 1458,
      "▁nearby": 1459,
      "▁performs": 1460,
      "▁Women": 1461,
      "▁elect": 1462,
      "▁filled": 1463,
      "▁horses": 1464,
      "▁pile": 1465,
      "arm": 1466,
      "▁fix": 1467,
      "look": 1468,
      "lding": 1469,
      "cert": 1470,
      "▁musician": 1471,
      "▁mart": 1472,
      "▁driving": 1473,
      "yclists": 1474,
      "▁few": 1475,
      "▁carries": 1476,
      "▁Frisbee": 1477,
      "cal": 1478,
      "ser": 1479,
      "▁mul": 1480,
      "▁mother": 1481,
      "ffee": 1482,
      "▁goal": 1483,
      "▁shore": 1484,
      "▁bowling": 1485,
      "▁break": 1486,
      "▁leaves": 1487,
      "▁friends": 1488,
      "ven": 1489,
      "▁ce": 1490,
      "nding": 1491,
      "key": 1492,
      "▁cars": 1493,
      "▁post": 1494,
      "▁parked": 1495,
      "▁boots": 1496,
      "▁cigarette": 1497,
      "du": 1498,
      "ives": 1499,
      "ings": 1500,
      "ens": 1501,
      "▁lined": 1502,
      "▁Person": 1503,
      "▁goggles": 1504,
      "ival": 1505,
      "▁flower": 1506,
      "▁snowboarder": 1507,
      "▁vendor": 1508,
      "▁display": 1509,
      "cher": 1510,
      "▁mud": 1511,
      "▁shot": 1512,
      "ops": 1513,
      "▁athle": 1514,
      "▁col": 1515,
      "▁ladd": 1516,
      "▁railing": 1517,
      "▁spla": 1518,
      "▁talks": 1519,
      "▁skateboarder": 1520,
      "▁painted": 1521,
      "▁drums": 1522,
      "▁vehicle": 1523,
      "▁martial": 1524,
      "set": 1525,
      "▁dire": 1526,
      "▁diff": 1527,
      "▁lying": 1528,
      "▁coffee": 1529,
      "▁roller": 1530,
      "▁smoking": 1531,
      "▁dresses": 1532,
      "▁form": 1533,
      "▁concert": 1534,
      "▁rocky": 1535,
      "▁flying": 1536,
      "ivid": 1537,
      "▁alley": 1538,
      "▁eyes": 1539,
      "men": 1540,
      "▁time": 1541,
      "▁younger": 1542,
      "▁kn": 1543,
      "ighting": 1544,
      "▁jackets": 1545,
      "▁waves": 1546,
      "▁arts": 1547,
      "▁swinging": 1548,
      "▁exp": 1549,
      "▁flags": 1550,
      "▁safet": 1551,
      "▁bathing": 1552,
      "▁kicking": 1553,
      "cord": 1554,
      "▁conversation": 1555,
      "▁prepares": 1556,
      "▁roof": 1557,
      "▁newspaper": 1558,
      "▁relax": 1559,
      "▁Group": 1560,
      "▁safety": 1561,
      "ail": 1562,
      "ered": 1563,
      "ige": 1564,
      "ugg": 1565,
      "▁3": 1566,
      "▁V": 1567,
      "▁bull": 1568,
      "itary": 1569,
      "rown": 1570,
      "▁rode": 1571,
      "▁close": 1572,
      "▁parking": 1573,
      "▁spectators": 1574,
      "▁costumes": 1575,
      "▁photograph": 1576,
      "▁country": 1577,
      "erent": 1578,
      "▁hik": 1579,
      "▁gymn": 1580,
      "▁gentleman": 1581,
      "▁gloves": 1582,
      "▁practicing": 1583,
      "ike": 1584,
      "▁qu": 1585,
      "▁bunch": 1586,
      "▁put": 1587,
      "▁mil": 1588,
      "ise": 1589,
      "▁onlook": 1590,
      "▁dig": 1591,
      "▁fun": 1592,
      "ater": 1593,
      "▁rep": 1594,
      "▁this": 1595,
      "ush": 1596,
      "upp": 1597,
      "▁uses": 1598,
      "▁pres": 1599,
      "▁cleaning": 1600,
      "▁competition": 1601,
      "▁listening": 1602,
      "▁Boy": 1603,
      "▁ladder": 1604,
      "▁different": 1605,
      "olo": 1606,
      "▁there": 1607,
      "▁staring": 1608,
      "▁res": 1609,
      "▁coll": 1610,
      "ctive": 1611,
      "▁spra": 1612,
      "▁skateboarding": 1613,
      "▁bearded": 1614,
      "▁scene": 1615,
      "▁items": 1616,
      "ales": 1617,
      "cu": 1618,
      "▁mon": 1619,
      "▁cla": 1620,
      "▁giving": 1621,
      "▁ham": 1622,
      "looking": 1623,
      "ids": 1624,
      "ural": 1625,
      "▁row": 1626,
      "▁lawn": 1627,
      "▁scoot": 1628,
      "▁bicycles": 1629,
      "▁surfer": 1630,
      "▁surfboard": 1631,
      "▁desk": 1632,
      "▁bikini": 1633,
      "▁meal": 1634,
      "▁balloon": 1635,
      "▁mask": 1636,
      "▁empty": 1637,
      "▁audience": 1638,
      "▁various": 1639,
      "ividu": 1640,
      "ou": 1641,
      "ton": 1642,
      "ette": 1643,
      "▁lit": 1644,
      "ays": 1645,
      "▁drinks": 1646,
      "▁Someone": 1647,
      "ized": 1648,
      "▁among": 1649,
      "▁leaps": 1650,
      "▁Indian": 1651,
      "▁splas": 1652,
      "▁rodeo": 1653,
      "▁onlookers": 1654,
      "bb": 1655,
      "cting": 1656,
      "nic": 1657,
      "iness": 1658,
      "▁wed": 1659,
      "▁tro": 1660,
      "▁tub": 1661,
      "alm": 1662,
      "irc": 1663,
      "enc": 1664,
      "▁tow": 1665,
      "▁not": 1666,
      "▁fol": 1667,
      "▁Con": 1668,
      "▁part": 1669,
      "▁check": 1670,
      "▁cake": 1671,
      "▁sliding": 1672,
      "▁gathering": 1673,
      "▁pointing": 1674,
      "▁silver": 1675,
      "▁platform": 1676,
      "▁vegetables": 1677,
      "cts": 1678,
      "fore": 1679,
      "▁cement": 1680,
      "▁streets": 1681,
      "▁kay": 1682,
      "▁sold": 1683,
      "▁facing": 1684,
      "▁suits": 1685,
      "▁obser": 1686,
      "▁feet": 1687,
      "▁teenag": 1688,
      "▁sports": 1689,
      "▁viol": 1690,
      "lf": 1691,
      "nel": 1692,
      "pes": 1693,
      "▁bath": 1694,
      "▁mem": 1695,
      "▁before": 1696,
      "▁waters": 1697,
      "▁rais": 1698,
      "▁neck": 1699,
      "▁helmets": 1700,
      "▁competing": 1701,
      "▁biker": 1702,
      "▁speaking": 1703,
      "▁individu": 1704,
      "▁wedding": 1705,
      "cers": 1706,
      "dition": 1707,
      "ken": 1708,
      "mo": 1709,
      "rist": 1710,
      "▁tie": 1711,
      "▁int": 1712,
      "▁incl": 1713,
      "▁med": 1714,
      "▁fing": 1715,
      "eth": 1716,
      "▁lapt": 1717,
      "▁Six": 1718,
      "▁sweep": 1719,
      "▁tradition": 1720,
      "▁scul": 1721,
      "▁coming": 1722,
      "▁business": 1723,
      "▁gets": 1724,
      "▁teams": 1725,
      "▁match": 1726,
      "▁huge": 1727,
      "▁classroom": 1728,
      "mas": 1729,
      "rin": 1730,
      "▁ur": 1731,
      "▁im": 1732,
      "▁din": 1733,
      "allow": 1734,
      "▁lap": 1735,
      "▁screen": 1736,
      "▁climbs": 1737,
      "athon": 1738,
      "▁purse": 1739,
      "▁produ": 1740,
      "▁sings": 1741,
      "▁tries": 1742,
      "▁surfing": 1743,
      "▁students": 1744,
      "▁garb": 1745,
      "▁traditional": 1746,
      "▁talk": 1747,
      "▁mir": 1748,
      "▁crou": 1749,
      "▁circ": 1750,
      "eng": 1751,
      "vert": 1752,
      "▁clown": 1753,
      "▁airp": 1754,
      "pped": 1755,
      "▁bride": 1756,
      "▁cano": 1757,
      "▁counter": 1758,
      "▁chasing": 1759,
      "▁kissing": 1760,
      "▁animal": 1761,
      "▁military": 1762,
      "▁violin": 1763,
      "▁mirro": 1764,
      "aw": 1765,
      "case": 1766,
      "sk": 1767,
      "▁same": 1768,
      "▁sled": 1769,
      "▁pull": 1770,
      "▁card": 1771,
      "▁da": 1772,
      "▁fighting": 1773,
      "▁ref": 1774,
      "els": 1775,
      "▁walkway": 1776,
      "▁trun": 1777,
      "self": 1778,
      "▁stroller": 1779,
      "▁writing": 1780,
      "foot": 1781,
      "oks": 1782,
      "uck": 1783,
      "▁slo": 1784,
      "read": 1785,
      "ars": 1786,
      "▁gun": 1787,
      "▁sto": 1788,
      "▁skier": 1789,
      "▁vide": 1790,
      "▁sunset": 1791,
      "▁chef": 1792,
      "▁waits": 1793,
      "▁females": 1794,
      "ustom": 1795,
      "▁decor": 1796,
      "▁exam": 1797,
      "▁artist": 1798,
      "ticip": 1799,
      "avy": 1800,
      "▁shoulder": 1801,
      "▁kneeling": 1802,
      "th": 1803,
      "▁sort": 1804,
      "▁wra": 1805,
      "▁tun": 1806,
      "▁tire": 1807,
      "▁bur": 1808,
      "▁indo": 1809,
      "▁cand": 1810,
      "ides": 1811,
      "▁shad": 1812,
      "▁place": 1813,
      "▁end": 1814,
      "▁runner": 1815,
      "▁waving": 1816,
      "▁cheer": 1817,
      "ession": 1818,
      "▁attempting": 1819,
      "▁barefoot": 1820,
      "ristmas": 1821,
      "▁sculp": 1822,
      "▁mirror": 1823,
      "sed": 1824,
      "▁son": 1825,
      "▁inter": 1826,
      "ern": 1827,
      "▁cr": 1828,
      "alle": 1829,
      "ator": 1830,
      "▁makes": 1831,
      "▁seen": 1832,
      "▁balan": 1833,
      "▁signs": 1834,
      "▁marathon": 1835,
      "▁enjoy": 1836,
      "▁outfits": 1837,
      "▁life": 1838,
      "▁electric": 1839,
      "aff": 1840,
      "aches": 1841,
      "ib": 1842,
      "ied": 1843,
      "ki": 1844,
      "▁says": 1845,
      "▁ty": 1846,
      "lebr": 1847,
      "▁gard": 1848,
      "▁father": 1849,
      "ram": 1850,
      "▁chain": 1851,
      "▁leg": 1852,
      "▁overlooking": 1853,
      "iant": 1854,
      "▁tables": 1855,
      "▁golf": 1856,
      "▁particip": 1857,
      "▁advert": 1858,
      "▁project": 1859,
      "▁course": 1860,
      "ticolo": 1861,
      "inese": 1862,
      "▁officer": 1863,
      "▁blowing": 1864,
      "▁padd": 1865,
      "▁bubbles": 1866,
      "▁multicolo": 1867,
      "▁celebr": 1868,
      "cuss": 1869,
      "▁scooter": 1870,
      "▁advertis": 1871,
      "lling": 1872,
      "og": 1873,
      "tes": 1874,
      "▁sell": 1875,
      "▁meat": 1876,
      "▁har": 1877,
      "▁stun": 1878,
      "ung": 1879,
      "▁lights": 1880,
      "▁hole": 1881,
      "▁cover": 1882,
      "▁skating": 1883,
      "▁leans": 1884,
      "▁leather": 1885,
      "▁Work": 1886,
      "▁bald": 1887,
      "▁balloons": 1888,
      "▁happy": 1889,
      "▁fixing": 1890,
      "▁gymnast": 1891,
      "▁follow": 1892,
      "▁urban": 1893,
      "▁pier": 1894,
      "▁five": 1895,
      "unette": 1896,
      "▁tool": 1897,
      "▁Sm": 1898,
      "ape": 1899,
      "▁mag": 1900,
      "▁faces": 1901,
      "▁alone": 1902,
      "▁helping": 1903,
      "▁microsc": 1904,
      "▁oper": 1905,
      "▁discuss": 1906,
      "▁brightly": 1907,
      "▁umbrellas": 1908,
      "▁In": 1909,
      "▁photographer": 1910,
      "▁foreground": 1911,
      "▁musicians": 1912,
      "▁collar": 1913,
      "▁Construction": 1914,
      "ab": 1915,
      "ners": 1916,
      "ous": 1917,
      "▁ped": 1918,
      "▁made": 1919,
      "arate": 1920,
      "▁gro": 1921,
      "▁good": 1922,
      "▁giant": 1923,
      "ative": 1924,
      "▁stad": 1925,
      "lders": 1926,
      "▁plate": 1927,
      "chair": 1928,
      "▁site": 1929,
      "▁waterf": 1930,
      "▁asleep": 1931,
      "▁legs": 1932,
      "▁headphones": 1933,
      "▁canoe": 1934,
      "▁sculpture": 1935,
      "vice": 1936,
      "za": 1937,
      "▁well": 1938,
      "▁custom": 1939,
      "▁gre": 1940,
      "▁diving": 1941,
      "lage": 1942,
      "▁star": 1943,
      "ese": 1944,
      "▁tour": 1945,
      "▁wears": 1946,
      "▁chur": 1947,
      "▁trash": 1948,
      "▁office": 1949,
      "ips": 1950,
      "▁sandals": 1951,
      "▁swings": 1952,
      "▁passing": 1953,
      "▁sticks": 1954,
      "▁drawing": 1955,
      "▁doorway": 1956,
      "▁washing": 1957,
      "▁repair": 1958,
      "▁video": 1959,
      "▁grocer": 1960,
      "▁stadium": 1961,
      "ia": 1962,
      "spe": 1963,
      "▁1": 1964,
      "▁way": 1965,
      "▁bra": 1966,
      "▁fur": 1967,
      "▁ste": 1968,
      "▁string": 1969,
      "▁stuff": 1970,
      "amp": 1971,
      "ffic": 1972,
      "▁heads": 1973,
      "lesc": 1974,
      "▁Wh": 1975,
      "▁accord": 1976,
      "estri": 1977,
      "▁toys": 1978,
      "▁musical": 1979,
      "▁officers": 1980,
      "▁falling": 1981,
      "▁multicolored": 1982,
      "▁accordion": 1983,
      "ached": 1984,
      "band": 1985,
      "bers": 1986,
      "ral": 1987,
      "▁U": 1988,
      "▁sus": 1989,
      "ang": 1990,
      "▁mix": 1991,
      "▁hall": 1992,
      "alf": 1993,
      "▁shallow": 1994,
      "▁reaching": 1995,
      "▁smo": 1996,
      "ult": 1997,
      "▁leash": 1998,
      "▁mod": 1999,
      "▁performance": 2000,
      "▁comple": 2001,
      "▁dirty": 2002,
      "▁prof": 2003,
      "▁eng": 2004,
      "ughter": 2005,
      "▁throws": 2006,
      "▁teenage": 2007,
      "▁booth": 2008,
      "▁skiing": 2009,
      "▁picking": 2010,
      "▁includ": 2011,
      "▁laptop": 2012,
      "▁church": 2013,
      "bs": 2014,
      "dge": 2015,
      "ew": 2016,
      "mb": 2017,
      "que": 2018,
      "▁ass": 2019,
      "▁pack": 2020,
      "▁prin": 2021,
      "▁cas": 2022,
      "▁feat": 2023,
      "orch": 2024,
      "▁below": 2025,
      "▁eat": 2026,
      "▁roll": 2027,
      "▁laund": 2028,
      "▁pond": 2029,
      "▁traffic": 2030,
      "▁males": 2031,
      "▁prote": 2032,
      "ught": 2033,
      "▁clean": 2034,
      "▁hiking": 2035,
      "▁straw": 2036,
      "▁digging": 2037,
      "▁present": 2038,
      "back": 2039,
      "cial": 2040,
      "osing": 2041,
      "zz": 2042,
      "▁inspe": 2043,
      "▁pet": 2044,
      "▁mom": 2045,
      "lead": 2046,
      "▁gives": 2047,
      "▁fin": 2048,
      "ord": 2049,
      "ics": 2050,
      "▁atop": 2051,
      "alls": 2052,
      "▁nap": 2053,
      "▁log": 2054,
      "▁tack": 2055,
      "▁kha": 2056,
      "▁upside": 2057,
      "▁van": 2058,
      "▁vis": 2059,
      "▁spot": 2060,
      "▁soft": 2061,
      "▁seem": 2062,
      "▁move": 2063,
      "uddle": 2064,
      "▁cloth": 2065,
      "ages": 2066,
      "▁catches": 2067,
      "▁catching": 2068,
      "▁passes": 2069,
      "▁hugging": 2070,
      "acher": 2071,
      "▁direction": 2072,
      "▁relaxing": 2073,
      "▁tunnel": 2074,
      "▁microscope": 2075,
      "slee": 2076,
      "▁act": 2077,
      "res": 2078,
      "▁fre": 2079,
      "stand": 2080,
      "▁beige": 2081,
      "▁lab": 2082,
      "▁balls": 2083,
      "▁block": 2084,
      "▁shoe": 2085,
      "▁dancers": 2086,
      "▁brunette": 2087,
      "▁Gu": 2088,
      "▁Christmas": 2089,
      "▁Chinese": 2090,
      "▁shows": 2091,
      "▁sleeps": 2092,
      "▁leaping": 2093,
      "▁sweeping": 2094,
      "▁garden": 2095,
      "▁stunt": 2096,
      "▁suspe": 2097,
      "light": 2098,
      "work": 2099,
      "▁round": 2100,
      "▁pupp": 2101,
      "ront": 2102,
      "▁dun": 2103,
      "▁fan": 2104,
      "▁fight": 2105,
      "▁fest": 2106,
      "▁tou": 2107,
      "▁hose": 2108,
      "▁stret": 2109,
      "▁stream": 2110,
      "▁tracks": 2111,
      "▁teeth": 2112,
      "▁telesc": 2113,
      "▁sea": 2114,
      "▁scaff": 2115,
      "▁Black": 2116,
      "▁swimsuit": 2117,
      "▁singer": 2118,
      "▁flies": 2119,
      "▁coats": 2120,
      "▁cafe": 2121,
      "▁desert": 2122,
      "▁conversing": 2123,
      "▁eye": 2124,
      "▁hoodie": 2125,
      "▁resting": 2126,
      "▁hammer": 2127,
      "▁daughter": 2128,
      "▁trunks": 2129,
      "▁scaffo": 2130,
      "ca": 2131,
      "cross": 2132,
      "ient": 2133,
      "uzz": 2134,
      "ret": 2135,
      "its": 2136,
      "▁hur": 2137,
      "▁fair": 2138,
      "▁fram": 2139,
      "▁stack": 2140,
      "▁town": 2141,
      "▁how": 2142,
      "▁cold": 2143,
      "▁held": 2144,
      "ental": 2145,
      "▁karate": 2146,
      "▁racket": 2147,
      "neath": 2148,
      "▁guard": 2149,
      "▁underneath": 2150,
      "wards": 2151,
      "▁balc": 2152,
      "▁appro": 2153,
      "▁plants": 2154,
      "▁points": 2155,
      "▁jogging": 2156,
      "▁contain": 2157,
      "▁square": 2158,
      "▁wrestling": 2159,
      "▁splashing": 2160,
      "▁suspend": 2161,
      "▁telescope": 2162,
      "cas": 2163,
      "fight": 2164,
      "lers": 2165,
      "nival": 2166,
      "pan": 2167,
      "▁z": 2168,
      "ina": 2169,
      "▁must": 2170,
      "▁mess": 2171,
      "▁cent": 2172,
      "arrow": 2173,
      "lat": 2174,
      "▁without": 2175,
      "▁books": 2176,
      "▁rob": 2177,
      "▁So": 2178,
      "▁tramp": 2179,
      "▁moving": 2180,
      "pping": 2181,
      "▁help": 2182,
      "oline": 2183,
      "▁themsel": 2184,
      "▁underw": 2185,
      "▁exc": 2186,
      "▁sax": 2187,
      "▁passeng": 2188,
      "▁cane": 2189,
      "▁hula": 2190,
      "▁curly": 2191,
      "▁shoulders": 2192,
      "▁Kids": 2193,
      "▁colle": 2194,
      "▁spray": 2195,
      "allen": 2196,
      "▁magaz": 2197,
      "▁including": 2198,
      "▁themselves": 2199,
      "bla": 2200,
      "com": 2201,
      "hone": 2202,
      "▁es": 2203,
      "ino": 2204,
      "▁wine": 2205,
      "▁wire": 2206,
      "▁bel": 2207,
      "▁pin": 2208,
      "▁mural": 2209,
      "erman": 2210,
      "▁crying": 2211,
      "▁cyclist": 2212,
      "▁tong": 2213,
      "ute": 2214,
      "▁ret": 2215,
      "▁low": 2216,
      "▁taken": 2217,
      "▁kind": 2218,
      "▁carnival": 2219,
      "▁bicyclist": 2220,
      "▁wooded": 2221,
      "ife": 2222,
      "▁Old": 2223,
      "▁tricks": 2224,
      "▁deck": 2225,
      "▁deep": 2226,
      "fully": 2227,
      "▁sheet": 2228,
      "▁crosswalk": 2229,
      "▁matching": 2230,
      "▁pulled": 2231,
      "▁makeup": 2232,
      "▁opposing": 2233,
      "▁wetsuit": 2234,
      "▁hiker": 2235,
      "▁kayak": 2236,
      "▁individuals": 2237,
      "▁dinner": 2238,
      "▁produce": 2239,
      "▁Workers": 2240,
      "▁Small": 2241,
      "▁trampoline": 2242,
      "aks": 2243,
      "iers": 2244,
      "ual": 2245,
      "▁key": 2246,
      "▁ter": 2247,
      "▁cri": 2248,
      "▁fig": 2249,
      "▁Te": 2250,
      "eding": 2251,
      "▁rece": 2252,
      "▁lone": 2253,
      "▁rolling": 2254,
      "▁closed": 2255,
      "▁sewing": 2256,
      "▁performer": 2257,
      "▁picnic": 2258,
      "▁dances": 2259,
      "▁brus": 2260,
      "▁surface": 2261,
      "▁knee": 2262,
      "▁wheelchair": 2263,
      "▁nose": 2264,
      "▁stroll": 2265,
      "▁pitcher": 2266,
      "▁attempts": 2267,
      "▁infant": 2268,
      "▁members": 2269,
      "▁refle": 2270,
      "▁stuffed": 2271,
      "▁profession": 2272,
      "ness": 2273,
      "tom": 2274,
      "udy": 2275,
      "yle": 2276,
      "ital": 2277,
      "let": 2278,
      "ara": 2279,
      "ature": 2280,
      "icycle": 2281,
      "▁ring": 2282,
      "▁rug": 2283,
      "▁hoop": 2284,
      "▁bever": 2285,
      "▁third": 2286,
      "riental": 2287,
      "▁lays": 2288,
      "▁These": 2289,
      "ular": 2290,
      "▁Co": 2291,
      "▁goes": 2292,
      "▁blouse": 2293,
      "▁himself": 2294,
      "ustic": 2295,
      "▁bottom": 2296,
      "▁opening": 2297,
      "▁pushes": 2298,
      "▁trans": 2299,
      "▁button": 2300,
      "▁circle": 2301,
      "▁slope": 2302,
      "estrians": 2303,
      "leaders": 2304,
      "▁softball": 2305,
      "▁balcony": 2306,
      "▁center": 2307,
      "▁saxop": 2308,
      "ond": 2309,
      "per": 2310,
      "rink": 2311,
      "yard": 2312,
      "▁4": 2313,
      "▁tile": 2314,
      "▁bent": 2315,
      "▁mop": 2316,
      "rol": 2317,
      "road": 2318,
      "▁steep": 2319,
      "▁shoo": 2320,
      "▁lunch": 2321,
      "▁rub": 2322,
      "▁jugg": 2323,
      "▁cond": 2324,
      "illing": 2325,
      "▁skis": 2326,
      "▁sprink": 2327,
      "▁travel": 2328,
      "▁cons": 2329,
      "▁see": 2330,
      "▁most": 2331,
      "ipe": 2332,
      "▁dry": 2333,
      "▁sandy": 2334,
      "▁device": 2335,
      "▁staircase": 2336,
      "▁boxes": 2337,
      "artment": 2338,
      "▁turn": 2339,
      "▁chases": 2340,
      "▁speaks": 2341,
      "▁athlete": 2342,
      "▁formal": 2343,
      "▁puts": 2344,
      "▁pulls": 2345,
      "▁indoor": 2346,
      "dium": 2347,
      "lane": 2348,
      "▁i": 2349,
      "▁gaz": 2350,
      "▁fallen": 2351,
      "atting": 2352,
      "▁stare": 2353,
      "ster": 2354,
      "▁cook": 2355,
      "▁robe": 2356,
      "cted": 2357,
      "▁podium": 2358,
      "▁overalls": 2359,
      "▁paved": 2360,
      "▁swims": 2361,
      "▁enjoys": 2362,
      "▁drives": 2363,
      "▁design": 2364,
      "scape": 2365,
      "place": 2366,
      "▁shaking": 2367,
      "▁covering": 2368,
      "▁grocery": 2369,
      "▁fresh": 2370,
      "▁Guy": 2371,
      "▁festival": 2372,
      "▁keyboard": 2373,
      "ger": 2374,
      "gon": 2375,
      "▁slee": 2376,
      "▁At": 2377,
      "ited": 2378,
      "▁pan": 2379,
      "▁pian": 2380,
      "▁porch": 2381,
      "▁puddle": 2382,
      "▁gate": 2383,
      "▁den": 2384,
      "▁farm": 2385,
      "▁fenc": 2386,
      "▁stool": 2387,
      "icem": 2388,
      "▁nice": 2389,
      "▁loun": 2390,
      "▁chalk": 2391,
      "ried": 2392,
      "vement": 2393,
      "▁heavy": 2394,
      "▁pouring": 2395,
      "apan": 2396,
      "apers": 2397,
      "▁tele": 2398,
      "▁mound": 2399,
      "tend": 2400,
      "▁bicyclists": 2401,
      "▁dancer": 2402,
      "▁Older": 2403,
      "▁jean": 2404,
      "▁marching": 2405,
      "▁windows": 2406,
      "▁driver": 2407,
      "▁grind": 2408,
      "▁kicks": 2409,
      "covered": 2410,
      "▁shaving": 2411,
      "▁New": 2412,
      "ashion": 2413,
      "▁curb": 2414,
      "▁gentlemen": 2415,
      "▁birds": 2416,
      "▁hikers": 2417,
      "▁teenagers": 2418,
      "▁fingers": 2419,
      "▁waterfall": 2420,
      "▁customers": 2421,
      "▁laundry": 2422,
      "▁robes": 2423,
      "▁figure": 2424,
      "bat": 2425,
      "dress": 2426,
      "fts": 2427,
      "range": 2428,
      "test": 2429,
      "tail": 2430,
      "▁ke": 2431,
      "▁sale": 2432,
      "▁tw": 2433,
      "▁oriental": 2434,
      "▁AT": 2435,
      "▁palm": 2436,
      "▁mer": 2437,
      "▁groom": 2438,
      "▁don": 2439,
      "▁dust": 2440,
      "▁ship": 2441,
      "▁arena": 2442,
      "▁bou": 2443,
      "▁reaches": 2444,
      "▁lies": 2445,
      "▁lots": 2446,
      "▁local": 2447,
      "▁cho": 2448,
      "ads": 2449,
      "illow": 2450,
      "uses": 2451,
      "▁lay": 2452,
      "▁carp": 2453,
      "▁polo": 2454,
      "▁poles": 2455,
      "▁backyard": 2456,
      "▁ledge": 2457,
      "▁cloudy": 2458,
      "▁blocks": 2459,
      "▁checking": 2460,
      "merg": 2461,
      "▁attached": 2462,
      "▁barbe": 2463,
      "▁colors": 2464,
      "▁sheep": 2465,
      "▁Here": 2466,
      "▁hangs": 2467,
      "▁evening": 2468,
      "▁oppos": 2469,
      "▁foreign": 2470,
      "▁golden": 2471,
      "▁shoveling": 2472,
      "uggage": 2473,
      "▁teenager": 2474,
      "▁airplane": 2475,
      "▁wrapped": 2476,
      "▁paddling": 2477,
      "▁protective": 2478,
      "▁khaki": 2479,
      "▁shooting": 2480,
      "▁piano": 2481,
      "▁opposite": 2482,
      "der": 2483,
      "flage": 2484,
      "ible": 2485,
      "jam": 2486,
      "ka": 2487,
      "sition": 2488,
      "time": 2489,
      "inning": 2490,
      "itor": 2491,
      "▁pair": 2492,
      "▁port": 2493,
      "▁pillow": 2494,
      "ato": 2495,
      "▁luggage": 2496,
      "ersk": 2497,
      "▁poss": 2498,
      "▁position": 2499,
      "▁raft": 2500,
      "▁sword": 2501,
      "▁vac": 2502,
      "▁cones": 2503,
      "▁pavement": 2504,
      "▁pajam": 2505,
      "▁camou": 2506,
      "▁fabr": 2507,
      "anta": 2508,
      "ift": 2509,
      "▁adj": 2510,
      "▁bran": 2511,
      "▁jumpsuit": 2512,
      "▁bandan": 2513,
      "▁def": 2514,
      "ively": 2515,
      "▁clear": 2516,
      "▁policem": 2517,
      "▁amus": 2518,
      "▁lift": 2519,
      "▁Japan": 2520,
      "▁oppon": 2521,
      "▁inflat": 2522,
      "▁poster": 2523,
      "▁balancing": 2524,
      "▁type": 2525,
      "▁tongue": 2526,
      "▁saxophone": 2527,
      "▁denim": 2528,
      "▁fenced": 2529,
      "▁camouflage": 2530,
      "▁inflatable": 2531,
      "ced": 2532,
      "cut": 2533,
      "land": 2534,
      "oon": 2535,
      "ured": 2536,
      "vis": 2537,
      "whe": 2538,
      "inned": 2539,
      "▁wild": 2540,
      "▁di": 2541,
      "▁far": 2542,
      "ets": 2543,
      "ident": 2544,
      "▁yo": 2545,
      "▁refe": 2546,
      "▁beam": 2547,
      "▁eats": 2548,
      "ower": 2549,
      "▁Sp": 2550,
      "▁buying": 2551,
      "oney": 2552,
      "▁orn": 2553,
      "▁tractor": 2554,
      "▁sec": 2555,
      "▁seat": 2556,
      "▁camp": 2557,
      "▁headsc": 2558,
      "▁shoot": 2559,
      "▁walls": 2560,
      "▁chest": 2561,
      "▁floating": 2562,
      "▁flight": 2563,
      "▁cast": 2564,
      "▁married": 2565,
      "tyard": 2566,
      "▁motorcycles": 2567,
      "▁courtyard": 2568,
      "▁laughs": 2569,
      "▁plan": 2570,
      "▁skirts": 2571,
      "▁kiss": 2572,
      "▁railroad": 2573,
      "ertain": 2574,
      "▁goalie": 2575,
      "▁image": 2576,
      "▁shadow": 2577,
      "▁frame": 2578,
      "▁escal": 2579,
      "▁professional": 2580,
      "▁juggling": 2581,
      "▁fabric": 2582,
      "cy": 2583,
      "day": 2584,
      "ma": 2585,
      "oustic": 2586,
      "ti": 2587,
      "ten": 2588,
      "vol": 2589,
      "wk": 2590,
      "▁rou": 2591,
      "▁sum": 2592,
      "▁sup": 2593,
      "▁sim": 2594,
      "ither": 2595,
      "▁pig": 2596,
      "▁map": 2597,
      "▁toss": 2598,
      "eds": 2599,
      "stra": 2600,
      "▁ju": 2601,
      "▁coast": 2602,
      "▁either": 2603,
      "▁Santa": 2604,
      "▁bucking": 2605,
      "▁backwards": 2606,
      "▁riders": 2607,
      "▁socks": 2608,
      "▁moves": 2609,
      "iple": 2610,
      "tered": 2611,
      "▁club": 2612,
      "▁shown": 2613,
      "▁acoustic": 2614,
      "▁cheering": 2615,
      "▁floral": 2616,
      "▁boats": 2617,
      "▁firefight": 2618,
      "▁marketplace": 2619,
      "▁Dog": 2620,
      "▁meet": 2621,
      "▁bread": 2622,
      "▁carriage": 2623,
      "▁jerseys": 2624,
      "▁entertain": 2625,
      "▁happily": 2626,
      "▁towel": 2627,
      "▁soldier": 2628,
      "▁soldiers": 2629,
      "▁garbage": 2630,
      "▁tools": 2631,
      "▁goods": 2632,
      "▁rollersk": 2633,
      "▁touching": 2634,
      "▁scaffolding": 2635,
      "▁hurdle": 2636,
      "▁suspended": 2637,
      "▁carpet": 2638,
      "▁pajamas": 2639,
      "▁bandanna": 2640,
      "ds": 2641,
      "hood": 2642,
      "line": 2643,
      "uro": 2644,
      "ucas": 2645,
      "wel": 2646,
      "▁5": 2647,
      "▁american": 2648,
      "▁six": 2649,
      "▁supp": 2650,
      "▁war": 2651,
      "▁tar": 2652,
      "▁invol": 2653,
      "nds": 2654,
      "▁hay": 2655,
      "▁dining": 2656,
      "▁fly": 2657,
      "▁fans": 2658,
      "ory": 2659,
      "▁shade": 2660,
      "▁boun": 2661,
      "▁plaza": 2662,
      "stac": 2663,
      "▁chop": 2664,
      "▁cool": 2665,
      "▁egg": 2666,
      "ention": 2667,
      "▁rac": 2668,
      "▁Male": 2669,
      "aped": 2670,
      "▁snack": 2671,
      "▁broom": 2672,
      "lymp": 2673,
      "▁teacher": 2674,
      "▁Che": 2675,
      "ipes": 2676,
      "▁tops": 2677,
      "▁parach": 2678,
      "▁Seven": 2679,
      "▁paints": 2680,
      "▁float": 2681,
      "▁German": 2682,
      "▁teamm": 2683,
      "▁barrel": 2684,
      "▁caught": 2685,
      "▁obstac": 2686,
      "aker": 2687,
      "▁living": 2688,
      "▁backpacks": 2689,
      "▁plant": 2690,
      "▁welding": 2691,
      "▁peace": 2692,
      "▁animals": 2693,
      "▁kneels": 2694,
      "▁serving": 2695,
      "▁landscape": 2696,
      "▁athletic": 2697,
      "▁raised": 2698,
      "▁airport": 2699,
      "skinned": 2700,
      "▁stove": 2701,
      "▁advertisement": 2702,
      "▁harness": 2703,
      "▁White": 2704,
      "▁model": 2705,
      "sleeved": 2706,
      "▁underwater": 2707,
      "▁magazine": 2708,
      "▁rugby": 2709,
      "▁escalator": 2710,
      "ucasian": 2711,
      "bile": 2712,
      "bow": 2713,
      "cue": 2714,
      "ection": 2715,
      "ik": 2716,
      "lit": 2717,
      "med": 2718,
      "mers": 2719,
      "ws": 2720,
      "▁action": 2721,
      "▁Ar": 2722,
      "▁pony": 2723,
      "▁pige": 2724,
      "▁pipe": 2725,
      "erc": 2726,
      "erby": 2727,
      "▁cere": 2728,
      "▁dread": 2729,
      "▁fashion": 2730,
      "▁doll": 2731,
      "▁bending": 2732,
      "▁thrown": 2733,
      "▁heart": 2734,
      "ently": 2735,
      "▁gravel": 2736,
      "▁runners": 2737,
      "▁neon": 2738,
      "chestra": 2739,
      "▁Ca": 2740,
      "▁fast": 2741,
      "tery": 2742,
      "▁haircut": 2743,
      "▁use": 2744,
      "ations": 2745,
      "▁climber": 2746,
      "▁York": 2747,
      "▁storef": 2748,
      "▁drive": 2749,
      "▁liqu": 2750,
      "▁grilling": 2751,
      "▁polka": 2752,
      "▁trump": 2753,
      "▁plane": 2754,
      "▁student": 2755,
      "▁jockey": 2756,
      "▁hooded": 2757,
      "▁rollerbla": 2758,
      "▁tube": 2759,
      "▁neckla": 2760,
      "▁finger": 2761,
      "▁examining": 2762,
      "▁participating": 2763,
      "▁operating": 2764,
      "▁seems": 2765,
      "▁brushing": 2766,
      "▁amusement": 2767,
      "▁referee": 2768,
      "▁obstacle": 2769,
      "ech": 2770,
      "like": 2771,
      "▁wide": 2772,
      "▁warm": 2773,
      "▁try": 2774,
      "▁money": 2775,
      "▁cone": 2776,
      "▁care": 2777,
      "▁cyclists": 2778,
      "rop": 2779,
      "▁ges": 2780,
      "▁half": 2781,
      "▁dump": 2782,
      "▁fir": 2783,
      "▁fen": 2784,
      "unk": 2785,
      "▁sharing": 2786,
      "gel": 2787,
      "▁jung": 2788,
      "▁loc": 2789,
      "▁outst": 2790,
      "▁beg": 2791,
      "ilt": 2792,
      "▁thin": 2793,
      "▁thumb": 2794,
      "▁things": 2795,
      "▁redhead": 2796,
      "▁ext": 2797,
      "▁ropes": 2798,
      "▁heels": 2799,
      "▁orchestra": 2800,
      "▁sport": 2801,
      "▁wagon": 2802,
      "ister": 2803,
      "ills": 2804,
      "▁Blo": 2805,
      "▁adm": 2806,
      "▁benches": 2807,
      "▁sandw": 2808,
      "shirts": 2809,
      "▁protest": 2810,
      "▁trip": 2811,
      "▁motorb": 2812,
      "▁exerc": 2813,
      "▁sets": 2814,
      "akers": 2815,
      "▁sticking": 2816,
      "▁ribb": 2817,
      "▁compete": 2818,
      "▁frisbee": 2819,
      "▁studio": 2820,
      "▁hitting": 2821,
      "▁attempt": 2822,
      "hound": 2823,
      "▁practice": 2824,
      "▁vehicles": 2825,
      "▁muddy": 2826,
      "▁knit": 2827,
      "▁photographs": 2828,
      "▁checkered": 2829,
      "▁bathroom": 2830,
      "▁individual": 2831,
      "▁crouches": 2832,
      "▁decorated": 2833,
      "▁candy": 2834,
      "▁pedestrians": 2835,
      "▁hallway": 2836,
      "▁print": 2837,
      "▁presentation": 2838,
      "▁sleeve": 2839,
      "▁Japanese": 2840,
      "▁opponent": 2841,
      "▁youth": 2842,
      "▁headscarf": 2843,
      "▁rout": 2844,
      "▁gesture": 2845,
      "▁jungle": 2846,
      "aking": 2847,
      "ache": 2848,
      "cc": 2849,
      "hib": 2850,
      "iet": 2851,
      "me": 2852,
      "so": 2853,
      "wl": 2854,
      "yhound": 2855,
      "zer": 2856,
      "iny": 2857,
      "inery": 2858,
      "▁sack": 2859,
      "▁sink": 2860,
      "▁tu": 2861,
      "▁ble": 2862,
      "▁moto": 2863,
      "▁muzz": 2864,
      "erial": 2865,
      "isting": 2866,
      "▁only": 2867,
      "▁dem": 2868,
      "▁start": 2869,
      "etra": 2870,
      "▁you": 2871,
      "▁native": 2872,
      "umn": 2873,
      "ility": 2874,
      "usk": 2875,
      "▁emb": 2876,
      "▁rowing": 2877,
      "iewing": 2878,
      "▁racer": 2879,
      "▁neigh": 2880,
      "rench": 2881,
      "ycling": 2882,
      "▁foc": 2883,
      "▁arch": 2884,
      "▁guitars": 2885,
      "▁Brown": 2886,
      "ggy": 2887,
      "▁jewel": 2888,
      "▁skateboards": 2889,
      "▁speech": 2890,
      "▁rests": 2891,
      "▁slides": 2892,
      "▁appl": 2893,
      "▁dish": 2894,
      "▁cleans": 2895,
      "▁Do": 2896,
      "▁feeding": 2897,
      "▁machinery": 2898,
      "▁also": 2899,
      "▁drummer": 2900,
      "▁snowboarding": 2901,
      "▁leaf": 2902,
      "ption": 2903,
      "▁eleph": 2904,
      "▁control": 2905,
      "▁patter": 2906,
      "▁patio": 2907,
      "▁Jo": 2908,
      "▁fruits": 2909,
      "▁entr": 2910,
      "▁garage": 2911,
      "▁ears": 2912,
      "uffy": 2913,
      "▁sporting": 2914,
      "▁ceiling": 2915,
      "ibly": 2916,
      "▁mustache": 2917,
      "▁excited": 2918,
      "▁passengers": 2919,
      "▁barbecue": 2920,
      "▁policeman": 2921,
      "▁summer": 2922,
      "▁racetra": 2923,
      "▁motocross": 2924,
      "▁racetrack": 2925,
      "eum": 2926,
      "ges": 2927,
      "ilo": 2928,
      "mat": 2929,
      "mon": 2930,
      "truck": 2931,
      "▁rough": 2932,
      "▁aqu": 2933,
      "▁sy": 2934,
      "▁sal": 2935,
      "▁pine": 2936,
      "▁puck": 2937,
      "▁gl": 2938,
      "▁dim": 2939,
      "loy": 2940,
      "ica": 2941,
      "irth": 2942,
      "▁rec": 2943,
      "▁lane": 2944,
      "ersection": 2945,
      "▁narrow": 2946,
      "▁hosp": 2947,
      "▁coach": 2948,
      "ady": 2949,
      "▁tho": 2950,
      "used": 2951,
      "rier": 2952,
      "ards": 2953,
      "▁herself": 2954,
      "▁tag": 2955,
      "▁She": 2956,
      "▁cloud": 2957,
      "▁Crowd": 2958,
      "▁headband": 2959,
      "▁surg": 2960,
      "▁bushes": 2961,
      "uba": 2962,
      "▁BM": 2963,
      "▁Br": 2964,
      "▁On": 2965,
      "▁Olymp": 2966,
      "▁brush": 2967,
      "hawk": 2968,
      "▁baskets": 2969,
      "▁museum": 2970,
      "▁horseback": 2971,
      "▁exhib": 2972,
      "▁hillside": 2973,
      "jects": 2974,
      "astern": 2975,
      "▁boardwalk": 2976,
      "▁bikers": 2977,
      "▁photograp": 2978,
      "▁leaving": 2979,
      "▁wea": 2980,
      "▁stopped": 2981,
      "borhood": 2982,
      "▁electron": 2983,
      "▁observe": 2984,
      "▁intersection": 2985,
      "▁sells": 2986,
      "▁discussion": 2987,
      "▁petting": 2988,
      "▁beverage": 2989,
      "▁keep": 2990,
      "▁ATV": 2991,
      "▁possibly": 2992,
      "▁trumpet": 2993,
      "▁Blond": 2994,
      "▁sandwich": 2995,
      "▁routine": 2996,
      "▁entrance": 2997,
      "▁hospital": 2998,
      "ex": 2999,
      "fa": 3000,
      "flo": 3001,
      "fting": 3002,
      "gan": 3003,
      "ior": 3004,
      "ially": 3005,
      "▁ahead": 3006,
      "▁song": 3007,
      "▁tight": 3008,
      "▁brow": 3009,
      "▁pen": 3010,
      "▁mall": 3011,
      "▁main": 3012,
      "▁cal": 3013,
      "roon": 3014,
      "▁dep": 3015,
      "▁free": 3016,
      "aters": 3017,
      "▁stones": 3018,
      "locks": 3019,
      "iddle": 3020,
      "uts": 3021,
      "▁lan": 3022,
      "▁nur": 3023,
      "▁navy": 3024,
      "▁load": 3025,
      "▁cobble": 3026,
      "▁tax": 3027,
      "ions": 3028,
      "boat": 3029,
      "▁Sh": 3030,
      "▁Mo": 3031,
      "▁Mus": 3032,
      "▁skates": 3033,
      "rence": 3034,
      "▁vil": 3035,
      "▁spread": 3036,
      "▁folding": 3037,
      "▁maroon": 3038,
      "▁handstand": 3039,
      "▁Fire": 3040,
      "▁seats": 3041,
      "▁scre": 3042,
      "down": 3043,
      "▁helps": 3044,
      "gged": 3045,
      "▁microphones": 3046,
      "▁Large": 3047,
      "▁Lady": 3048,
      "▁cab": 3049,
      "ivers": 3050,
      "aked": 3051,
      "▁dishes": 3052,
      "▁motorcyclist": 3053,
      "▁sail": 3054,
      "▁Ho": 3055,
      "▁african": 3056,
      "▁Ro": 3057,
      "▁chase": 3058,
      "▁patient": 3059,
      "hou": 3060,
      "house": 3061,
      "▁silhou": 3062,
      "▁squatting": 3063,
      "▁bottles": 3064,
      "▁buckets": 3065,
      "▁tattooed": 3066,
      "pherd": 3067,
      "▁clay": 3068,
      "▁cardboard": 3069,
      "▁indoors": 3070,
      "▁chains": 3071,
      "▁celebrating": 3072,
      "▁mixing": 3073,
      "▁smoke": 3074,
      "▁finis": 3075,
      "▁puppy": 3076,
      "▁dune": 3077,
      "▁fancy": 3078,
      "retched": 3079,
      "▁container": 3080,
      "▁terra": 3081,
      "▁transp": 3082,
      "▁rubber": 3083,
      "▁condu": 3084,
      "▁mostly": 3085,
      "vision": 3086,
      "▁ornate": 3087,
      "▁super": 3088,
      "▁fencing": 3089,
      "▁outstretched": 3090,
      "▁neighborhood": 3091,
      "irthday": 3092,
      "ai": 3093,
      "cess": 3094,
      "des": 3095,
      "eb": 3096,
      "go": 3097,
      "nit": 3098,
      "pa": 3099,
      "pical": 3100,
      "top": 3101,
      "uum": 3102,
      "ucks": 3103,
      "▁aut": 3104,
      "▁wife": 3105,
      "▁own": 3106,
      "▁odd": 3107,
      "▁bla": 3108,
      "▁bill": 3109,
      "reet": 3110,
      "▁pump": 3111,
      "▁pee": 3112,
      "▁cro": 3113,
      "▁calf": 3114,
      "▁gas": 3115,
      "▁hum": 3116,
      "▁dro": 3117,
      "▁del": 3118,
      "lded": 3119,
      "onstr": 3120,
      "▁doctor": 3121,
      "herman": 3122,
      "ically": 3123,
      "uting": 3124,
      "▁record": 3125,
      "▁lines": 3126,
      "▁rink": 3127,
      "▁rural": 3128,
      "stick": 3129,
      "umer": 3130,
      "▁bean": 3131,
      "ilar": 3132,
      "ames": 3133,
      "▁emerg": 3134,
      "▁lamp": 3135,
      "▁kite": 3136,
      "▁carving": 3137,
      "▁buy": 3138,
      "▁leading": 3139,
      "▁baller": 3140,
      "▁spar": 3141,
      "▁spinning": 3142,
      "▁scuba": 3143,
      "▁guitarist": 3144,
      "▁paras": 3145,
      "quet": 3146,
      "▁uniformed": 3147,
      "▁swimmer": 3148,
      "▁protes": 3149,
      "▁balance": 3150,
      "▁stripes": 3151,
      "▁bars": 3152,
      "▁coloring": 3153,
      "▁firetruck": 3154,
      "▁bagp": 3155,
      "▁grand": 3156,
      "▁hugs": 3157,
      "▁newly": 3158,
      "▁pieces": 3159,
      "brary": 3160,
      "▁amid": 3161,
      "▁boxing": 3162,
      "▁turning": 3163,
      "▁crafts": 3164,
      "▁apartment": 3165,
      "ference": 3166,
      "▁blows": 3167,
      "▁flipping": 3168,
      "▁hotdo": 3169,
      "▁scenery": 3170,
      "▁pitch": 3171,
      "▁Stud": 3172,
      "▁Street": 3173,
      "▁item": 3174,
      "▁bowls": 3175,
      "▁tattoos": 3176,
      "▁funny": 3177,
      "ency": 3178,
      "▁medical": 3179,
      "ethnic": 3180,
      "▁crouching": 3181,
      "▁burg": 3182,
      "▁cheerleaders": 3183,
      "▁great": 3184,
      "▁smokes": 3185,
      "▁inspecting": 3186,
      "▁moment": 3187,
      "▁activ": 3188,
      "▁stretching": 3189,
      "▁belt": 3190,
      "▁cricket": 3191,
      "▁reflective": 3192,
      "▁stares": 3193,
      "▁grinding": 3194,
      "▁merch": 3195,
      "▁choir": 3196,
      "▁vacuum": 3197,
      "▁defend": 3198,
      "▁dreadlocks": 3199,
      "▁storefront": 3200,
      "▁first": 3201,
      "▁sleeveless": 3202,
      "▁embra": 3203,
      "niture": 3204,
      "pers": 3205,
      "▁ethnic": 3206,
      "int": 3207,
      "▁tied": 3208,
      "▁birthday": 3209,
      "reg": 3210,
      "ites": 3211,
      "▁pri": 3212,
      "▁cop": 3213,
      "▁calm": 3214,
      "▁got": 3215,
      "▁derby": 3216,
      "iring": 3217,
      "▁stom": 3218,
      "orm": 3219,
      "ider": 3220,
      "▁doors": 3221,
      "▁reg": 3222,
      "▁reach": 3223,
      "▁live": 3224,
      "▁angel": 3225,
      "▁name": 3226,
      "▁chick": 3227,
      "▁bass": 3228,
      "ilts": 3229,
      "ook": 3230,
      "asium": 3231,
      "▁Spe": 3232,
      "▁bund": 3233,
      "▁backs": 3234,
      "▁Mar": 3235,
      "▁Middle": 3236,
      "▁broken": 3237,
      "▁let": 3238,
      "rents": 3239,
      "▁viewing": 3240,
      "ians": 3241,
      "▁cong": 3242,
      "▁conference": 3243,
      "▁sofa": 3244,
      "▁sco": 3245,
      "tending": 3246,
      "▁unicycle": 3247,
      "▁comm": 3248,
      "▁comfor": 3249,
      "eath": 3250,
      "▁compan": 3251,
      "▁chee": 3252,
      "▁balding": 3253,
      "▁fluffy": 3254,
      "▁speed": 3255,
      "▁dec": 3256,
      "▁dead": 3257,
      "▁objects": 3258,
      "▁It": 3259,
      "▁library": 3260,
      "▁material": 3261,
      "▁nighttime": 3262,
      "▁batter": 3263,
      "▁stairway": 3264,
      "acting": 3265,
      "▁surrounding": 3266,
      "izza": 3267,
      "▁crew": 3268,
      "▁corn": 3269,
      "▁Run": 3270,
      "▁wheels": 3271,
      "colo": 3272,
      "▁rainy": 3273,
      "▁computers": 3274,
      "▁listens": 3275,
      "born": 3276,
      "ctory": 3277,
      "▁cuts": 3278,
      "▁Girls": 3279,
      "▁banner": 3280,
      "▁explo": 3281,
      "▁gymnasium": 3282,
      "▁spraying": 3283,
      "▁partially": 3284,
      "▁member": 3285,
      "▁raises": 3286,
      "▁intently": 3287,
      "▁candles": 3288,
      "▁crane": 3289,
      "▁balances": 3290,
      "▁following": 3291,
      "▁discussing": 3292,
      "▁greyhound": 3293,
      "▁furniture": 3294,
      "▁finish": 3295,
      "▁approaching": 3296,
      "▁moped": 3297,
      "tails": 3298,
      "▁similar": 3299,
      "urope": 3300,
      "▁pigeons": 3301,
      "▁motorbike": 3302,
      "▁demonstr": 3303,
      "▁dimly": 3304,
      "▁BMX": 3305,
      "flops": 3306,
      "clo": 3307,
      "cul": 3308,
      "da": 3309,
      "dles": 3310,
      "ef": 3311,
      "ues": 3312,
      "▁ic": 3313,
      "inis": 3314,
      "▁sad": 3315,
      "▁weat": 3316,
      "▁tick": 3317,
      "▁bun": 3318,
      "▁bul": 3319,
      "▁bino": 3320,
      "▁pop": 3321,
      "▁papers": 3322,
      "iss": 3323,
      "▁theater": 3324,
      "▁duck": 3325,
      "▁fet": 3326,
      "▁style": 3327,
      "orts": 3328,
      "▁share": 3329,
      "▁shaped": 3330,
      "ict": 3331,
      "▁lick": 3332,
      "stone": 3333,
      "urity": 3334,
      "▁hoops": 3335,
      "eling": 3336,
      "usting": 3337,
      "▁groups": 3338,
      "▁heav": 3339,
      "ctors": 3340,
      "▁carry": 3341,
      "▁forward": 3342,
      "town": 3343,
      "▁lear": 3344,
      "▁organ": 3345,
      "▁space": 3346,
      "▁spoon": 3347,
      "▁smaller": 3348,
      "boarder": 3349,
      "rucks": 3350,
      "▁more": 3351,
      "▁mobile": 3352,
      "ways": 3353,
      "▁clut": 3354,
      "▁beneath": 3355,
      "▁pret": 3356,
      "▁horn": 3357,
      "▁catcher": 3358,
      "▁photos": 3359,
      "▁barber": 3360,
      "▁Le": 3361,
      "▁slight": 3362,
      "▁training": 3363,
      "▁crosses": 3364,
      "▁flowered": 3365,
      "▁fireman": 3366,
      "▁hang": 3367,
      "▁push": 3368,
      "▁turns": 3369,
      "▁shaved": 3370,
      "▁rainbow": 3371,
      "▁20": 3372,
      "▁hits": 3373,
      "▁official": 3374,
      "▁trailer": 3375,
      "▁nets": 3376,
      "▁shovels": 3377,
      "▁paddle": 3378,
      "borne": 3379,
      "▁plates": 3380,
      "▁wrestle": 3381,
      "▁mult": 3382,
      "▁exper": 3383,
      "▁amongst": 3384,
      "▁observing": 3385,
      "▁raising": 3386,
      "▁shades": 3387,
      "▁participate": 3388,
      "▁advertising": 3389,
      "▁follows": 3390,
      "▁starting": 3391,
      "▁While": 3392,
      "▁modern": 3393,
      "▁engaged": 3394,
      "▁directions": 3395,
      "▁college": 3396,
      "▁retur": 3397,
      "▁lounging": 3398,
      "▁television": 3399,
      "▁branch": 3400,
      "▁security": 3401,
      "▁castle": 3402,
      "▁teammate": 3403,
      "▁liquid": 3404,
      "▁necklace": 3405,
      "▁ribbon": 3406,
      "▁jewelry": 3407,
      "▁elephant": 3408,
      "▁electronic": 3409,
      "▁called": 3410,
      "▁taxi": 3411,
      "▁village": 3412,
      "▁billboard": 3413,
      "umerous": 3414,
      "▁stomach": 3415,
      "barrow": 3416,
      "cade": 3417,
      "hus": 3418,
      "lish": 3419,
      "min": 3420,
      "no": 3421,
      "ored": 3422,
      "▁ais": 3423,
      "inger": 3424,
      "▁sem": 3425,
      "▁wig": 3426,
      "▁wading": 3427,
      "▁inte": 3428,
      "itt": 3429,
      "itors": 3430,
      "▁press": 3431,
      "▁mini": 3432,
      "erleaders": 3433,
      "▁cree": 3434,
      "arves": 3435,
      "▁gri": 3436,
      "▁gift": 3437,
      "late": 3438,
      "ately": 3439,
      "long": 3440,
      "eter": 3441,
      "oned": 3442,
      "▁whil": 3443,
      "▁dough": 3444,
      "wood": 3445,
      "ices": 3446,
      "▁rem": 3447,
      "▁remo": 3448,
      "▁ang": 3449,
      "▁nail": 3450,
      "▁nature": 3451,
      "▁naked": 3452,
      "▁loading": 3453,
      "▁houses": 3454,
      "▁chara": 3455,
      "ello": 3456,
      "▁downtown": 3457,
      "▁poor": 3458,
      "▁bystand": 3459,
      "▁upon": 3460,
      "▁races": 3461,
      "▁Sk": 3462,
      "▁Mult": 3463,
      "▁sne": 3464,
      "▁leads": 3465,
      "▁biking": 3466,
      "▁snowsh": 3467,
      "▁snowsuit": 3468,
      "ures": 3469,
      "▁tee": 3470,
      "▁tech": 3471,
      "▁seas": 3472,
      "▁City": 3473,
      "▁camel": 3474,
      "▁airborne": 3475,
      "▁gown": 3476,
      "▁fake": 3477,
      "▁cameras": 3478,
      "▁shops": 3479,
      "▁Lond": 3480,
      "▁tents": 3481,
      "▁fisherman": 3482,
      "▁cape": 3483,
      "▁caps": 3484,
      "▁apple": 3485,
      "▁desc": 3486,
      "▁newborn": 3487,
      "▁machines": 3488,
      "izing": 3489,
      "▁Red": 3490,
      "▁tricycle": 3491,
      "▁wheelbarrow": 3492,
      "coat": 3493,
      "▁cras": 3494,
      "▁cray": 3495,
      "▁shakes": 3496,
      "▁lifting": 3497,
      "▁job": 3498,
      "sely": 3499,
      "appy": 3500,
      "▁peering": 3501,
      "▁silly": 3502,
      "avig": 3503,
      "▁glove": 3504,
      "▁employ": 3505,
      "▁straight": 3506,
      "▁pottery": 3507,
      "▁closeup": 3508,
      "▁quick": 3509,
      "▁splashes": 3510,
      "▁trunk": 3511,
      "▁guns": 3512,
      "▁chefs": 3513,
      "▁interacting": 3514,
      "▁tourists": 3515,
      "▁repairs": 3516,
      "▁steel": 3517,
      "▁US": 3518,
      "▁engine": 3519,
      "▁casual": 3520,
      "sleeve": 3521,
      "▁Soccer": 3522,
      "▁passenger": 3523,
      "▁receiving": 3524,
      "▁sprinkler": 3525,
      "▁iron": 3526,
      "▁donkey": 3527,
      "▁target": 3528,
      "▁Cheerleaders": 3529,
      "▁Caucasian": 3530,
      "▁redheaded": 3531,
      "▁admiring": 3532,
      "▁bleacher": 3533,
      "▁photographed": 3534,
      "▁weaving": 3535,
      "▁cobblestone": 3536,
      "▁scream": 3537,
      "▁terrain": 3538,
      "▁ballerina": 3539,
      "▁protesting": 3540,
      "▁Students": 3541,
      "▁congreg": 3542,
      "colored": 3543,
      "culars": 3544,
      "▁binoculars": 3545,
      "▁slightly": 3546,
      "husi": 3547,
      "▁aisle": 3548,
      "▁whilst": 3549,
      "▁charact": 3550,
      "▁snowsho": 3551,
      "▁London": 3552,
      "ared": 3553,
      "bby": 3554,
      "can": 3555,
      "dan": 3556,
      "ded": 3557,
      "eu": 3558,
      "gu": 3559,
      "ky": 3560,
      "ked": 3561,
      "lley": 3562,
      "mony": 3563,
      "nam": 3564,
      "ocal": 3565,
      "tain": 3566,
      "ually": 3567,
      "vie": 3568,
      "view": 3569,
      "xy": 3570,
      "ze": 3571,
      "zen": 3572,
      "▁6": 3573,
      "▁ump": 3574,
      "▁aw": 3575,
      "▁wings": 3576,
      "▁tom": 3577,
      "▁tor": 3578,
      "▁oven": 3579,
      "▁bin": 3580,
      "▁Ad": 3581,
      "▁Amer": 3582,
      "▁instru": 3583,
      "▁pr": 3584,
      "▁pizza": 3585,
      "▁mis": 3586,
      "▁may": 3587,
      "▁mitt": 3588,
      "▁dusk": 3589,
      "▁sty": 3590,
      "orting": 3591,
      "▁Tour": 3592,
      "onal": 3593,
      "▁shining": 3594,
      "▁dot": 3595,
      "▁bound": 3596,
      "▁rick": 3597,
      "style": 3598,
      "urf": 3599,
      "urs": 3600,
      "▁navig": 3601,
      "▁jet": 3602,
      "▁loom": 3603,
      "ument": 3604,
      "ots": 3605,
      "illed": 3606,
      "iment": 3607,
      "▁waterway": 3608,
      "box": 3609,
      "▁Mc": 3610,
      "aps": 3611,
      "▁sniff": 3612,
      "▁lead": 3613,
      "▁leot": 3614,
      "▁lecture": 3615,
      "▁Pla": 3616,
      "▁Pol": 3617,
      "▁order": 3618,
      "▁overhead": 3619,
      "▁handle": 3620,
      "▁sol": 3621,
      "▁social": 3622,
      "▁tex": 3623,
      "▁teaching": 3624,
      "▁scru": 3625,
      "▁scout": 3626,
      "▁factory": 3627,
      "shaw": 3628,
      "undy": 3629,
      "▁come": 3630,
      "▁drill": 3631,
      "ude": 3632,
      "ific": 3633,
      "▁swimmers": 3634,
      "▁checks": 3635,
      "▁flute": 3636,
      "▁attention": 3637,
      "▁debr": 3638,
      "▁barrier": 3639,
      "▁sailing": 3640,
      "▁hug": 3641,
      "▁He": 3642,
      "izon": 3643,
      "weight": 3644,
      "▁praying": 3645,
      "▁Europe": 3646,
      "▁converse": 3647,
      "▁studying": 3648,
      "▁contest": 3649,
      "▁patch": 3650,
      "▁cups": 3651,
      "▁flips": 3652,
      "▁entering": 3653,
      "▁enthusi": 3654,
      "▁butter": 3655,
      "▁landing": 3656,
      "▁breakdan": 3657,
      "▁express": 3658,
      "▁tropical": 3659,
      "▁tower": 3660,
      "▁observes": 3661,
      "▁laptops": 3662,
      "▁examines": 3663,
      "▁tires": 3664,
      "▁waterfront": 3665,
      "▁customer": 3666,
      "▁groceries": 3667,
      "▁feather": 3668,
      "▁spotted": 3669,
      "▁messy": 3670,
      "▁consisting": 3671,
      "▁lounge": 3672,
      "▁portra": 3673,
      "▁adjust": 3674,
      "▁coaster": 3675,
      "▁firefighters": 3676,
      "▁meeting": 3677,
      "▁eggs": 3678,
      "▁ceremony": 3679,
      "▁gestures": 3680,
      "▁browsing": 3681,
      "▁chainsaw": 3682,
      "▁transport": 3683,
      "▁burgundy": 3684,
      "▁commun": 3685,
      "▁pretty": 3686,
      "▁Multiple": 3687,
      "▁sneakers": 3688,
      "▁bleachers": 3689,
      "▁rickshaw": 3690,
      "▁debris": 3691,
      "bal": 3692,
      "bies": 3693,
      "eled": 3694,
      "fire": 3695,
      "gy": 3696,
      "girl": 3697,
      "hand": 3698,
      "ham": 3699,
      "hill": 3700,
      "kin": 3701,
      "kis": 3702,
      "lue": 3703,
      "lies": 3704,
      "mark": 3705,
      "of": 3706,
      "py": 3707,
      "tub": 3708,
      "ule": 3709,
      "ucking": 3710,
      "val": 3711,
      "vil": 3712,
      "wor": 3713,
      "▁if": 3714,
      "▁aim": 3715,
      "▁sen": 3716,
      "▁sized": 3717,
      "▁sides": 3718,
      "▁tug": 3719,
      "▁occ": 3720,
      "anad": 3721,
      "▁bite": 3722,
      "rent": 3723,
      "▁inj": 3724,
      "ities": 3725,
      "▁pow": 3726,
      "▁pood": 3727,
      "▁mow": 3728,
      "▁call": 3729,
      "▁crown": 3730,
      "leas": 3731,
      "robat": 3732,
      "arn": 3733,
      "arter": 3734,
      "▁give": 3735,
      "▁games": 3736,
      "enting": 3737,
      "▁strange": 3738,
      "cked": 3739,
      "▁To": 3740,
      "andise": 3741,
      "rail": 3742,
      "▁places": 3743,
      "▁attend": 3744,
      "▁attending": 3745,
      "▁yog": 3746,
      "▁rel": 3747,
      "▁recl": 3748,
      "▁lar": 3749,
      "▁ru": 3750,
      "▁bamb": 3751,
      "umin": 3752,
      "▁blur": 3753,
      "▁been": 3754,
      "▁eight": 3755,
      "imate": 3756,
      "▁lacross": 3757,
      "▁tape": 3758,
      "ults": 3759,
      "▁waterme": 3760,
      "▁carts": 3761,
      "▁backd": 3762,
      "▁world": 3763,
      "▁brother": 3764,
      "▁ord": 3765,
      "▁overweight": 3766,
      "▁mass": 3767,
      "▁handing": 3768,
      "▁Fem": 3769,
      "▁teal": 3770,
      "▁wares": 3771,
      "▁sele": 3772,
      "▁seco": 3773,
      "▁scra": 3774,
      "▁score": 3775,
      "▁science": 3776,
      "▁Com": 3777,
      "▁movie": 3778,
      "ipping": 3779,
      "▁performers": 3780,
      "▁comes": 3781,
      "▁heading": 3782,
      "▁headdress": 3783,
      "▁accom": 3784,
      "▁Bear": 3785,
      "▁bricks": 3786,
      "▁brief": 3787,
      "▁adv": 3788,
      "quo": 3789,
      "▁chess": 3790,
      "▁purch": 3791,
      "▁suitcase": 3792,
      "▁horizon": 3793,
      "▁attra": 3794,
      "▁firemen": 3795,
      "▁desce": 3796,
      "▁paperwork": 3797,
      "brush": 3798,
      "▁knees": 3799,
      "▁wheelie": 3800,
      "▁draw": 3801,
      "▁craft": 3802,
      "▁filling": 3803,
      "▁listen": 3804,
      "▁forehead": 3805,
      "▁stops": 3806,
      "▁hotel": 3807,
      "▁vendors": 3808,
      "▁Boys": 3809,
      "▁newspapers": 3810,
      "▁wrestler": 3811,
      "▁blankets": 3812,
      "▁banan": 3813,
      "▁banjo": 3814,
      "▁colla": 3815,
      "▁alleyway": 3816,
      "▁knife": 3817,
      "▁countryside": 3818,
      "▁monument": 3819,
      "▁clad": 3820,
      "▁clapping": 3821,
      "▁scooters": 3822,
      "bbing": 3823,
      "▁trolley": 3824,
      "▁kayaks": 3825,
      "▁sweeps": 3826,
      "▁wrap": 3827,
      "▁paddles": 3828,
      "▁gymnastics": 3829,
      "ably": 3830,
      "▁tourist": 3831,
      "▁complete": 3832,
      "▁inspects": 3833,
      "▁tackle": 3834,
      "▁visiting": 3835,
      "▁touches": 3836,
      "▁scaffold": 3837,
      "▁wires": 3838,
      "▁beverages": 3839,
      "▁telephone": 3840,
      "▁boulder": 3841,
      "▁pillows": 3842,
      "▁shadows": 3843,
      "▁pigtails": 3844,
      "▁tossing": 3845,
      "▁juice": 3846,
      "▁exercise": 3847,
      "▁applying": 3848,
      "▁Joh": 3849,
      "ilot": 3850,
      "▁exhibit": 3851,
      "▁beanie": 3852,
      "▁emergency": 3853,
      "▁bagpipes": 3854,
      "▁merchandise": 3855,
      "▁chicken": 3856,
      "▁201": 3857,
      "▁semi": 3858,
      "▁bystanders": 3859,
      "▁umpire": 3860,
      "▁awa": 3861,
      "▁yoga": 3862,
      "▁bamboo": 3863,
      "▁lacrosse": 3864,
      "▁watermelo": 3865,
      "American": 3866,
      "Donal": 3867,
      "act": 3868,
      "bed": 3869,
      "bag": 3870,
      "con": 3871,
      "cra": 3872,
      "een": 3873,
      "ees": 3874,
      "fo": 3875,
      "hop": 3876,
      "ker": 3877,
      "my": 3878,
      "ments": 3879,
      "mmed": 3880,
      "pids": 3881,
      "zing": 3882,
      "▁el": 3883,
      "▁ill": 3884,
      "▁av": 3885,
      "▁ax": 3886,
      "iner": 3887,
      "▁sla": 3888,
      "▁tem": 3889,
      "▁tights": 3890,
      "▁tiny": 3891,
      "▁biting": 3892,
      "▁inform": 3893,
      "▁pir": 3894,
      "▁pun": 3895,
      "▁power": 3896,
      "▁mur": 3897,
      "▁mug": 3898,
      "▁mower": 3899,
      "▁cans": 3900,
      "▁case": 3901,
      "▁cello": 3902,
      "ising": 3903,
      "romat": 3904,
      "arts": 3905,
      "▁hom": 3906,
      "▁hut": 3907,
      "▁dad": 3908,
      "▁dives": 3909,
      "▁fit": 3910,
      "▁fle": 3911,
      "ened": 3912,
      "▁str": 3913,
      "▁stir": 3914,
      "▁still": 3915,
      "▁touch": 3916,
      "▁whis": 3917,
      "oping": 3918,
      "▁placing": 3919,
      "▁placed": 3920,
      "▁yarn": 3921,
      "▁playfully": 3922,
      "▁link": 3923,
      "ersby": 3924,
      "▁range": 3925,
      "▁rice": 3926,
      "▁rif": 3927,
      "▁rust": 3928,
      "▁jud": 3929,
      "▁logs": 3930,
      "▁christmas": 3931,
      "▁chatting": 3932,
      "▁covers": 3933,
      "▁blind": 3934,
      "▁belong": 3935,
      "▁watched": 3936,
      "ama": 3937,
      "rie": 3938,
      "▁rod": 3939,
      "▁pocket": 3940,
      "▁rapids": 3941,
      "▁Mex": 3942,
      "▁skin": 3943,
      "▁skaters": 3944,
      "▁bron": 3945,
      "▁val": 3946,
      "▁orang": 3947,
      "▁tray": 3948,
      "▁folded": 3949,
      "▁constru": 3950,
      "▁handrail": 3951,
      "▁soap": 3952,
      "▁soda": 3953,
      "▁closely": 3954,
      "▁tea": 3955,
      "▁wake": 3956,
      "▁sep": 3957,
      "▁camping": 3958,
      "▁arcade": 3959,
      "▁fac": 3960,
      "▁sunlight": 3961,
      "▁unus": 3962,
      "▁headed": 3963,
      "▁shorel": 3964,
      "▁bush": 3965,
      "▁acc": 3966,
      "▁acrobat": 3967,
      "▁ador": 3968,
      "▁process": 3969,
      "▁floats": 3970,
      "▁ballet": 3971,
      "▁speak": 3972,
      "▁motorized": 3973,
      "▁China": 3974,
      "▁crossed": 3975,
      "▁treat": 3976,
      "▁flat": 3977,
      "▁motorcyclists": 3978,
      "▁saw": 3979,
      "▁opens": 3980,
      "▁highway": 3981,
      "▁lighted": 3982,
      "▁meas": 3983,
      "▁gathers": 3984,
      "▁turquo": 3985,
      "▁lifts": 3986,
      "▁lifted": 3987,
      "▁joy": 3988,
      "▁elev": 3989,
      "▁weap": 3990,
      "▁skiers": 3991,
      "▁contra": 3992,
      "▁cowboys": 3993,
      "▁picks": 3994,
      "▁masc": 3995,
      "▁homeless": 3996,
      "▁falls": 3997,
      "▁auditor": 3998,
      "bank": 3999,
      "▁serves": 4000,
      "▁practices": 4001,
      "▁potato": 4002,
      "▁bank": 4003,
      "▁athletes": 4004,
      "▁formation": 4005,
      "▁kno": 4006,
      "▁quarter": 4007,
      "▁noteb": 4008,
      "▁medium": 4009,
      "▁imp": 4010,
      "▁celebration": 4011,
      "▁repairing": 4012,
      "▁assem": 4013,
      "▁assist": 4014,
      "▁laundromat": 4015,
      "▁tackling": 4016,
      "▁khakis": 4017,
      "▁visible": 4018,
      "resting": 4019,
      "▁puppies": 4020,
      "▁swimsuits": 4021,
      "▁suspenders": 4022,
      "▁underwear": 4023,
      "▁magazines": 4024,
      "▁retrie": 4025,
      "▁Teen": 4026,
      "▁reflection": 4027,
      "▁traveling": 4028,
      "▁chalkboard": 4029,
      "▁dusty": 4030,
      "▁adjusting": 4031,
      "where": 4032,
      "wheel": 4033,
      "▁diver": 4034,
      "▁farmer": 4035,
      "▁planting": 4036,
      "▁firefighter": 4037,
      "▁rollerskating": 4038,
      "▁supplies": 4039,
      "▁involved": 4040,
      "▁parachute": 4041,
      "▁ponytail": 4042,
      "▁rollerblading": 4043,
      "▁carefully": 4044,
      "▁location": 4045,
      "▁thumbs": 4046,
      "▁tux": 4047,
      "▁focused": 4048,
      "▁patterned": 4049,
      "▁salon": 4050,
      "▁surgery": 4051,
      "▁lanter": 4052,
      "▁cheek": 4053,
      "▁Runners": 4054,
      "▁weather": 4055,
      "▁learning": 4056,
      "▁multiple": 4057,
      "▁creek": 4058,
      "▁descent": 4059,
      "▁screaming": 4060,
      "▁snowshoes": 4061,
      "▁tomato": 4062,
      "▁McDonal": 4063,
      "▁Play": 4064,
      "▁Police": 4065,
      "▁larger": 4066,
      "▁backdrop": 4067,
      "▁Female": 4068,
      "▁second": 4069,
      "▁accompan": 4070,
      "▁2012": 4071,
      "▁shoreline": 4072,
      "▁turquoise": 4073,
      "▁auditorium": 4074,
      "00": 4075,
      "ake": 4076,
      "gers": 4077,
      "ikes": 4078,
      "lined": 4079,
      "ula": 4080,
      "vas": 4081,
      "yd": 4082,
      "▁ut": 4083,
      "▁est": 4084,
      "▁sque": 4085,
      "▁will": 4086,
      "▁tut": 4087,
      "▁trucks": 4088,
      "▁pill": 4089,
      "▁pins": 4090,
      "▁my": 4091,
      "era": 4092,
      "▁cage": 4093,
      "▁ge": 4094,
      "▁gall": 4095,
      "▁hun": 4096,
      "▁hiding": 4097,
      "▁huddle": 4098,
      "▁hyd": 4099,
      "▁done": 4100,
      "▁divers": 4101,
      "▁fat": 4102,
      "▁fed": 4103,
      "aling": 4104,
      "enue": 4105,
      "▁maneu": 4106,
      "▁stall": 4107,
      "▁story": 4108,
      "▁stilts": 4109,
      "lose": 4110,
      "ora": 4111,
      "orning": 4112,
      "▁TV": 4113,
      "▁whom": 4114,
      "▁shape": 4115,
      "opter": 4116,
      "ray": 4117,
      "edestrians": 4118,
      "icopter": 4119,
      "▁played": 4120,
      "▁lip": 4121,
      "▁lighting": 4122,
      "chan": 4123,
      "▁rally": 4124,
      "stro": 4125,
      "▁lobby": 4126,
      "▁char": 4127,
      "▁cooks": 4128,
      "oth": 4129,
      "▁frozen": 4130,
      "illy": 4131,
      "▁than": 4132,
      "amed": 4133,
      "▁eastern": 4134,
      "vering": 4135,
      "▁tail": 4136,
      "boy": 4137,
      "aint": 4138,
      "▁upward": 4139,
      "▁rad": 4140,
      "▁racers": 4141,
      "▁rafting": 4142,
      "▁Sc": 4143,
      "▁Sw": 4144,
      "▁Squ": 4145,
      "▁buff": 4146,
      "▁skater": 4147,
      "▁lean": 4148,
      "▁legging": 4149,
      "▁lens": 4150,
      "▁sideways": 4151,
      "▁Ph": 4152,
      "▁Pro": 4153,
      "▁Pedestrians": 4154,
      "▁vict": 4155,
      "▁venue": 4156,
      "igning": 4157,
      "▁section": 4158,
      "▁scarves": 4159,
      "▁Canad": 4160,
      "▁Close": 4161,
      "▁goat": 4162,
      "▁blood": 4163,
      "▁workout": 4164,
      "ney": 4165,
      "▁unlo": 4166,
      "▁cameram": 4167,
      "▁Ba": 4168,
      "▁Be": 4169,
      "▁Band": 4170,
      "▁walked": 4171,
      "▁Asia": 4172,
      "▁roadside": 4173,
      "▁cheese": 4174,
      "▁couples": 4175,
      "▁single": 4176,
      "agull": 4177,
      "▁tribal": 4178,
      "▁motion": 4179,
      "▁special": 4180,
      "▁shepherd": 4181,
      "▁cable": 4182,
      "▁march": 4183,
      "▁tread": 4184,
      "▁passersby": 4185,
      "▁cann": 4186,
      "▁canvas": 4187,
      "ftop": 4188,
      "▁Is": 4189,
      "▁highchair": 4190,
      "▁news": 4191,
      "▁boards": 4192,
      "▁even": 4193,
      "▁artwork": 4194,
      "▁stepping": 4195,
      "ize": 4196,
      "▁creating": 4197,
      "▁hike": 4198,
      "▁turned": 4199,
      "▁El": 4200,
      "▁Elderly": 4201,
      "▁toddlers": 4202,
      "▁apart": 4203,
      "iously": 4204,
      "▁patron": 4205,
      "▁numbers": 4206,
      "▁workshop": 4207,
      "▁displaying": 4208,
      "▁displays": 4209,
      "▁butcher": 4210,
      "▁earphones": 4211,
      "▁washer": 4212,
      "▁washes": 4213,
      "▁rooftop": 4214,
      "▁serve": 4215,
      "▁cute": 4216,
      "▁pots": 4217,
      "▁monitor": 4218,
      "▁rows": 4219,
      "encil": 4220,
      "▁kayaking": 4221,
      "▁incline": 4222,
      "▁products": 4223,
      "▁crouched": 4224,
      "▁cards": 4225,
      "▁decorative": 4226,
      "▁burning": 4227,
      "▁candle": 4228,
      "▁interview": 4229,
      "▁celebrate": 4230,
      "▁harves": 4231,
      "▁trashcan": 4232,
      "▁furry": 4233,
      "estrian": 4234,
      "▁printed": 4235,
      "▁casually": 4236,
      "▁approaches": 4237,
      "▁sprayed": 4238,
      "▁belts": 4239,
      "▁Coup": 4240,
      "▁gaze": 4241,
      "▁gazes": 4242,
      "▁twirl": 4243,
      "▁bouquet": 4244,
      "▁branches": 4245,
      "tenance": 4246,
      "▁juggles": 4247,
      "▁involving": 4248,
      "▁chopping": 4249,
      "▁driveway": 4250,
      "▁tripod": 4251,
      "▁syn": 4252,
      "▁Olympics": 4253,
      "▁department": 4254,
      "▁Music": 4255,
      "▁Roller": 4256,
      "▁silhouette": 4257,
      "▁finishing": 4258,
      "▁autumn": 4259,
      "▁blazer": 4260,
      "sticks": 4261,
      "▁amidst": 4262,
      "▁hotdog": 4263,
      "▁activity": 4264,
      "▁embracing": 4265,
      "▁Spectators": 4266,
      "▁ticket": 4267,
      "▁experiment": 4268,
      "▁interesting": 4269,
      "▁techn": 4270,
      "▁quickly": 4271,
      "▁leotard": 4272,
      "▁enthusiast": 4273,
      "▁butterf": 4274,
      "▁portrait": 4275,
      "▁transportation": 4276,
      "▁injured": 4277,
      "▁Bearded": 4278,
      "▁collared": 4279,
      "▁John": 4280,
      "▁valley": 4281,
      "▁oranges": 4282,
      "▁facility": 4283,
      "▁contraption": 4284,
      "▁quarterback": 4285,
      "▁gallery": 4286,
      "▁Square": 4287,
      "▁leggings": 4288,
      "▁Closeup": 4289,
      "ailing": 4290,
      "bre": 4291,
      "count": 4292,
      "cular": 4293,
      "friend": 4294,
      "hat": 4295,
      "happy": 4296,
      "iage": 4297,
      "noon": 4298,
      "po": 4299,
      "pit": 4300,
      "pie": 4301,
      "rit": 4302,
      "ris": 4303,
      "rant": 4304,
      "tie": 4305,
      "vention": 4306,
      "vices": 4307,
      "wear": 4308,
      "▁9": 4309,
      "▁aband": 4310,
      "inet": 4311,
      "ination": 4312,
      "▁sam": 4313,
      "▁sym": 4314,
      "▁sorting": 4315,
      "▁torch": 4316,
      "▁trench": 4317,
      "▁overs": 4318,
      "annel": 4319,
      "▁pay": 4320,
      "▁pilot": 4321,
      "▁pencil": 4322,
      "▁mount": 4323,
      "▁morning": 4324,
      "▁cher": 4325,
      "leading": 4326,
      "aris": 4327,
      "▁gal": 4328,
      "▁gla": 4329,
      "▁gest": 4330,
      "▁hind": 4331,
      "▁harm": 4332,
      "▁dom": 4333,
      "▁dive": 4334,
      "▁dest": 4335,
      "▁ducks": 4336,
      "▁fell": 4337,
      "alt": 4338,
      "ata": 4339,
      "▁stump": 4340,
      "▁staff": 4341,
      "orted": 4342,
      "▁tooth": 4343,
      "▁shiny": 4344,
      "▁dol": 4345,
      "rous": 4346,
      "opo": 4347,
      "edo": 4348,
      "▁recor": 4349,
      "▁really": 4350,
      "chron": 4351,
      "wning": 4352,
      "▁rings": 4353,
      "stri": 4354,
      "▁hol": 4355,
      "▁chin": 4356,
      "▁chinese": 4357,
      "▁cot": 4358,
      "▁beret": 4359,
      "▁bends": 4360,
      "▁eas": 4361,
      "▁every": 4362,
      "▁menu": 4363,
      "ries": 4364,
      "right": 4365,
      "imes": 4366,
      "▁lass": 4367,
      "▁late": 4368,
      "▁labor": 4369,
      "▁smoot": 4370,
      "lowing": 4371,
      "▁task": 4372,
      "▁here": 4373,
      "entr": 4374,
      "ashes": 4375,
      "▁gradu": 4376,
      "▁grabs": 4377,
      "▁grabbing": 4378,
      "▁kilt": 4379,
      "ief": 4380,
      "body": 4381,
      "▁fork": 4382,
      "▁School": 4383,
      "▁built": 4384,
      "▁jumper": 4385,
      "▁jumped": 4386,
      "▁swe": 4387,
      "▁spark": 4388,
      "▁maj": 4389,
      "▁conf": 4390,
      "igious": 4391,
      "▁text": 4392,
      "▁tending": 4393,
      "▁waist": 4394,
      "▁sees": 4395,
      "▁seagull": 4396,
      "phy": 4397,
      "▁scient": 4398,
      "▁pale": 4399,
      "▁parents": 4400,
      "▁arri": 4401,
      "▁arrange": 4402,
      "▁sunbat": 4403,
      "▁unhappy": 4404,
      "▁bicycling": 4405,
      "▁guide": 4406,
      "▁Bic": 4407,
      "▁Blue": 4408,
      "antly": 4409,
      "▁helicopter": 4410,
      "ifier": 4411,
      "▁unique": 4412,
      "umbling": 4413,
      "ational": 4414,
      "▁painter": 4415,
      "ager": 4416,
      "ague": 4417,
      "▁spect": 4418,
      "▁surfs": 4419,
      "▁Lots": 4420,
      "▁army": 4421,
      "▁shel": 4422,
      "▁caucasian": 4423,
      "▁fishes": 4424,
      "▁flam": 4425,
      "▁sawing": 4426,
      "▁hills": 4427,
      "▁cellphones": 4428,
      "▁DJ": 4429,
      "▁pathway": 4430,
      "▁Haw": 4431,
      "▁almo": 4432,
      "▁mechan": 4433,
      "colate": 4434,
      "▁turban": 4435,
      "▁dragging": 4436,
      "▁shawl": 4437,
      "▁Eight": 4438,
      "▁raincoat": 4439,
      "▁point": 4440,
      "▁afternoon": 4441,
      "▁jogs": 4442,
      "▁teens": 4443,
      "▁weight": 4444,
      "bbles": 4445,
      "▁concentr": 4446,
      "▁peer": 4447,
      "▁scenic": 4448,
      "▁writes": 4449,
      "▁bedroom": 4450,
      "▁pads": 4451,
      "▁aprons": 4452,
      "▁indust": 4453,
      "ensive": 4454,
      "▁displayed": 4455,
      "▁colum": 4456,
      "▁Var": 4457,
      "▁quiet": 4458,
      "▁presenting": 4459,
      "▁monkey": 4460,
      "▁foliage": 4461,
      "▁checkers": 4462,
      "▁bathtub": 4463,
      "▁waterski": 4464,
      "▁images": 4465,
      "▁circular": 4466,
      "▁stoop": 4467,
      "▁decorations": 4468,
      "▁crates": 4469,
      "atory": 4470,
      "▁types": 4471,
      "▁Smiling": 4472,
      "▁operates": 4473,
      "▁brass": 4474,
      "▁Un": 4475,
      "▁booths": 4476,
      "▁featuring": 4477,
      "▁cleaner": 4478,
      "cake": 4479,
      "▁stacked": 4480,
      "▁containing": 4481,
      "coming": 4482,
      "▁pinata": 4483,
      "▁Tex": 4484,
      "▁brushes": 4485,
      "▁strolls": 4486,
      "▁tiled": 4487,
      "▁gazing": 4488,
      "▁designs": 4489,
      "▁chocolate": 4490,
      "▁bouncing": 4491,
      "▁chopsticks": 4492,
      "ikers": 4493,
      "▁Army": 4494,
      "▁rollerblades": 4495,
      "▁dumpster": 4496,
      "▁located": 4497,
      "▁begins": 4498,
      "▁muzzle": 4499,
      "▁pattern": 4500,
      "▁clouds": 4501,
      "▁Mohawk": 4502,
      "▁Hockey": 4503,
      "▁pumpkin": 4504,
      "▁peeking": 4505,
      "▁sparring": 4506,
      "▁parasailing": 4507,
      "▁icy": 4508,
      "▁bulld": 4509,
      "▁heavily": 4510,
      "▁Skate": 4511,
      "nament": 4512,
      "▁Adults": 4513,
      "▁sniffing": 4514,
      "▁scouts": 4515,
      "▁breakdancing": 4516,
      "▁adjusts": 4517,
      "craft": 4518,
      "▁illumin": 4519,
      "▁rifle": 4520,
      "▁belongings": 4521,
      "▁wakeboard": 4522,
      "▁estab": 4523,
      "▁squee": 4524,
      "▁Photo": 4525,
      "▁Canadian": 4526,
      "▁Baby": 4527,
      "▁Couple": 4528,
      "▁synchron": 4529,
      "▁butterfly": 4530,
      "▁cherry": 4531,
      "▁gesturing": 4532,
      "▁harmon": 4533,
      "▁recording": 4534,
      "striped": 4535,
      "▁almost": 4536,
      "den": 4537,
      "green": 4538,
      "lights": 4539,
      "net": 4540,
      "sized": 4541,
      "tor": 4542,
      "vi": 4543,
      "war": 4544,
      "zes": 4545,
      "▁ing": 4546,
      "▁ident": 4547,
      "▁xy": 4548,
      "▁sle": 4549,
      "▁sat": 4550,
      "▁say": 4551,
      "▁signing": 4552,
      "▁wo": 4553,
      "▁tired": 4554,
      "▁ox": 4555,
      "▁our": 4556,
      "▁bit": 4557,
      "▁Am": 4558,
      "rehouse": 4559,
      "itive": 4560,
      "itiz": 4561,
      "▁py": 4562,
      "▁pon": 4563,
      "▁punch": 4564,
      "▁much": 4565,
      "▁cash": 4566,
      "▁cycling": 4567,
      "arium": 4568,
      "▁had": 4569,
      "▁hip": 4570,
      "▁fer": 4571,
      "▁find": 4572,
      "labor": 4573,
      "attered": 4574,
      "ense": 4575,
      "▁manne": 4576,
      "oms": 4577,
      "▁stuck": 4578,
      "esma": 4579,
      "▁too": 4580,
      "▁toile": 4581,
      "onge": 4582,
      "▁shield": 4583,
      "▁plain": 4584,
      "utes": 4585,
      "ution": 4586,
      "alling": 4587,
      "▁year": 4588,
      "▁lion": 4589,
      "▁lips": 4590,
      "▁lively": 4591,
      "▁anti": 4592,
      "sters": 4593,
      "▁shirted": 4594,
      "▁numerous": 4595,
      "▁hook": 4596,
      "▁chis": 4597,
      "▁bad": 4598,
      "▁babies": 4599,
      "ades": 4600,
      "▁histor": 4601,
      "▁beca": 4602,
      "▁beads": 4603,
      "ils": 4604,
      "▁elabor": 4605,
      "rial": 4606,
      "ooks": 4607,
      "▁labe": 4608,
      "▁They": 4609,
      "▁tast": 4610,
      "▁tags": 4611,
      "keys": 4612,
      "▁grab": 4613,
      "▁kim": 4614,
      "▁pours": 4615,
      "▁fort": 4616,
      "▁upset": 4617,
      "▁asce": 4618,
      "▁rabb": 4619,
      "▁Sub": 4620,
      "▁Span": 4621,
      "▁Mem": 4622,
      "▁Mother": 4623,
      "apes": 4624,
      "apped": 4625,
      "▁skies": 4626,
      "▁skull": 4627,
      "▁skills": 4628,
      "inder": 4629,
      "▁vint": 4630,
      "▁spins": 4631,
      "emade": 4632,
      "▁conne": 4633,
      "igan": 4634,
      "iger": 4635,
      "▁warehouse": 4636,
      "▁mohawk": 4637,
      "▁arrow": 4638,
      "▁commer": 4639,
      "▁midst": 4640,
      "▁Asians": 4641,
      "▁jeep": 4642,
      "▁chewing": 4643,
      "▁underground": 4644,
      "▁purses": 4645,
      "▁prop": 4646,
      "▁waiter": 4647,
      "▁flannel": 4648,
      "▁shoppers": 4649,
      "▁darkened": 4650,
      "▁Yellow": 4651,
      "▁daytime": 4652,
      "▁speeding": 4653,
      "▁speaker": 4654,
      "▁bartend": 4655,
      "▁looked": 4656,
      "▁marble": 4657,
      "▁trains": 4658,
      "▁flash": 4659,
      "▁disc": 4660,
      "▁shower": 4661,
      "▁canal": 4662,
      "▁deser": 4663,
      "▁riot": 4664,
      "▁hardwood": 4665,
      "▁Rod": 4666,
      "▁amount": 4667,
      "▁bridesma": 4668,
      "▁classic": 4669,
      "▁turtle": 4670,
      "▁draped": 4671,
      "▁draws": 4672,
      "▁crawl": 4673,
      "▁shaggy": 4674,
      "▁East": 4675,
      "▁fountains": 4676,
      "▁carrier": 4677,
      "▁forested": 4678,
      "▁doesn": 4679,
      "▁filming": 4680,
      "▁strolling": 4681,
      "▁NY": 4682,
      "▁Native": 4683,
      "▁Jack": 4684,
      "▁peers": 4685,
      "▁skyd": 4686,
      "▁kisses": 4687,
      "▁vending": 4688,
      "▁masks": 4689,
      "▁earring": 4690,
      "osaur": 4691,
      "▁strapped": 4692,
      "▁service": 4693,
      "▁vibr": 4694,
      "▁India": 4695,
      "▁banners": 4696,
      "▁directing": 4697,
      "▁Vend": 4698,
      "▁digital": 4699,
      "▁sprays": 4700,
      "▁hammo": 4701,
      "▁splashed": 4702,
      "▁notes": 4703,
      "▁diner": 4704,
      "▁dinosaur": 4705,
      "alloween": 4706,
      "▁product": 4707,
      "▁clowns": 4708,
      "▁canoes": 4709,
      "▁sledding": 4710,
      "▁stocking": 4711,
      "▁buried": 4712,
      "▁cheerleading": 4713,
      "▁barefooted": 4714,
      "▁gardening": 4715,
      "▁projector": 4716,
      "▁followed": 4717,
      "▁tournament": 4718,
      "▁stringed": 4719,
      "▁mixer": 4720,
      "▁complex": 4721,
      "▁packed": 4722,
      "▁package": 4723,
      "▁protect": 4724,
      "▁napping": 4725,
      "▁tackled": 4726,
      "▁spotlight": 4727,
      "▁stretches": 4728,
      "▁tracksuit": 4729,
      "▁hammering": 4730,
      "fighters": 4731,
      "panic": 4732,
      "▁cries": 4733,
      "▁figures": 4734,
      "▁ATM": 4735,
      "▁campfire": 4736,
      "▁support": 4737,
      "▁teammates": 4738,
      "▁extend": 4739,
      "iety": 4740,
      "▁Dogs": 4741,
      "▁aqua": 4742,
      "▁aquarium": 4743,
      "▁Shepherd": 4744,
      "▁surgical": 4745,
      "▁Brit": 4746,
      "▁Olympic": 4747,
      "▁maintenance": 4748,
      "▁nurses": 4749,
      "▁loaded": 4750,
      "▁Firefighters": 4751,
      "▁sailboat": 4752,
      "▁silhouet": 4753,
      "▁conductor": 4754,
      "aiian": 4755,
      "paved": 4756,
      "▁human": 4757,
      "▁deli": 4758,
      "▁bundle": 4759,
      "▁company": 4760,
      "▁companion": 4761,
      "cloth": 4762,
      "▁cluttered": 4763,
      "lishment": 4764,
      "▁crashing": 4765,
      "▁crayons": 4766,
      "▁America": 4767,
      "▁navigates": 4768,
      "▁scrubs": 4769,
      "▁communic": 4770,
      "▁religious": 4771,
      "▁murky": 4772,
      "▁homemade": 4773,
      "▁judges": 4774,
      "▁Mexican": 4775,
      "▁skinny": 4776,
      "▁unusual": 4777,
      "▁accident": 4778,
      "▁notebook": 4779,
      "▁hydrant": 4780,
      "stroke": 4781,
      "▁victory": 4782,
      "▁treadm": 4783,
      "▁cannon": 4784,
      "▁Elmo": 4785,
      "▁abandoned": 4786,
      "▁destination": 4787,
      "▁toothbrush": 4788,
      "opoly": 4789,
      "▁easel": 4790,
      "▁lasso": 4791,
      "▁laboratory": 4792,
      "▁Hawaiian": 4793,
      "▁industrial": 4794,
      "▁columns": 4795,
      "▁Various": 4796,
      "▁waterskiing": 4797,
      "▁Texas": 4798,
      "▁Skateboarder": 4799,
      "▁establishment": 4800,
      "▁squeezing": 4801,
      "▁synchronized": 4802,
      "▁harmonica": 4803,
      "▁xylo": 4804,
      "▁mannequ": 4805,
      "▁because": 4806,
      "▁labeled": 4807,
      "▁Spanish": 4808,
      "▁vintage": 4809,
      "▁commercial": 4810,
      "▁bartender": 4811,
      "▁hammock": 4812,
      "Bo": 4813,
      "bur": 4814,
      "cam": 4815,
      "dri": 4816,
      "eg": 4817,
      "eo": 4818,
      "food": 4819,
      "iam": 4820,
      "ients": 4821,
      "lim": 4822,
      "lines": 4823,
      "mming": 4824,
      "ola": 4825,
      "rat": 4826,
      "sting": 4827,
      "sping": 4828,
      "tting": 4829,
      "ters": 4830,
      "tress": 4831,
      "tured": 4832,
      "uble": 4833,
      "wed": 4834,
      "yed": 4835,
      "▁Q": 4836,
      "▁id": 4837,
      "▁award": 4838,
      "▁sear": 4839,
      "▁slack": 4840,
      "▁ske": 4841,
      "▁sip": 4842,
      "▁were": 4843,
      "▁wash": 4844,
      "▁tiger": 4845,
      "▁oil": 4846,
      "ank": 4847,
      "▁bump": 4848,
      "▁bong": 4849,
      "▁Ara": 4850,
      "▁inst": 4851,
      "itten": 4852,
      "▁pans": 4853,
      "▁pops": 4854,
      "▁min": 4855,
      "▁mes": 4856,
      "▁citiz": 4857,
      "lent": 4858,
      "ises": 4859,
      "nder": 4860,
      "▁dam": 4861,
      "▁drying": 4862,
      "▁dess": 4863,
      "▁file": 4864,
      "▁fellow": 4865,
      "▁frying": 4866,
      "▁fill": 4867,
      "▁fuzz": 4868,
      "omo": 4869,
      "oming": 4870,
      "▁stance": 4871,
      "ided": 4872,
      "▁shing": 4873,
      "▁shar": 4874,
      "▁shack": 4875,
      "▁double": 4876,
      "opy": 4877,
      "opes": 4878,
      "opard": 4879,
      "icle": 4880,
      "▁releas": 4881,
      "▁lining": 4882,
      "▁lush": 4883,
      "▁any": 4884,
      "▁rustic": 4885,
      "▁nun": 4886,
      "▁named": 4887,
      "▁ja": 4888,
      "▁lock": 4889,
      "▁chip": 4890,
      "▁cock": 4891,
      "ume": 4892,
      "adow": 4893,
      "▁beers": 4894,
      "▁beating": 4895,
      "▁thick": 4896,
      "usband": 4897,
      "riers": 4898,
      "▁downhill": 4899,
      "▁laun": 4900,
      "▁laid": 4901,
      "ieval": 4902,
      "▁upwards": 4903,
      "▁rav": 4904,
      "seat": 4905,
      "▁Seat": 4906,
      "▁backseat": 4907,
      "redients": 4908,
      "▁skim": 4909,
      "▁snork": 4910,
      "▁broad": 4911,
      "bled": 4912,
      "▁level": 4913,
      "▁league": 4914,
      "▁leopard": 4915,
      "▁sidelines": 4916,
      "▁Pa": 4917,
      "▁Par": 4918,
      "▁spring": 4919,
      "▁sprin": 4920,
      "ements": 4921,
      "ngth": 4922,
      "▁fog": 4923,
      "▁foggy": 4924,
      "▁mail": 4925,
      "▁Fis": 4926,
      "▁Food": 4927,
      "▁somewhere": 4928,
      "▁seating": 4929,
      "▁seven": 4930,
      "▁Cla": 4931,
      "▁Custom": 4932,
      "▁parent": 4933,
      "▁fields": 4934,
      "▁tablecloth": 4935,
      "▁camps": 4936,
      "▁camels": 4937,
      "▁mos": 4938,
      "▁sunsh": 4939,
      "shaped": 4940,
      "▁unf": 4941,
      "▁clar": 4942,
      "▁topless": 4943,
      "udd": 4944,
      "▁paralle": 4945,
      "▁Walm": 4946,
      "▁woodland": 4947,
      "▁acting": 4948,
      "▁Base": 4949,
      "gger": 4950,
      "pect": 4951,
      "▁mountainous": 4952,
      "▁flock": 4953,
      "ells": 4954,
      "▁envi": 4955,
      "▁striking": 4956,
      "▁stripe": 4957,
      "▁muscular": 4958,
      "▁cathed": 4959,
      "▁attent": 4960,
      "▁speeds": 4961,
      "▁stores": 4962,
      "▁winds": 4963,
      "▁Lat": 4964,
      "▁Local": 4965,
      "▁mouths": 4966,
      "▁exiting": 4967,
      "mentary": 4968,
      "▁cave": 4969,
      "▁slic": 4970,
      "▁marsh": 4971,
      "▁prepared": 4972,
      "▁crosscount": 4973,
      "▁when": 4974,
      "▁wheeled": 4975,
      "▁ages": 4976,
      "▁aged": 4977,
      "▁marker": 4978,
      "▁marked": 4979,
      "▁desks": 4980,
      "▁colorfully": 4981,
      "▁mattress": 4982,
      "▁Dark": 4983,
      "ronment": 4984,
      "▁battle": 4985,
      "▁bodysuit": 4986,
      "▁kickbox": 4987,
      "▁artists": 4988,
      "▁create": 4989,
      "▁meadow": 4990,
      "▁boxer": 4991,
      "▁drawn": 4992,
      "▁snowboards": 4993,
      "▁Eastern": 4994,
      "▁pointed": 4995,
      "▁chased": 4996,
      "▁Numerous": 4997,
      "▁laden": 4998,
      "▁Jeng": 4999,
      "▁Jew": 5000,
      "▁peaks": 5001,
      "▁skyline": 5002,
      "▁squats": 5003,
      "▁picket": 5004,
      "▁wrist": 5005,
      "▁strugg": 5006,
      "▁cigar": 5007,
      "▁Star": 5008,
      "▁indian": 5009,
      "berry": 5010,
      "fetti": 5011,
      "▁cigarettes": 5012,
      "▁wrestlers": 5013,
      "▁variety": 5014,
      "▁barely": 5015,
      "▁column": 5016,
      "▁railings": 5017,
      "▁resort": 5018,
      "▁collie": 5019,
      "▁monitors": 5020,
      "bbling": 5021,
      "▁trophy": 5022,
      "▁trotting": 5023,
      "▁daily": 5024,
      "▁videot": 5025,
      "▁examine": 5026,
      "▁cheerlead": 5027,
      "erness": 5028,
      "▁typing": 5029,
      "ramid": 5030,
      "▁advertisements": 5031,
      "▁harbor": 5032,
      "▁Worker": 5033,
      "▁sculptures": 5034,
      "▁greet": 5035,
      "▁starring": 5036,
      "▁11": 5037,
      "▁brace": 5038,
      "▁strings": 5039,
      "▁completing": 5040,
      "▁casting": 5041,
      "▁casino": 5042,
      "▁rolls": 5043,
      "▁logo": 5044,
      "▁visor": 5045,
      "▁Guys": 5046,
      "▁puppet": 5047,
      "▁seafood": 5048,
      "▁guards": 5049,
      "cases": 5050,
      "▁Soon": 5051,
      "▁termin": 5052,
      "▁reception": 5053,
      "▁Coca": 5054,
      "▁transit": 5055,
      "▁condition": 5056,
      "▁travels": 5057,
      "▁dryer": 5058,
      "▁iP": 5059,
      "▁designed": 5060,
      "▁farmers": 5061,
      "▁grinds": 5062,
      "▁barbecu": 5063,
      "▁wilderness": 5064,
      "▁rollerskates": 5065,
      "▁warming": 5066,
      "▁tarp": 5067,
      "▁snacks": 5068,
      "▁barrels": 5069,
      "▁dolls": 5070,
      "▁Cafe": 5071,
      "▁necklaces": 5072,
      "▁begin": 5073,
      "▁extre": 5074,
      "▁exercising": 5075,
      "▁muzzled": 5076,
      "▁though": 5077,
      "▁Brunette": 5078,
      "▁Muslim": 5079,
      "▁conducting": 5080,
      "▁supermark": 5081,
      "▁crops": 5082,
      "▁hotdogs": 5083,
      "▁activities": 5084,
      "▁vacuuming": 5085,
      "▁defender": 5086,
      "▁greyhounds": 5087,
      "▁demonstration": 5088,
      "▁fetch": 5089,
      "▁licking": 5090,
      "▁miniature": 5091,
      "▁season": 5092,
      "▁employee": 5093,
      "▁employees": 5094,
      "▁character": 5095,
      "▁characters": 5096,
      "▁maybe": 5097,
      "▁Tourists": 5098,
      "▁bounds": 5099,
      "urfer": 5100,
      "works": 5101,
      "▁poodle": 5102,
      "▁mowing": 5103,
      "▁blurred": 5104,
      "▁ordering": 5105,
      "▁purchase": 5106,
      "▁attractive": 5107,
      "▁bananas": 5108,
      "▁await": 5109,
      "▁watermelons": 5110,
      "▁temple": 5111,
      "▁pirate": 5112,
      "▁punching": 5113,
      "▁separate": 5114,
      "▁acrobatic": 5115,
      "▁adorned": 5116,
      "▁measuring": 5117,
      "▁mascot": 5118,
      "▁lanterns": 5119,
      "▁Players": 5120,
      "▁tutu": 5121,
      "▁fedora": 5122,
      "▁buffet": 5123,
      "▁cameraman": 5124,
      "▁Musicians": 5125,
      "▁Rollerbla": 5126,
      "▁mounted": 5127,
      "▁gallo": 5128,
      "▁holid": 5129,
      "▁cotton": 5130,
      "▁scientist": 5131,
      "▁sunbathing": 5132,
      "▁bulldo": 5133,
      "▁illuminated": 5134,
      "▁ingredients": 5135,
      "▁pyramid": 5136,
      "▁kimon": 5137,
      "▁Members": 5138,
      "▁crawls": 5139,
      "▁skydiving": 5140,
      "▁vibrant": 5141,
      "▁Vendors": 5142,
      "▁British": 5143,
      "▁silhouetted": 5144,
      "▁treadmill": 5145,
      "▁xylophone": 5146,
      "▁slacks": 5147,
      "▁bongo": 5148,
      "▁Arab": 5149,
      "▁fuzzy": 5150,
      "▁Customers": 5151,
      "▁Walmart": 5152,
      "▁Baseball": 5153,
      "▁environment": 5154,
      "▁cathedral": 5155,
      "▁crosscountry": 5156,
      "▁Jenga": 5157,
      "▁cheerleader": 5158,
      "▁supermarket": 5159,
      "af": 5160,
      "bie": 5161,
      "bably": 5162,
      "car": 5163,
      "come": 5164,
      "cier": 5165,
      "cart": 5166,
      "cient": 5167,
      "eer": 5168,
      "flow": 5169,
      "filled": 5170,
      "gress": 5171,
      "gos": 5172,
      "hine": 5173,
      "hol": 5174,
      "iking": 5175,
      "ique": 5176,
      "ls": 5177,
      "live": 5178,
      "mx": 5179,
      "now": 5180,
      "oid": 5181,
      "orous": 5182,
      "por": 5183,
      "pid": 5184,
      "rid": 5185,
      "rand": 5186,
      "sure": 5187,
      "tur": 5188,
      "table": 5189,
      "tely": 5190,
      "uss": 5191,
      "vor": 5192,
      "yon": 5193,
      "zor": 5194,
      "▁8": 5195,
      "▁ult": 5196,
      "▁aboard": 5197,
      "▁aff": 5198,
      "▁su": 5199,
      "▁sund": 5200,
      "▁wand": 5201,
      "▁wip": 5202,
      "▁wond": 5203,
      "▁ti": 5204,
      "▁tin": 5205,
      "▁ted": 5206,
      "▁tying": 5207,
      "▁tip": 5208,
      "▁test": 5209,
      "▁ties": 5210,
      "▁tips": 5211,
      "▁olive": 5212,
      "anse": 5213,
      "▁bord": 5214,
      "held": 5215,
      "▁App": 5216,
      "▁inc": 5217,
      "▁inner": 5218,
      "itch": 5219,
      "itical": 5220,
      "▁prou": 5221,
      "▁puzz": 5222,
      "▁pipes": 5223,
      "▁mule": 5224,
      "▁cycle": 5225,
      "▁cru": 5226,
      "▁cry": 5227,
      "▁civ": 5228,
      "▁crest": 5229,
      "ison": 5230,
      "ised": 5231,
      "ished": 5232,
      "▁grown": 5233,
      "▁hal": 5234,
      "▁hid": 5235,
      "▁hung": 5236,
      "▁husk": 5237,
      "▁husband": 5238,
      "▁det": 5239,
      "▁french": 5240,
      "alks": 5241,
      "lated": 5242,
      "atula": 5243,
      "ennis": 5244,
      "oma": 5245,
      "▁stor": 5246,
      "▁stars": 5247,
      "▁within": 5248,
      "▁Times": 5249,
      "une": 5250,
      "unte": 5251,
      "▁dots": 5252,
      "▁doctors": 5253,
      "oper": 5254,
      "icans": 5255,
      "▁boog": 5256,
      "▁resp": 5257,
      "▁lime": 5258,
      "▁anvil": 5259,
      "▁ancient": 5260,
      "▁ran": 5261,
      "▁rip": 5262,
      "▁rush": 5263,
      "ston": 5264,
      "stem": 5265,
      "storm": 5266,
      "▁nood": 5267,
      "▁nude": 5268,
      "▁hour": 5269,
      "▁champ": 5270,
      "▁badge": 5271,
      "▁cocon": 5272,
      "elf": 5273,
      "▁girlfriend": 5274,
      "ote": 5275,
      "otic": 5276,
      "▁bend": 5277,
      "illa": 5278,
      "ilitary": 5279,
      "cep": 5280,
      "cement": 5281,
      "cept": 5282,
      "▁emer": 5283,
      "▁eager": 5284,
      "vern": 5285,
      "rimmed": 5286,
      "▁talent": 5287,
      "ulting": 5288,
      "▁hearts": 5289,
      "▁grasping": 5290,
      "▁watering": 5291,
      "▁kio": 5292,
      "bour": 5293,
      "▁posed": 5294,
      "▁rag": 5295,
      "▁rack": 5296,
      "▁raking": 5297,
      "▁raise": 5298,
      "▁rafts": 5299,
      "▁razor": 5300,
      "▁Ski": 5301,
      "▁Snow": 5302,
      "▁words": 5303,
      "▁need": 5304,
      "▁Miam": 5305,
      "▁Military": 5306,
      "ford": 5307,
      "aping": 5308,
      "▁skill": 5309,
      "▁broch": 5310,
      "▁lemon": 5311,
      "▁bib": 5312,
      "▁va": 5313,
      "▁vocal": 5314,
      "▁snowball": 5315,
      "▁spin": 5316,
      "▁spik": 5317,
      "▁split": 5318,
      "▁spatula": 5319,
      "▁overlook": 5320,
      "▁personnel": 5321,
      "▁conven": 5322,
      "▁confetti": 5323,
      "▁handbag": 5324,
      "▁handheld": 5325,
      "▁nearly": 5326,
      "▁Foot": 5327,
      "▁Family": 5328,
      "▁Father": 5329,
      "▁soup": 5330,
      "▁sound": 5331,
      "▁soars": 5332,
      "atee": 5333,
      "▁sciss": 5334,
      "▁scaling": 5335,
      "▁scattered": 5336,
      "▁scrat": 5337,
      "▁Car": 5338,
      "▁Cow": 5339,
      "▁Col": 5340,
      "▁Colo": 5341,
      "icking": 5342,
      "▁goatee": 5343,
      "▁facial": 5344,
      "▁favor": 5345,
      "▁blocking": 5346,
      "▁shouting": 5347,
      "uds": 5348,
      "▁shorter": 5349,
      "▁We": 5350,
      "▁clothed": 5351,
      "▁Bra": 5352,
      "▁Bas": 5353,
      "▁Bikers": 5354,
      "antily": 5355,
      "▁foods": 5356,
      "ifying": 5357,
      "▁address": 5358,
      "ggers": 5359,
      "▁Orange": 5360,
      "▁climbers": 5361,
      "▁bring": 5362,
      "▁brind": 5363,
      "▁propped": 5364,
      "▁probably": 5365,
      "▁progress": 5366,
      "▁mountaintop": 5367,
      "▁floors": 5368,
      "▁flood": 5369,
      "▁Gre": 5370,
      "▁Green": 5371,
      "▁haul": 5372,
      "▁enclo": 5373,
      "▁strike": 5374,
      "▁flu": 5375,
      "▁cats": 5376,
      "▁attack": 5377,
      "▁devices": 5378,
      "▁barric": 5379,
      "▁barriers": 5380,
      "▁carou": 5381,
      "▁slip": 5382,
      "essor": 5383,
      "ddler": 5384,
      "▁flowery": 5385,
      "▁flaming": 5386,
      "▁disco": 5387,
      "▁saus": 5388,
      "▁sailo": 5389,
      "▁fireworks": 5390,
      "▁bows": 5391,
      "▁bowtie": 5392,
      "▁lives": 5393,
      "▁nightcl": 5394,
      "▁political": 5395,
      "vely": 5396,
      "velin": 5397,
      "▁Dan": 5398,
      "▁Dirt": 5399,
      "▁boarding": 5400,
      "yset": 5401,
      "▁kicked": 5402,
      "▁riverbank": 5403,
      "▁pushed": 5404,
      "grapher": 5405,
      "▁bikinis": 5406,
      "scent": 5407,
      "▁cowgirl": 5408,
      "▁alco": 5409,
      "▁creates": 5410,
      "corn": 5411,
      "▁Ra": 5412,
      "▁subur": 5413,
      "▁submerg": 5414,
      "▁plush": 5415,
      "▁boxers": 5416,
      "wered": 5417,
      "▁turkey": 5418,
      "▁drag": 5419,
      "▁drain": 5420,
      "▁dragon": 5421,
      "▁crash": 5422,
      "▁crafting": 5423,
      "▁Ele": 5424,
      "▁breath": 5425,
      "▁breast": 5426,
      "▁raining": 5427,
      "▁weigh": 5428,
      "▁noses": 5429,
      "▁contem": 5430,
      "▁Ne": 5431,
      "hoe": 5432,
      "hole": 5433,
      "▁blower": 5434,
      "▁squad": 5435,
      "▁rails": 5436,
      "▁written": 5437,
      "▁pitching": 5438,
      "▁Kit": 5439,
      "osed": 5440,
      "▁State": 5441,
      "▁series": 5442,
      "▁grills": 5443,
      "▁relay": 5444,
      "▁lands": 5445,
      "▁piles": 5446,
      "▁fixes": 5447,
      "▁direct": 5448,
      "▁expanse": 5449,
      "▁relaxes": 5450,
      "▁Vol": 5451,
      "▁quad": 5452,
      "▁quest": 5453,
      "▁presents": 5454,
      "▁monk": 5455,
      "▁clap": 5456,
      "▁hambur": 5457,
      "▁tubes": 5458,
      "▁checked": 5459,
      "▁memor": 5460,
      "▁waterside": 5461,
      "▁medieval": 5462,
      "▁cardigan": 5463,
      "▁slopes": 5464,
      "▁crate": 5465,
      "▁stunts": 5466,
      "▁piercing": 5467,
      "▁magn": 5468,
      "▁microscopes": 5469,
      "▁pedal": 5470,
      "▁10": 5471,
      "angle": 5472,
      "▁completely": 5473,
      "▁professor": 5474,
      "▁assisting": 5475,
      "▁feathered": 5476,
      "▁features": 5477,
      "▁spots": 5478,
      "▁stretched": 5479,
      "cakes": 5480,
      "▁framed": 5481,
      "▁zom": 5482,
      "▁zone": 5483,
      "▁zip": 5484,
      "▁wineglasses": 5485,
      "▁belly": 5486,
      "▁lower": 5487,
      "▁wheelchairs": 5488,
      "▁strollers": 5489,
      "▁bottoms": 5490,
      "▁sprinklers": 5491,
      "▁sleeves": 5492,
      "dressed": 5493,
      "testers": 5494,
      "▁merry": 5495,
      "▁portable": 5496,
      "▁swords": 5497,
      "▁jumpsuits": 5498,
      "▁policemen": 5499,
      "▁beams": 5500,
      "▁ornam": 5501,
      "▁plank": 5502,
      "▁brooms": 5503,
      "▁pigeon": 5504,
      "▁ceremon": 5505,
      "▁fashioned": 5506,
      "▁liquor": 5507,
      "▁jockeys": 5508,
      "▁ribbons": 5509,
      "▁knitting": 5510,
      "▁focus": 5511,
      "▁excitedly": 5512,
      "▁system": 5513,
      "▁recre": 5514,
      "▁those": 5515,
      "▁thought": 5516,
      "▁lanes": 5517,
      "▁nurse": 5518,
      "▁Shop": 5519,
      "▁Shirt": 5520,
      "▁finished": 5521,
      "▁dropping": 5522,
      "▁newlywed": 5523,
      "▁scooping": 5524,
      "▁saddle": 5525,
      "issance": 5526,
      "▁licks": 5527,
      "▁clutching": 5528,
      "▁Legos": 5529,
      "▁return": 5530,
      "minton": 5531,
      "▁angle": 5532,
      "▁nails": 5533,
      "▁gowns": 5534,
      "▁USA": 5535,
      "▁congregate": 5536,
      "guards": 5537,
      "▁missing": 5538,
      "▁mittens": 5539,
      "▁socializing": 5540,
      "▁texting": 5541,
      "▁European": 5542,
      "▁expression": 5543,
      "▁aiming": 5544,
      "▁senior": 5545,
      "▁occur": 5546,
      "▁occup": 5547,
      "▁Toddler": 5548,
      "▁rugs": 5549,
      "▁briefcase": 5550,
      "▁advent": 5551,
      "▁information": 5552,
      "▁stirring": 5553,
      "▁rusty": 5554,
      "▁blindfo": 5555,
      "▁bronco": 5556,
      "▁constructed": 5557,
      "▁elevated": 5558,
      "▁weapon": 5559,
      "▁assembled": 5560,
      "▁tomatoes": 5561,
      "▁McDonald": 5562,
      "▁accompanied": 5563,
      "▁pillar": 5564,
      "▁hunched": 5565,
      "▁lipstick": 5566,
      "▁radio": 5567,
      "▁Protesters": 5568,
      "▁unloading": 5569,
      "▁Beautiful": 5570,
      "▁patrons": 5571,
      "▁harvesting": 5572,
      "piece": 5573,
      "▁sample": 5574,
      "▁symbo": 5575,
      "▁glacier": 5576,
      "▁major": 5577,
      "▁seesaw": 5578,
      "▁arrangement": 5579,
      "▁flames": 5580,
      "▁woven": 5581,
      "▁ponch": 5582,
      "▁badminton": 5583,
      "▁elaborate": 5584,
      "▁Subway": 5585,
      "▁connected": 5586,
      "▁deserted": 5587,
      "▁bridesmaids": 5588,
      "camera": 5589,
      "▁damaged": 5590,
      "▁dessert": 5591,
      "▁sharp": 5592,
      "▁ravine": 5593,
      "▁sunshine": 5594,
      "▁parallel": 5595,
      "▁Jewish": 5596,
      "▁Sooners": 5597,
      "▁bulldozer": 5598,
      "turned": 5599,
      "▁ultimate": 5600,
      "▁sundress": 5601,
      "▁teddy": 5602,
      "▁proud": 5603,
      "▁civil": 5604,
      "▁boogie": 5605,
      "▁kiosk": 5606,
      "▁Miami": 5607,
      "▁convenience": 5608,
      "▁Football": 5609,
      "▁scissors": 5610,
      "▁favorite": 5611,
      "▁sailor": 5612,
      "▁nightclub": 5613,
      "▁alcohol": 5614,
      "▁ceremonial": 5615,
      "ae": 5616,
      "bing": 5617,
      "beat": 5618,
      "bama": 5619,
      "cla": 5620,
      "cast": 5621,
      "cape": 5622,
      "cifier": 5623,
      "capped": 5624,
      "dra": 5625,
      "dot": 5626,
      "fashion": 5627,
      "gn": 5628,
      "high": 5629,
      "hift": 5630,
      "haps": 5631,
      "ixt": 5632,
      "iors": 5633,
      "kly": 5634,
      "kier": 5635,
      "kery": 5636,
      "kno": 5637,
      "lled": 5638,
      "nal": 5639,
      "oc": 5640,
      "ock": 5641,
      "oke": 5642,
      "ody": 5643,
      "off": 5644,
      "pen": 5645,
      "pain": 5646,
      "sw": 5647,
      "the": 5648,
      "ties": 5649,
      "uk": 5650,
      "ued": 5651,
      "ugs": 5652,
      "va": 5653,
      "wling": 5654,
      "ware": 5655,
      "well": 5656,
      "yo": 5657,
      "zy": 5658,
      "zard": 5659,
      "▁ver": 5660,
      "▁aid": 5661,
      "▁ado": 5662,
      "▁sling": 5663,
      "▁sister": 5664,
      "▁saris": 5665,
      "▁wool": 5666,
      "▁want": 5667,
      "▁tear": 5668,
      "▁tam": 5669,
      "▁tumbling": 5670,
      "▁oar": 5671,
      "ances": 5672,
      "▁bor": 5673,
      "▁bon": 5674,
      "▁bones": 5675,
      "▁bites": 5676,
      "▁bmx": 5677,
      "helf": 5678,
      "rer": 5679,
      "rew": 5680,
      "▁ping": 5681,
      "▁punk": 5682,
      "▁pleas": 5683,
      "▁mind": 5684,
      "▁mops": 5685,
      "▁cul": 5686,
      "▁cinder": 5687,
      "robe": 5688,
      "rolling": 5689,
      "arat": 5690,
      "▁gy": 5691,
      "▁gum": 5692,
      "▁grow": 5693,
      "▁gig": 5694,
      "▁giv": 5695,
      "▁deter": 5696,
      "▁fam": 5697,
      "▁flee": 5698,
      "▁fills": 5699,
      "alth": 5700,
      "lable": 5701,
      "lapid": 5702,
      "atic": 5703,
      "▁sta": 5704,
      "▁stain": 5705,
      "▁storm": 5706,
      "lor": 5707,
      "lds": 5708,
      "▁Tennis": 5709,
      "▁toe": 5710,
      "▁toast": 5711,
      "▁shines": 5712,
      "kings": 5713,
      "hermen": 5714,
      "icely": 5715,
      "icature": 5716,
      "▁plac": 5717,
      "irts": 5718,
      "▁ya": 5719,
      "▁yelling": 5720,
      "▁rehe": 5721,
      "▁lie": 5722,
      "▁limb": 5723,
      "▁linger": 5724,
      "chief": 5725,
      "▁answ": 5726,
      "geons": 5727,
      "itement": 5728,
      "▁ni": 5729,
      "▁nat": 5730,
      "▁lon": 5731,
      "▁lost": 5732,
      "▁love": 5733,
      "▁lovely": 5734,
      "▁lowered": 5735,
      "▁holes": 5736,
      "▁chat": 5737,
      "▁chips": 5738,
      "▁chunk": 5739,
      "▁baked": 5740,
      "▁bakery": 5741,
      "ader": 5742,
      "ota": 5743,
      "ilted": 5744,
      "using": 5745,
      "▁ec": 5746,
      "▁em": 5747,
      "rick": 5748,
      "▁rolled": 5749,
      "ooking": 5750,
      "oose": 5751,
      "▁last": 5752,
      "▁herding": 5753,
      "▁tap": 5754,
      "ressive": 5755,
      "▁hear": 5756,
      "asm": 5757,
      "asing": 5758,
      "▁watercraft": 5759,
      "▁ket": 5760,
      "▁carve": 5761,
      "▁carto": 5762,
      "▁carved": 5763,
      "▁cargo": 5764,
      "▁caricature": 5765,
      "bout": 5766,
      "boats": 5767,
      "▁poking": 5768,
      "▁forming": 5769,
      "▁upper": 5770,
      "▁upright": 5771,
      "▁asph": 5772,
      "▁rake": 5773,
      "▁Ste": 5774,
      "▁Surfer": 5775,
      "▁backward": 5776,
      "▁backlit": 5777,
      "▁backstroke": 5778,
      "▁backhoe": 5779,
      "▁greenery": 5780,
      "▁Min": 5781,
      "▁Mon": 5782,
      "▁Mark": 5783,
      "▁swan": 5784,
      "▁swamp": 5785,
      "▁snap": 5786,
      "▁snaps": 5787,
      "▁least": 5788,
      "▁legged": 5789,
      "▁leashes": 5790,
      "▁length": 5791,
      "▁Per": 5792,
      "▁Pat": 5793,
      "▁Pic": 5794,
      "▁vio": 5795,
      "▁snowman": 5796,
      "▁snowcapped": 5797,
      "▁span": 5798,
      "▁spir": 5799,
      "▁spike": 5800,
      "▁overh": 5801,
      "▁trays": 5802,
      "▁fold": 5803,
      "▁foam": 5804,
      "▁found": 5805,
      "▁master": 5806,
      "▁convention": 5807,
      "▁handed": 5808,
      "▁handling": 5809,
      "▁handles": 5810,
      "ldering": 5811,
      "▁jackham": 5812,
      "▁crowds": 5813,
      "▁solo": 5814,
      "▁clock": 5815,
      "▁sew": 5816,
      "▁seam": 5817,
      "▁offering": 5818,
      "▁scales": 5819,
      "▁scantily": 5820,
      "▁Cal": 5821,
      "▁pauses": 5822,
      "▁pacifier": 5823,
      "icker": 5824,
      "▁goats": 5825,
      "▁perched": 5826,
      "▁bloss": 5827,
      "▁workman": 5828,
      "tern": 5829,
      "▁unw": 5830,
      "▁unident": 5831,
      "▁unkno": 5832,
      "▁combat": 5833,
      "▁cler": 5834,
      "▁headset": 5835,
      "▁drilling": 5836,
      "▁parts": 5837,
      "▁hairstyle": 5838,
      "▁Wall": 5839,
      "dog": 5840,
      "ppy": 5841,
      "▁accep": 5842,
      "▁Big": 5843,
      "ified": 5844,
      "ketball": 5845,
      "ctions": 5846,
      "▁Out": 5847,
      "▁Over": 5848,
      "▁theme": 5849,
      "▁prev": 5850,
      "▁pretend": 5851,
      "umber": 5852,
      "▁skateboarders": 5853,
      "▁chem": 5854,
      "▁suitcases": 5855,
      "▁prov": 5856,
      "▁flour": 5857,
      "▁baseman": 5858,
      "▁Gentle": 5859,
      "▁Gray": 5860,
      "▁singers": 5861,
      "▁haired": 5862,
      "▁footbr": 5863,
      "aging": 5864,
      "agle": 5865,
      "agne": 5866,
      "▁trimming": 5867,
      "▁cattle": 5868,
      "▁daylight": 5869,
      "▁winding": 5870,
      "▁windbre": 5871,
      "▁deer": 5872,
      "▁barking": 5873,
      "▁barren": 5874,
      "▁surfers": 5875,
      "▁sweaters": 5876,
      "▁sweatsuit": 5877,
      "▁La": 5878,
      "▁armor": 5879,
      "▁armed": 5880,
      "▁sheer": 5881,
      "ivan": 5882,
      "▁marches": 5883,
      "▁flowing": 5884,
      "▁capture": 5885,
      "▁apples": 5886,
      "▁appare": 5887,
      "▁apparat": 5888,
      "▁saying": 5889,
      "rested": 5890,
      "▁passed": 5891,
      "▁passion": 5892,
      "▁passerby": 5893,
      "▁canopy": 5894,
      "▁canyon": 5895,
      "▁fireplace": 5896,
      "▁dribbles": 5897,
      "▁mats": 5898,
      "▁mature": 5899,
      "▁clearing": 5900,
      "▁cartwheel": 5901,
      "▁Dis": 5902,
      "ronts": 5903,
      "▁Hot": 5904,
      "▁High": 5905,
      "▁Halloween": 5906,
      "▁baton": 5907,
      "▁batman": 5908,
      "▁competitors": 5909,
      "▁competitive": 5910,
      "▁clothesline": 5911,
      "acock": 5912,
      "▁cows": 5913,
      "tical": 5914,
      "▁Re": 5915,
      "▁amaz": 5916,
      "onsored": 5917,
      "▁turb": 5918,
      "▁dramat": 5919,
      "▁cradles": 5920,
      "▁crawling": 5921,
      "▁crazy": 5922,
      "▁pray": 5923,
      "▁Ex": 5924,
      "▁breaks": 5925,
      "▁jog": 5926,
      "▁carried": 5927,
      "aneous": 5928,
      "▁contents": 5929,
      "▁graffitied": 5930,
      "▁film": 5931,
      "▁shoeshine": 5932,
      "▁patri": 5933,
      "▁volunte": 5934,
      "▁equestrian": 5935,
      "▁curve": 5936,
      "▁curved": 5937,
      "▁curtain": 5938,
      "hoop": 5939,
      "▁peak": 5940,
      "▁peacock": 5941,
      "▁sweatshirts": 5942,
      "▁gloved": 5943,
      "dered": 5944,
      "▁butt": 5945,
      "▁struggles": 5946,
      "▁Kid": 5947,
      "▁early": 5948,
      "▁earth": 5949,
      "▁vegetation": 5950,
      "▁strap": 5951,
      "▁served": 5952,
      "▁cutout": 5953,
      "▁varying": 5954,
      "▁Groups": 5955,
      "▁mothers": 5956,
      "▁posts": 5957,
      "▁posters": 5958,
      "▁splash": 5959,
      "▁directs": 5960,
      "▁know": 5961,
      "▁digs": 5962,
      "▁repres": 5963,
      "▁monopoly": 5964,
      "▁rowboat": 5965,
      "▁masked": 5966,
      "▁towels": 5967,
      "▁Concert": 5968,
      "▁partying": 5969,
      "▁checkout": 5970,
      "▁sculpt": 5971,
      "▁businessman": 5972,
      "engu": 5973,
      "skating": 5974,
      "▁decorating": 5975,
      "▁artistic": 5976,
      "▁tunic": 5977,
      "▁shady": 5978,
      "▁interact": 5979,
      "▁makeshift": 5980,
      "▁balanced": 5981,
      "▁chained": 5982,
      "▁padded": 5983,
      "▁multicolor": 5984,
      "▁harp": 5985,
      "▁operation": 5986,
      "▁pedd": 5987,
      "▁pedestrian": 5988,
      "▁starts": 5989,
      "▁braided": 5990,
      "anged": 5991,
      "▁completed": 5992,
      "▁includes": 5993,
      "▁inspect": 5994,
      "▁petals": 5995,
      "▁cloths": 5996,
      "▁blocked": 5997,
      "▁rounding": 5998,
      "▁dunking": 5999,
      "▁stretch": 6000,
      "▁eyeglasses": 6001,
      "▁fairy": 6002,
      "▁stacks": 6003,
      "▁zeb": 6004,
      "▁mustard": 6005,
      "▁message": 6006,
      "▁bookshelf": 6007,
      "▁robot": 6008,
      "▁Sold": 6009,
      "▁exciting": 6010,
      "▁excitement": 6011,
      "▁collecting": 6012,
      "allenge": 6013,
      "▁escape": 6014,
      "inoes": 6015,
      "▁pinned": 6016,
      "▁pinstriped": 6017,
      "▁tongs": 6018,
      "▁sheets": 6019,
      "▁saxoph": 6020,
      "▁rubs": 6021,
      "▁rubble": 6022,
      "▁cookies": 6023,
      "▁Athle": 6024,
      "▁keys": 6025,
      "▁donkeys": 6026,
      "▁possession": 6027,
      "▁positioned": 6028,
      "▁vacation": 6029,
      "▁opponents": 6030,
      "▁Sponge": 6031,
      "▁tossed": 6032,
      "▁cooler": 6033,
      "▁coolers": 6034,
      "▁parachuting": 6035,
      "▁parachutes": 6036,
      "▁floaties": 6037,
      "▁Art": 6038,
      "▁storefronts": 6039,
      "▁fingerna": 6040,
      "▁beginning": 6041,
      "▁admire": 6042,
      "▁motorbikes": 6043,
      "▁sacks": 6044,
      "▁tugging": 6045,
      "▁archway": 6046,
      "▁applies": 6047,
      "▁elephants": 6048,
      "▁gliding": 6049,
      "▁glider": 6050,
      "▁exhibition": 6051,
      "▁photographing": 6052,
      "▁tightro": 6053,
      "▁depic": 6054,
      "▁Mouse": 6055,
      "▁cabin": 6056,
      "iversity": 6057,
      "ailable": 6058,
      "▁automo": 6059,
      "▁delic": 6060,
      "▁emerges": 6061,
      "▁merchant": 6062,
      "▁embrace": 6063,
      "▁priest": 6064,
      "▁register": 6065,
      "▁bundled": 6066,
      "▁Marathon": 6067,
      "▁letter": 6068,
      "▁comforting": 6069,
      "▁cheeks": 6070,
      "▁Ital": 6071,
      "▁exploring": 6072,
      "inished": 6073,
      "▁bunny": 6074,
      "▁popcorn": 6075,
      "▁heavyset": 6076,
      "▁returns": 6077,
      "▁remote": 6078,
      "▁angry": 6079,
      "▁torches": 6080,
      "▁Americans": 6081,
      "▁instructing": 6082,
      "▁pride": 6083,
      "▁stylish": 6084,
      "▁Tourist": 6085,
      "▁dotted": 6086,
      "▁bounding": 6087,
      "▁expressions": 6088,
      "▁feathers": 6089,
      "▁community": 6090,
      "working": 6091,
      "▁poodles": 6092,
      "▁crowns": 6093,
      "▁attendant": 6094,
      "▁reclines": 6095,
      "▁ruins": 6096,
      "▁massive": 6097,
      "▁descending": 6098,
      "▁banana": 6099,
      "▁watermelon": 6100,
      "▁elbow": 6101,
      "▁axe": 6102,
      "▁strum": 6103,
      "▁whistle": 6104,
      "▁bronze": 6105,
      "▁bushy": 6106,
      "▁weapons": 6107,
      "▁assistant": 6108,
      "wheeler": 6109,
      "▁tuxedo": 6110,
      "▁McDonalds": 6111,
      "▁utility": 6112,
      "▁huddled": 6113,
      "▁Swim": 6114,
      "▁leaned": 6115,
      "▁interviewed": 6116,
      "point": 6117,
      "▁dolph": 6118,
      "▁smooth": 6119,
      "▁confused": 6120,
      "▁seagulls": 6121,
      "▁arrive": 6122,
      "▁Bicyclist": 6123,
      "▁shelves": 6124,
      "▁concentrates": 6125,
      "▁University": 6126,
      "▁Photographer": 6127,
      "▁identical": 6128,
      "▁Amish": 6129,
      "▁toilet": 6130,
      "▁antique": 6131,
      "▁historic": 6132,
      "▁ascending": 6133,
      "▁Rodeo": 6134,
      "▁earrings": 6135,
      "▁mannequin": 6136,
      "Bob": 6137,
      "▁searching": 6138,
      "▁installing": 6139,
      "▁citizens": 6140,
      "▁shingles": 6141,
      "▁javelin": 6142,
      "▁cockpit": 6143,
      "▁Seattle": 6144,
      "▁snorkel": 6145,
      "▁Parents": 6146,
      "▁Claus": 6147,
      "▁campsite": 6148,
      "▁unfinished": 6149,
      "▁clarinet": 6150,
      "▁attentively": 6151,
      "▁slicing": 6152,
      "▁struggling": 6153,
      "▁terminal": 6154,
      "▁conditions": 6155,
      "▁iPod": 6156,
      "▁barbecuing": 6157,
      "▁Rollerblades": 6158,
      "▁kimonos": 6159,
      "porary": 6160,
      "▁wiping": 6161,
      "▁tiara": 6162,
      "▁Apple": 6163,
      "▁husky": 6164,
      "▁champagne": 6165,
      "▁eagerly": 6166,
      "▁vocalist": 6167,
      "▁Cowboy": 6168,
      "▁Colle": 6169,
      "▁Color": 6170,
      "▁Basketball": 6171,
      "▁brindle": 6172,
      "▁carousel": 6173,
      "▁Dancers": 6174,
      "▁suburban": 6175,
      "▁contempla": 6176,
      "▁magnifying": 6177,
      "▁recreational": 6178,
      "▁Shirtless": 6179,
      "▁blindfolded": 6180,
      "▁symbol": 6181,
      "▁vertical": 6182,
      "▁tambour": 6183,
      "▁given": 6184,
      "lapidated": 6185,
      "▁lingerie": 6186,
      "▁asphalt": 6187,
      "▁unknown": 6188,
      "▁windbreaker": 6189,
      "▁apparatus": 6190,
      "▁zebra": 6191,
      "▁SpongeBob": 6192,
      "▁automobile": 6193,
      "0s": 6194,
      "Aid": 6195,
      "CE": 6196,
      "Cola": 6197,
      "MC": 6198,
      "ags": 6199,
      "ben": 6200,
      "blo": 6201,
      "bes": 6202,
      "bather": 6203,
      "bucks": 6204,
      "cs": 6205,
      "care": 6206,
      "cited": 6207,
      "die": 6208,
      "dish": 6209,
      "deep": 6210,
      "dges": 6211,
      "field": 6212,
      "fives": 6213,
      "front": 6214,
      "gap": 6215,
      "glass": 6216,
      "hite": 6217,
      "homa": 6218,
      "ii": 6219,
      "ien": 6220,
      "iver": 6221,
      "kla": 6222,
      "kely": 6223,
      "kins": 6224,
      "lif": 6225,
      "lift": 6226,
      "mith": 6227,
      "mble": 6228,
      "mage": 6229,
      "made": 6230,
      "mons": 6231,
      "muff": 6232,
      "mely": 6233,
      "nna": 6234,
      "oy": 6235,
      "oles": 6236,
      "ogra": 6237,
      "pro": 6238,
      "pite": 6239,
      "pong": 6240,
      "pering": 6241,
      "prin": 6242,
      "rise": 6243,
      "ranged": 6244,
      "sion": 6245,
      "tish": 6246,
      "trucks": 6247,
      "uc": 6248,
      "ura": 6249,
      "uge": 6250,
      "uce": 6251,
      "uct": 6252,
      "vy": 6253,
      "viewing": 6254,
      "wom": 6255,
      "wag": 6256,
      "wdri": 6257,
      "white": 6258,
      "xim": 6259,
      "ye": 6260,
      "yond": 6261,
      "zil": 6262,
      "zens": 6263,
      "▁7": 6264,
      "▁Z": 6265,
      "▁er": 6266,
      "▁era": 6267,
      "▁uk": 6268,
      "▁amp": 6269,
      "inas": 6270,
      "inary": 6271,
      "ingly": 6272,
      "▁slow": 6273,
      "▁sight": 6274,
      "▁sons": 6275,
      "▁siding": 6276,
      "▁session": 6277,
      "▁sorts": 6278,
      "▁sucking": 6279,
      "▁sashes": 6280,
      "▁waring": 6281,
      "▁ways": 6282,
      "▁wipes": 6283,
      "▁wades": 6284,
      "▁wicker": 6285,
      "▁tet": 6286,
      "▁trou": 6287,
      "▁oct": 6288,
      "anting": 6289,
      "ancing": 6290,
      "▁bark": 6291,
      "▁Aut": 6292,
      "▁All": 6293,
      "▁About": 6294,
      "▁inline": 6295,
      "▁incoming": 6296,
      "itan": 6297,
      "itating": 6298,
      "▁pom": 6299,
      "▁poun": 6300,
      "▁pant": 6301,
      "▁pane": 6302,
      "▁puffy": 6303,
      "▁plowing": 6304,
      "▁pengu": 6305,
      "▁ming": 6306,
      "▁mad": 6307,
      "▁minis": 6308,
      "eria": 6309,
      "▁cem": 6310,
      "▁cub": 6311,
      "lem": 6312,
      "leton": 6313,
      "iser": 6314,
      "ision": 6315,
      "ispanic": 6316,
      "rong": 6317,
      "▁these": 6318,
      "ari": 6319,
      "aration": 6320,
      "▁gor": 6321,
      "▁ginger": 6322,
      "▁once": 6323,
      "▁hon": 6324,
      "▁hop": 6325,
      "▁hips": 6326,
      "▁hilly": 6327,
      "▁du": 6328,
      "▁dip": 6329,
      "▁dash": 6330,
      "▁dug": 6331,
      "▁drop": 6332,
      "▁dyed": 6333,
      "▁fru": 6334,
      "▁fine": 6335,
      "aler": 6336,
      "omet": 6337,
      "▁stay": 6338,
      "▁stalks": 6339,
      "lons": 6340,
      "orc": 6341,
      "orn": 6342,
      "orse": 6343,
      "etery": 6344,
      "una": 6345,
      "esting": 6346,
      "estern": 6347,
      "idge": 6348,
      "onies": 6349,
      "▁shru": 6350,
      "▁shapes": 6351,
      "anding": 6352,
      "andex": 6353,
      "▁areas": 6354,
      "opus": 6355,
      "edos": 6356,
      "▁boss": 6357,
      "▁bout": 6358,
      "utches": 6359,
      "allic": 6360,
      "▁your": 6361,
      "▁york": 6362,
      "▁rear": 6363,
      "▁real": 6364,
      "▁playpen": 6365,
      "▁lla": 6366,
      "▁lid": 6367,
      "▁lim": 6368,
      "▁ann": 6369,
      "▁siting": 6370,
      "▁rim": 6371,
      "sted": 6372,
      "store": 6373,
      "stance": 6374,
      "gee": 6375,
      "▁nine": 6376,
      "▁nicely": 6377,
      "▁jar": 6378,
      "▁loud": 6379,
      "▁locom": 6380,
      "▁chub": 6381,
      "▁chore": 6382,
      "▁bagg": 6383,
      "▁cou": 6384,
      "eli": 6385,
      "elcome": 6386,
      "umble": 6387,
      "otch": 6388,
      "otion": 6389,
      "ottish": 6390,
      "otorc": 6391,
      "▁frown": 6392,
      "▁frolic": 6393,
      "▁hispanic": 6394,
      "▁beat": 6395,
      "▁beare": 6396,
      "▁begging": 6397,
      "▁beyond": 6398,
      "▁think": 6399,
      "▁thread": 6400,
      "ushing": 6401,
      "amic": 6402,
      "▁reddish": 6403,
      "▁elder": 6404,
      "▁east": 6405,
      "verty": 6406,
      "▁roping": 6407,
      "▁roses": 6408,
      "▁loose": 6409,
      "▁streetlight": 6410,
      "oof": 6411,
      "▁lakes": 6412,
      "▁taught": 6413,
      "▁tagged": 6414,
      "▁tasting": 6415,
      "kswag": 6416,
      "keep": 6417,
      "ressed": 6418,
      "▁health": 6419,
      "▁henna": 6420,
      "airs": 6421,
      "ashing": 6422,
      "▁graph": 6423,
      "▁kilts": 6424,
      "ielder": 6425,
      "▁pokes": 6426,
      "▁poised": 6427,
      "▁poverty": 6428,
      "▁forces": 6429,
      "▁sombre": 6430,
      "▁ash": 6431,
      "▁asking": 6432,
      "▁runway": 6433,
      "seen": 6434,
      "▁SU": 6435,
      "▁Sun": 6436,
      "▁Side": 6437,
      "▁Singer": 6438,
      "▁bud": 6439,
      "▁buggy": 6440,
      "▁buoy": 6441,
      "▁word": 6442,
      "▁Mr": 6443,
      "▁Mick": 6444,
      "▁Motorc": 6445,
      "fort": 6446,
      "forcement": 6447,
      "▁snake": 6448,
      "▁ridding": 6449,
      "▁lemons": 6450,
      "rene": 6451,
      "▁Pit": 6452,
      "▁Park": 6453,
      "▁vig": 6454,
      "▁vast": 6455,
      "▁snowf": 6456,
      "▁snowing": 6457,
      "▁snowmo": 6458,
      "▁spear": 6459,
      "▁spikes": 6460,
      "▁sponsored": 6461,
      "▁spandex": 6462,
      "▁overcoat": 6463,
      "▁overturned": 6464,
      "▁tram": 6465,
      "▁persons": 6466,
      "▁mache": 6467,
      "▁convert": 6468,
      "igs": 6469,
      "▁Friend": 6470,
      "▁someones": 6471,
      "▁soil": 6472,
      "▁soldering": 6473,
      "▁closer": 6474,
      "▁tend": 6475,
      "▁seash": 6476,
      "▁seeds": 6477,
      "▁scri": 6478,
      "▁scale": 6479,
      "▁scared": 6480,
      "▁Cast": 6481,
      "▁Cyclists": 6482,
      "▁Cars": 6483,
      "▁paws": 6484,
      "▁came": 6485,
      "▁camper": 6486,
      "▁aircraft": 6487,
      "▁mout": 6488,
      "▁govern": 6489,
      "▁arid": 6490,
      "▁perhaps": 6491,
      "▁workben": 6492,
      "▁sunhat": 6493,
      "▁sunbather": 6494,
      "▁sunrise": 6495,
      "lls": 6496,
      "neck": 6497,
      "▁unpack": 6498,
      "▁uncom": 6499,
      "▁unpaved": 6500,
      "▁unseen": 6501,
      "▁pictured": 6502,
      "unds": 6503,
      "▁comb": 6504,
      "▁clust": 6505,
      "▁topic": 6506,
      "▁rocking": 6507,
      "▁readying": 6508,
      "▁cityscape": 6509,
      "vest": 6510,
      "▁surgeons": 6511,
      "▁guitarists": 6512,
      "▁buses": 6513,
      "▁Wa": 6514,
      "▁Wal": 6515,
      "▁With": 6516,
      "▁Wet": 6517,
      "▁Walk": 6518,
      "iller": 6519,
      "▁Bur": 6520,
      "▁Bike": 6521,
      "▁phys": 6522,
      "▁walkers": 6523,
      "▁helped": 6524,
      "ifts": 6525,
      "orescent": 6526,
      "olf": 6527,
      "▁Or": 6528,
      "▁Ocean": 6529,
      "▁Oriental": 6530,
      "▁Obama": 6531,
      "▁Okla": 6532,
      "▁roadway": 6533,
      "▁roadwork": 6534,
      "imber": 6535,
      "▁used": 6536,
      "▁sandal": 6537,
      "▁pretending": 6538,
      "▁swimwear": 6539,
      "shirted": 6540,
      "▁chews": 6541,
      "▁kiddie": 6542,
      "▁purs": 6543,
      "▁promo": 6544,
      "▁mountainside": 6545,
      "▁floppy": 6546,
      "▁basement": 6547,
      "▁waitress": 6548,
      "▁Gra": 6549,
      "▁Gard": 6550,
      "▁Grand": 6551,
      "▁horns": 6552,
      "▁strip": 6553,
      "▁strikes": 6554,
      "▁tribe": 6555,
      "▁trims": 6556,
      "▁triangle": 6557,
      "▁You": 6558,
      "▁Yama": 6559,
      "▁helmeted": 6560,
      "▁motorboat": 6561,
      "▁whole": 6562,
      "▁gated": 6563,
      "▁sweaty": 6564,
      "▁Long": 6565,
      "▁Lou": 6566,
      "▁Life": 6567,
      "▁Looking": 6568,
      "▁exits": 6569,
      "▁except": 6570,
      "▁shed": 6571,
      "▁cause": 6572,
      "▁cafet": 6573,
      "▁caution": 6574,
      "▁slices": 6575,
      "▁markings": 6576,
      "▁preparation": 6577,
      "▁trained": 6578,
      "type": 6579,
      "▁pastries": 6580,
      "eere": 6581,
      "▁basketballs": 6582,
      "▁disk": 6583,
      "▁sales": 6584,
      "▁bowler": 6585,
      "strated": 6586,
      "▁opened": 6587,
      "▁Ice": 6588,
      "▁drivers": 6589,
      "▁dribbling": 6590,
      "▁likely": 6591,
      "▁despite": 6592,
      "▁mates": 6593,
      "▁grins": 6594,
      "verse": 6595,
      "▁kites": 6596,
      "▁kitten": 6597,
      "▁polish": 6598,
      "▁metro": 6599,
      "▁metrop": 6600,
      "▁metallic": 6601,
      "▁bookbag": 6602,
      "▁bookstore": 6603,
      "▁Day": 6604,
      "▁During": 6605,
      "▁Deere": 6606,
      "▁Har": 6607,
      "▁Hand": 6608,
      "▁Happy": 6609,
      "▁Hispanic": 6610,
      "▁bats": 6611,
      "▁stairwell": 6612,
      "▁competes": 6613,
      "▁Somebody": 6614,
      "chenAid": 6615,
      "▁evil": 6616,
      "▁beards": 6617,
      "acy": 6618,
      "▁surroundings": 6619,
      "▁artific": 6620,
      "scope": 6621,
      "scotch": 6622,
      "izes": 6623,
      "▁created": 6624,
      "▁cord": 6625,
      "▁megap": 6626,
      "▁Race": 6627,
      "▁Russ": 6628,
      "▁paintings": 6629,
      "▁substance": 6630,
      "▁plucking": 6631,
      "▁countert": 6632,
      "▁besides": 6633,
      "arth": 6634,
      "▁bridal": 6635,
      "▁wheeler": 6636,
      "coal": 6637,
      "weed": 6638,
      "▁hikes": 6639,
      "▁snowboarders": 6640,
      "sps": 6641,
      "▁crab": 6642,
      "▁shave": 6643,
      "▁En": 6644,
      "▁Eng": 6645,
      "▁Emerg": 6646,
      "▁breaking": 6647,
      "▁pulley": 6648,
      "▁studies": 6649,
      "▁Afric": 6650,
      "▁web": 6651,
      "▁weird": 6652,
      "▁weeds": 6653,
      "▁appearing": 6654,
      "▁fourth": 6655,
      "▁No": 6656,
      "▁Nike": 6657,
      "▁winning": 6658,
      "▁curious": 6659,
      "▁current": 6660,
      "hold": 6661,
      "▁taller": 6662,
      "▁peach": 6663,
      "▁peeling": 6664,
      "▁cupcake": 6665,
      "▁cupcakes": 6666,
      "▁statues": 6667,
      "▁viewer": 6668,
      "▁ramps": 6669,
      "▁squat": 6670,
      "▁pickup": 6671,
      "▁write": 6672,
      "▁Kay": 6673,
      "▁earmuff": 6674,
      "▁washed": 6675,
      "▁padding": 6676,
      "▁Boston": 6677,
      "▁tattered": 6678,
      "▁Station": 6679,
      "▁straps": 6680,
      "azz": 6681,
      "berty": 6682,
      "▁stationary": 6683,
      "▁inflated": 6684,
      "▁potted": 6685,
      "▁via": 6686,
      "▁paintball": 6687,
      "▁paintbrush": 6688,
      "▁Individu": 6689,
      "▁structures": 6690,
      "▁banging": 6691,
      "▁landed": 6692,
      "▁piled": 6693,
      "▁multi": 6694,
      "▁postal": 6695,
      "▁ladders": 6696,
      "▁formed": 6697,
      "▁exposed": 6698,
      "ails": 6699,
      "▁View": 6700,
      "▁Veg": 6701,
      "▁photography": 6702,
      "▁quaint": 6703,
      "▁milk": 6704,
      "ology": 6705,
      "▁litter": 6706,
      "▁troops": 6707,
      "▁tromb": 6708,
      "▁note": 6709,
      "▁notice": 6710,
      "▁partly": 6711,
      "▁observers": 6712,
      "▁bathrobe": 6713,
      "▁waterskier": 6714,
      "▁intense": 6715,
      "▁circus": 6716,
      "▁circuit": 6717,
      "enger": 6718,
      "▁daught": 6719,
      "▁slot": 6720,
      "▁sloping": 6721,
      "thy": 6722,
      "▁wraps": 6723,
      "▁tuning": 6724,
      "▁sculpting": 6725,
      "▁crus": 6726,
      "▁crutches": 6727,
      "▁typical": 6728,
      "▁participates": 6729,
      "▁projected": 6730,
      "▁celebrates": 6731,
      "▁coveralls": 6732,
      "▁gymnastic": 6733,
      "▁magic": 6734,
      "▁operated": 6735,
      "▁photographers": 6736,
      "▁12": 6737,
      "▁steer": 6738,
      "▁steers": 6739,
      "▁steam": 6740,
      "▁steaks": 6741,
      "▁engage": 6742,
      "▁packing": 6743,
      "▁prints": 6744,
      "▁eatery": 6745,
      "▁cleaned": 6746,
      "▁strawberry": 6747,
      "▁tackles": 6748,
      "▁actors": 6749,
      "▁actively": 6750,
      "▁rounds": 6751,
      "▁dunk": 6752,
      "▁dunes": 6753,
      "▁fighter": 6754,
      "▁seaweed": 6755,
      "▁frames": 6756,
      "▁stacking": 6757,
      "▁guarding": 6758,
      "▁balconies": 6759,
      "▁squares": 6760,
      "▁zo": 6761,
      "▁zoo": 6762,
      "▁messenger": 6763,
      "lation": 6764,
      "▁collection": 6765,
      "▁retail": 6766,
      "▁wetsuits": 6767,
      "▁kayakers": 6768,
      "▁terrier": 6769,
      "▁crib": 6770,
      "▁receive": 6771,
      "▁receives": 6772,
      "▁pitchers": 6773,
      "▁professionals": 6774,
      "▁hooping": 6775,
      "▁cooked": 6776,
      "▁cookie": 6777,
      "▁designer": 6778,
      "▁freshly": 6779,
      "▁pancake": 6780,
      "▁stools": 6781,
      "▁merma": 6782,
      "▁grooms": 6783,
      "▁boulders": 6784,
      "▁layers": 6785,
      "▁defensive": 6786,
      "▁dilapidated": 6787,
      "▁Sports": 6788,
      "▁campers": 6789,
      "▁headscarves": 6790,
      "▁shoots": 6791,
      "▁casts": 6792,
      "▁sumo": 6793,
      "▁superman": 6794,
      "▁piggy": 6795,
      "▁tosses": 6796,
      "▁entertainer": 6797,
      "▁rollerskaters": 6798,
      "▁carpeted": 6799,
      "▁warning": 6800,
      "▁bounce": 6801,
      "▁fashionable": 6802,
      "▁firing": 6803,
      "▁thinking": 6804,
      "▁youths": 6805,
      "▁muzzles": 6806,
      "▁archite": 6807,
      "▁jewelery": 6808,
      "▁leafless": 6809,
      "▁controls": 6810,
      "▁salad": 6811,
      "▁Crowds": 6812,
      "▁headbands": 6813,
      "▁weave": 6814,
      "▁electronics": 6815,
      "▁keeping": 6816,
      "▁tightly": 6817,
      "▁screwdri": 6818,
      "▁sailboats": 6819,
      "▁terrace": 6820,
      "▁owner": 6821,
      "▁owners": 6822,
      "▁peeks": 6823,
      "▁drops": 6824,
      "▁dropped": 6825,
      "▁parasol": 6826,
      "▁burgers": 6827,
      "▁defenders": 6828,
      "▁prim": 6829,
      "▁prizes": 6830,
      "▁chickens": 6831,
      "▁Speedo": 6832,
      "▁letters": 6833,
      "▁scoop": 6834,
      "▁comfortable": 6835,
      "▁decide": 6836,
      "▁demonstrating": 6837,
      "▁weathered": 6838,
      "▁bungee": 6839,
      "▁fetching": 6840,
      "▁organizing": 6841,
      "▁returning": 6842,
      "▁wigs": 6843,
      "▁pressure": 6844,
      "▁grima": 6845,
      "▁removing": 6846,
      "▁crayon": 6847,
      "▁torn": 6848,
      "▁instructor": 6849,
      "▁prun": 6850,
      "▁sniffs": 6851,
      "▁handleb": 6852,
      "▁solitary": 6853,
      "▁texts": 6854,
      "handed": 6855,
      "ulele": 6856,
      "▁seniors": 6857,
      "▁powder": 6858,
      "▁calling": 6859,
      "▁Toy": 6860,
      "▁orders": 6861,
      "▁selecting": 6862,
      "▁scrap": 6863,
      "▁purchasing": 6864,
      "▁attraction": 6865,
      "▁descend": 6866,
      "▁else": 6867,
      "▁avoid": 6868,
      "▁available": 6869,
      "▁slab": 6870,
      "▁slam": 6871,
      "▁pirates": 6872,
      "▁flea": 6873,
      "▁flex": 6874,
      "▁stride": 6875,
      "▁stirs": 6876,
      "▁whispering": 6877,
      "▁constructing": 6878,
      "▁separ": 6879,
      "▁adorable": 6880,
      "▁flatbed": 6881,
      "▁mascara": 6882,
      "▁known": 6883,
      "▁impressive": 6884,
      "▁assemb": 6885,
      "▁retrieving": 6886,
      "▁Teenage": 6887,
      "▁lantern": 6888,
      "▁utens": 6889,
      "▁pillars": 6890,
      "▁charcoal": 6891,
      "▁cables": 6892,
      "▁Island": 6893,
      "▁twirling": 6894,
      "▁technique": 6895,
      "▁technology": 6896,
      "▁enthusiastically": 6897,
      "wearing": 6898,
      "▁oversized": 6899,
      "▁domin": 6900,
      "▁dominoes": 6901,
      "▁dolly": 6902,
      "▁smoothing": 6903,
      "▁graduation": 6904,
      "▁Bicyclists": 6905,
      "▁spectate": 6906,
      "▁mechanic": 6907,
      "▁mechanical": 6908,
      "▁slender": 6909,
      "▁satche": 6910,
      "▁oxen": 6911,
      "▁shields": 6912,
      "▁chiseling": 6913,
      "▁taste": 6914,
      "▁rabbit": 6915,
      "▁rabbits": 6916,
      "▁stockings": 6917,
      "▁extended": 6918,
      "▁communicating": 6919,
      "▁Qu": 6920,
      "▁skeleton": 6921,
      "▁minivan": 6922,
      "▁mesh": 6923,
      "▁skimpy": 6924,
      "▁Parade": 6925,
      "▁sprinting": 6926,
      "▁mailbox": 6927,
      "uddling": 6928,
      "▁Latin": 6929,
      "▁kickboxing": 6930,
      "▁Starbucks": 6931,
      "▁videotaping": 6932,
      "▁greeting": 6933,
      "▁bracelet": 6934,
      "▁extremely": 6935,
      "▁galloping": 6936,
      "▁holiday": 6937,
      "▁Arabic": 6938,
      "flowers": 6939,
      "orously": 6940,
      "▁puzzle": 6941,
      "▁cruise": 6942,
      "▁halter": 6943,
      "▁hidden": 6944,
      "▁storage": 6945,
      "▁coconuts": 6946,
      "▁emerging": 6947,
      "▁brochure": 6948,
      "▁spiked": 6949,
      "▁scratching": 6950,
      "▁Brazil": 6951,
      "▁bringing": 6952,
      "▁Greyhound": 6953,
      "▁hauling": 6954,
      "▁fluorescent": 6955,
      "▁sausages": 6956,
      "▁submerged": 6957,
      "▁drainage": 6958,
      "▁Elementary": 6959,
      "▁weighing": 6960,
      "▁KitchenAid": 6961,
      "▁directly": 6962,
      "▁question": 6963,
      "▁memorial": 6964,
      "▁Shoppers": 6965,
      "▁occurring": 6966,
      "▁occupied": 6967,
      "drawn": 6968,
      "fashioned": 6969,
      "ixture": 6970,
      "▁adolesc": 6971,
      "▁rehear": 6972,
      "▁lonely": 6973,
      "▁kettle": 6974,
      "▁cartoon": 6975,
      "▁Market": 6976,
      "▁swampy": 6977,
      "▁Picture": 6978,
      "▁spanish": 6979,
      "▁overhang": 6980,
      "▁foundation": 6981,
      "▁unwra": 6982,
      "▁unidentified": 6983,
      "▁accepting": 6984,
      "▁Gentleman": 6985,
      "▁footbridge": 6986,
      "▁apparel": 6987,
      "▁passionately": 6988,
      "▁Disney": 6989,
      "▁Hotel": 6990,
      "▁dramatically": 6991,
      "▁sculptor": 6992,
      "▁tightrope": 6993,
      "▁delicious": 6994,
      "▁dolphin": 6995,
      "▁Photographers": 6996,
      "▁College": 6997,
      "▁contemplating": 6998,
      "▁ukulele": 6999,
      "▁octopus": 7000,
      "▁minisk": 7001,
      "▁cemetery": 7002,
      "▁cubicle": 7003,
      "▁hopscotch": 7004,
      "▁frustrated": 7005,
      "▁locomot": 7006,
      "▁chubby": 7007,
      "▁bearer": 7008,
      "kswagen": 7009,
      "ashington": 7010,
      "▁sombrero": 7011,
      "▁Mickey": 7012,
      "▁convertible": 7013,
      "▁Friends": 7014,
      "▁seashore": 7015,
      "▁workbench": 7016,
      "▁sunbathers": 7017,
      "▁unpacking": 7018,
      "▁Oklahoma": 7019,
      "▁promoting": 7020,
      "▁Yamaha": 7021,
      "▁cafeteria": 7022,
      "▁metropol": 7023,
      "▁artificial": 7024,
      "▁megaphone": 7025,
      "▁Emergency": 7026,
      "▁currently": 7027,
      "▁earmuffs": 7028,
      "▁Vegas": 7029,
      "▁trombone": 7030,
      "▁daughters": 7031,
      "▁mermaid": 7032,
      "▁piggyback": 7033,
      "08": 7034,
      "95": 7035,
      "AT": 7036,
      "CK": 7037,
      "EL": 7038,
      "GO": 7039,
      "IN": 7040,
      "MA": 7041,
      "ON": 7042,
      "Pants": 7043,
      "The": 7044,
      "ax": 7045,
      "aic": 7046,
      "aile": 7047,
      "aign": 7048,
      "ault": 7049,
      "aissance": 7050,
      "bell": 7051,
      "bac": 7052,
      "book": 7053,
      "blue": 7054,
      "buds": 7055,
      "bags": 7056,
      "ci": 7057,
      "cro": 7058,
      "cod": 7059,
      "circ": 7060,
      "cession": 7061,
      "cards": 7062,
      "ecut": 7063,
      "evil": 7064,
      "fl": 7065,
      "fast": 7066,
      "gin": 7067,
      "ged": 7068,
      "gear": 7069,
      "gent": 7070,
      "gling": 7071,
      "gles": 7072,
      "hio": 7073,
      "hroom": 7074,
      "hats": 7075,
      "iach": 7076,
      "ifor": 7077,
      "iator": 7078,
      "jump": 7079,
      "jab": 7080,
      "lin": 7081,
      "lan": 7082,
      "mic": 7083,
      "mut": 7084,
      "mother": 7085,
      "nes": 7086,
      "nce": 7087,
      "nast": 7088,
      "nia": 7089,
      "nets": 7090,
      "ove": 7091,
      "onding": 7092,
      "olate": 7093,
      "pad": 7094,
      "press": 7095,
      "rd": 7096,
      "ran": 7097,
      "ration": 7098,
      "rical": 7099,
      "son": 7100,
      "sks": 7101,
      "shing": 7102,
      "shes": 7103,
      "smith": 7104,
      "tch": 7105,
      "tling": 7106,
      "tation": 7107,
      "ux": 7108,
      "uing": 7109,
      "uis": 7110,
      "uild": 7111,
      "ugging": 7112,
      "vin": 7113,
      "vening": 7114,
      "vous": 7115,
      "was": 7116,
      "welling": 7117,
      "water": 7118,
      "writ": 7119,
      "xiously": 7120,
      "yl": 7121,
      "▁ir": 7122,
      "▁ab": 7123,
      "▁awn": 7124,
      "▁ast": 7125,
      "▁age": 7126,
      "▁awe": 7127,
      "▁aerial": 7128,
      "▁awning": 7129,
      "inj": 7130,
      "inting": 7131,
      "intend": 7132,
      "▁swo": 7133,
      "▁sed": 7134,
      "▁such": 7135,
      "▁salm": 7136,
      "▁sips": 7137,
      "▁sipping": 7138,
      "▁self": 7139,
      "▁suds": 7140,
      "▁sari": 7141,
      "▁sizes": 7142,
      "▁wit": 7143,
      "▁wield": 7144,
      "▁wade": 7145,
      "▁wrong": 7146,
      "▁tv": 7147,
      "▁tul": 7148,
      "▁trough": 7149,
      "▁telling": 7150,
      "▁tells": 7151,
      "▁testing": 7152,
      "▁timber": 7153,
      "▁oll": 7154,
      "▁olymp": 7155,
      "anitor": 7156,
      "▁bom": 7157,
      "▁best": 7158,
      "▁bunk": 7159,
      "hel": 7160,
      "hen": 7161,
      "here": 7162,
      "▁Ala": 7163,
      "▁Air": 7164,
      "rep": 7165,
      "reading": 7166,
      "reached": 7167,
      "▁ink": 7168,
      "▁inse": 7169,
      "▁instruction": 7170,
      "▁inde": 7171,
      "▁invest": 7172,
      "itting": 7173,
      "itation": 7174,
      "itual": 7175,
      "itude": 7176,
      "▁pand": 7177,
      "▁pear": 7178,
      "▁pel": 7179,
      "▁plow": 7180,
      "▁pep": 7181,
      "▁pud": 7182,
      "▁might": 7183,
      "▁mate": 7184,
      "▁mist": 7185,
      "ero": 7186,
      "eran": 7187,
      "eramic": 7188,
      "erlin": 7189,
      "▁coun": 7190,
      "▁cors": 7191,
      "▁cust": 7192,
      "▁cert": 7193,
      "▁cush": 7194,
      "▁cult": 7195,
      "▁cages": 7196,
      "▁ceramic": 7197,
      "lease": 7198,
      "ism": 7199,
      "ishing": 7200,
      "isha": 7201,
      "iskly": 7202,
      "rot": 7203,
      "roning": 7204,
      "rofo": 7205,
      "▁glow": 7206,
      "▁gay": 7207,
      "▁glit": 7208,
      "▁goof": 7209,
      "▁gifts": 7210,
      "▁huts": 7211,
      "▁halloween": 7212,
      "▁huddling": 7213,
      "▁dand": 7214,
      "▁dent": 7215,
      "▁dren": 7216,
      "▁duff": 7217,
      "▁dalm": 7218,
      "▁dorm": 7219,
      "▁ducking": 7220,
      "▁darts": 7221,
      "▁ditch": 7222,
      "▁dwelling": 7223,
      "▁fal": 7224,
      "▁ful": 7225,
      "▁fling": 7226,
      "▁fist": 7227,
      "▁fier": 7228,
      "lagers": 7229,
      "laden": 7230,
      "irking": 7231,
      "att": 7232,
      "atch": 7233,
      "atman": 7234,
      "enaissance": 7235,
      "▁manic": 7236,
      "▁manual": 7237,
      "▁manhole": 7238,
      "omas": 7239,
      "▁stet": 7240,
      "▁states": 7241,
      "▁stony": 7242,
      "▁study": 7243,
      "cker": 7244,
      "ckled": 7245,
      "lope": 7246,
      "looks": 7247,
      "locked": 7248,
      "oring": 7249,
      "orter": 7250,
      "▁Ter": 7251,
      "▁Tra": 7252,
      "▁Twel": 7253,
      "▁Tye": 7254,
      "unt": 7255,
      "unity": 7256,
      "▁toen": 7257,
      "▁took": 7258,
      "▁tobac": 7259,
      "iders": 7260,
      "iderman": 7261,
      "▁shit": 7262,
      "▁shri": 7263,
      "▁shading": 7264,
      "▁shamp": 7265,
      "▁doc": 7266,
      "▁dojo": 7267,
      "▁dozen": 7268,
      "andom": 7269,
      "rad": 7270,
      "earing": 7271,
      "ssy": 7272,
      "ico": 7273,
      "icles": 7274,
      "icapped": 7275,
      "▁boa": 7276,
      "▁boating": 7277,
      "utist": 7278,
      "▁yet": 7279,
      "▁rect": 7280,
      "▁resc": 7281,
      "▁rena": 7282,
      "▁reviewing": 7283,
      "▁playhouse": 7284,
      "▁lin": 7285,
      "ersault": 7286,
      "▁ank": 7287,
      "▁situ": 7288,
      "▁rul": 7289,
      "▁rig": 7290,
      "▁rise": 7291,
      "▁rises": 7292,
      "▁ritual": 7293,
      "sta": 7294,
      "stal": 7295,
      "stress": 7296,
      "step": 7297,
      "stairs": 7298,
      "ury": 7299,
      "geous": 7300,
      "▁now": 7301,
      "▁ninj": 7302,
      "▁jug": 7303,
      "▁jars": 7304,
      "▁junk": 7305,
      "▁jazz": 7306,
      "▁loop": 7307,
      "▁loll": 7308,
      "▁loung": 7309,
      "▁loaf": 7310,
      "▁holing": 7311,
      "▁hoses": 7312,
      "▁chart": 7313,
      "▁challe": 7314,
      "▁challenge": 7315,
      "▁bay": 7316,
      "irline": 7317,
      "▁coin": 7318,
      "▁youngsters": 7319,
      "uma": 7320,
      "umes": 7321,
      "ummer": 7322,
      "▁wallet": 7323,
      "▁frosting": 7324,
      "▁outcro": 7325,
      "▁blacktop": 7326,
      "▁blacksmith": 7327,
      "▁bee": 7328,
      "▁bead": 7329,
      "▁beans": 7330,
      "▁beats": 7331,
      "▁beagle": 7332,
      "ili": 7333,
      "ilight": 7334,
      "ilies": 7335,
      "▁threw": 7336,
      "ams": 7337,
      "amar": 7338,
      "▁eg": 7339,
      "▁europe": 7340,
      "verage": 7341,
      "▁menus": 7342,
      "ups": 7343,
      "rior": 7344,
      "▁rot": 7345,
      "▁rose": 7346,
      "▁rods": 7347,
      "▁strewn": 7348,
      "▁streaks": 7349,
      "▁grouped": 7350,
      "▁streetlights": 7351,
      "oos": 7352,
      "iments": 7353,
      "▁lat": 7354,
      "▁ladle": 7355,
      "▁launch": 7356,
      "▁smirking": 7357,
      "▁tasks": 7358,
      "ulance": 7359,
      "ressing": 7360,
      "▁hedge": 7361,
      "enter": 7362,
      "ason": 7363,
      "▁waterpro": 7364,
      "ctic": 7365,
      "achsh": 7366,
      "achio": 7367,
      "▁pouting": 7368,
      "▁poker": 7369,
      "ains": 7370,
      "aining": 7371,
      "▁force": 7372,
      "▁forrest": 7373,
      "▁somersault": 7374,
      "▁ups": 7375,
      "▁uphill": 7376,
      "▁upcoming": 7377,
      "▁rapp": 7378,
      "▁rakes": 7379,
      "▁ragged": 7380,
      "semble": 7381,
      "▁San": 7382,
      "▁Sco": 7383,
      "▁Sitting": 7384,
      "▁backhand": 7385,
      "reds": 7386,
      "▁neat": 7387,
      "▁needs": 7388,
      "▁Angel": 7389,
      "▁Mom": 7390,
      "▁Med": 7391,
      "▁Mad": 7392,
      "▁Main": 7393,
      "▁Mets": 7394,
      "▁swer": 7395,
      "apple": 7396,
      "▁sket": 7397,
      "▁hate": 7398,
      "▁hatted": 7399,
      "▁snar": 7400,
      "formers": 7401,
      "tock": 7402,
      "▁led": 7403,
      "▁lei": 7404,
      "▁leis": 7405,
      "▁Pan": 7406,
      "▁Pops": 7407,
      "▁Pizza": 7408,
      "▁vers": 7409,
      "▁vine": 7410,
      "▁vivid": 7411,
      "▁snows": 7412,
      "▁snowbank": 7413,
      "lywood": 7414,
      "▁spout": 7415,
      "▁spits": 7416,
      "▁spilled": 7417,
      "▁sponge": 7418,
      "▁spiking": 7419,
      "▁spreading": 7420,
      "▁overall": 7421,
      "▁overpa": 7422,
      "▁overlooks": 7423,
      "▁trap": 7424,
      "yclo": 7425,
      "ember": 7426,
      "urely": 7427,
      "▁mac": 7428,
      "▁handful": 7429,
      "▁handker": 7430,
      "▁handmade": 7431,
      "▁Far": 7432,
      "▁Fla": 7433,
      "▁Fore": 7434,
      "▁Fast": 7435,
      "▁Farm": 7436,
      "▁Few": 7437,
      "▁Ford": 7438,
      "▁French": 7439,
      "▁sock": 7440,
      "▁soon": 7441,
      "boarders": 7442,
      "▁tends": 7443,
      "dyed": 7444,
      "▁waking": 7445,
      "▁waff": 7446,
      "▁secu": 7447,
      "▁sexy": 7448,
      "▁offers": 7449,
      "▁Cl": 7450,
      "▁Crou": 7451,
      "▁Cent": 7452,
      "▁Cap": 7453,
      "▁Care": 7454,
      "▁Camp": 7455,
      "▁Coney": 7456,
      "▁paw": 7457,
      "▁pace": 7458,
      "▁paying": 7459,
      "▁paving": 7460,
      "▁pause": 7461,
      "▁pages": 7462,
      "▁camcord": 7463,
      "isters": 7464,
      "▁mob": 7465,
      "▁mock": 7466,
      "▁moon": 7467,
      "▁moved": 7468,
      "▁goers": 7469,
      "▁argu": 7470,
      "▁arranged": 7471,
      "▁facade": 7472,
      "▁blown": 7473,
      "▁sunhats": 7474,
      "ipop": 7475,
      "ipers": 7476,
      "llister": 7477,
      "teen": 7478,
      "shot": 7479,
      "▁unc": 7480,
      "▁unice": 7481,
      "▁unison": 7482,
      "undreds": 7483,
      "▁parka": 7484,
      "▁clip": 7485,
      "▁headgear": 7486,
      "▁drunk": 7487,
      "▁parlor": 7488,
      "▁hairnet": 7489,
      "▁Wor": 7490,
      "▁Wii": 7491,
      "▁Washington": 7492,
      "doors": 7493,
      "▁woodworking": 7494,
      "▁guest": 7495,
      "▁Bus": 7496,
      "▁Bull": 7497,
      "▁Budd": 7498,
      "▁Berlin": 7499,
      "▁Batman": 7500,
      "antage": 7501,
      "antically": 7502,
      "▁pharm": 7503,
      "▁walker": 7504,
      "▁walkie": 7505,
      "▁blonds": 7506,
      "▁colon": 7507,
      "▁adding": 7508,
      "orean": 7509,
      "ournal": 7510,
      "quely": 7511,
      "▁uniquely": 7512,
      "▁Ori": 7513,
      "▁themed": 7514,
      "▁sands": 7515,
      "▁sandpit": 7516,
      "▁pregn": 7517,
      "▁Sea": 7518,
      "▁chew": 7519,
      "▁cheers": 7520,
      "▁briskly": 7521,
      "▁underway": 7522,
      "estyle": 7523,
      "merized": 7524,
      "▁progra": 7525,
      "▁proper": 7526,
      "▁procession": 7527,
      "▁flotation": 7528,
      "▁waited": 7529,
      "▁Go": 7530,
      "▁Gap": 7531,
      "▁Good": 7532,
      "▁Gym": 7533,
      "▁tanned": 7534,
      "▁hawk": 7535,
      "▁enforcement": 7536,
      "▁footprin": 7537,
      "agers": 7538,
      "▁trio": 7539,
      "▁trips": 7540,
      "▁flights": 7541,
      "▁fliers": 7542,
      "▁signal": 7543,
      "▁darkly": 7544,
      "▁darkness": 7545,
      "▁mushroom": 7546,
      "mploy": 7547,
      "▁attired": 7548,
      "▁attaches": 7549,
      "▁veil": 7550,
      "pleted": 7551,
      "▁spec": 7552,
      "▁speakers": 7553,
      "▁grounds": 7554,
      "▁winded": 7555,
      "▁whose": 7556,
      "▁dealer": 7557,
      "▁barbie": 7558,
      "omeless": 7559,
      "▁Lone": 7560,
      "▁Lakers": 7561,
      "▁Looks": 7562,
      "▁opin": 7563,
      "▁exit": 7564,
      "▁expla": 7565,
      "▁execut": 7566,
      "▁shelf": 7567,
      "▁cact": 7568,
      "▁cakes": 7569,
      "ived": 7570,
      "▁marks": 7571,
      "▁marina": 7572,
      "▁fists": 7573,
      "▁wheat": 7574,
      "▁trek": 7575,
      "▁treats": 7576,
      "▁Younger": 7577,
      "▁agility": 7578,
      "▁pastor": 7579,
      "▁pastel": 7580,
      "▁obsc": 7581,
      "aki": 7582,
      "▁itself": 7583,
      "▁capt": 7584,
      "▁capes": 7585,
      "▁captain": 7586,
      "▁captured": 7587,
      "▁appre": 7588,
      "▁appla": 7589,
      "▁saf": 7590,
      "▁save": 7591,
      "▁safe": 7592,
      "▁sauna": 7593,
      "▁outfielder": 7594,
      "▁canes": 7595,
      "▁canned": 7596,
      "▁canister": 7597,
      "▁restaurants": 7598,
      "▁sticker": 7599,
      "▁bowed": 7600,
      "▁highly": 7601,
      "iod": 7602,
      "▁dries": 7603,
      "▁dried": 7604,
      "▁driven": 7605,
      "▁liberty": 7606,
      "▁desolate": 7607,
      "ortment": 7608,
      "ortunity": 7609,
      "▁bears": 7610,
      "▁cleats": 7611,
      "▁grid": 7612,
      "▁DS": 7613,
      "▁De": 7614,
      "▁Dad": 7615,
      "▁Dep": 7616,
      "▁Deli": 7617,
      "▁Dressed": 7618,
      "▁feed": 7619,
      "▁feeds": 7620,
      "ronaut": 7621,
      "▁Hard": 7622,
      "▁Hikers": 7623,
      "▁Homeless": 7624,
      "▁batons": 7625,
      "▁bathed": 7626,
      "▁battling": 7627,
      "aced": 7628,
      "acas": 7629,
      "acular": 7630,
      "▁kicker": 7631,
      "screen": 7632,
      "izer": 7633,
      "▁alp": 7634,
      "▁align": 7635,
      "▁alike": 7636,
      "▁alumin": 7637,
      "▁creative": 7638,
      "▁corral": 7639,
      "▁cords": 7640,
      "▁corrid": 7641,
      "▁meals": 7642,
      "▁Ri": 7643,
      "▁Rug": 7644,
      "▁Renaissance": 7645,
      "▁trink": 7646,
      "▁plugging": 7647,
      "▁county": 7648,
      "erees": 7649,
      "▁wheeling": 7650,
      "▁hijab": 7651,
      "▁fris": 7652,
      "▁cracks": 7653,
      "▁shake": 7654,
      "▁Elder": 7655,
      "▁Eth": 7656,
      "▁Employ": 7657,
      "▁rainstorm": 7658,
      "▁pointy": 7659,
      "▁jogger": 7660,
      "▁hitch": 7661,
      "▁elementary": 7662,
      "▁welds": 7663,
      "▁friendly": 7664,
      "▁lottery": 7665,
      "▁beautifully": 7666,
      "▁takeout": 7667,
      "▁contin": 7668,
      "▁content": 7669,
      "▁films": 7670,
      "▁patches": 7671,
      "▁patrol": 7672,
      "▁strobe": 7673,
      "▁Not": 7674,
      "▁Nine": 7675,
      "▁Nintend": 7676,
      "▁curling": 7677,
      "▁concession": 7678,
      "hoops": 7679,
      "hoscope": 7680,
      "▁better": 7681,
      "▁numbered": 7682,
      "psy": 7683,
      "▁opportunity": 7684,
      "▁statute": 7685,
      "▁views": 7686,
      "▁equipped": 7687,
      "▁kissed": 7688,
      "▁distorted": 7689,
      "▁enter": 7690,
      "▁enters": 7691,
      "▁squirt": 7692,
      "▁squinting": 7693,
      "▁picker": 7694,
      "▁railway": 7695,
      "▁garment": 7696,
      "▁pitches": 7697,
      "▁pitched": 7698,
      "▁Ken": 7699,
      "▁Korean": 7700,
      "▁earbuds": 7701,
      "ertips": 7702,
      "uffles": 7703,
      "▁animated": 7704,
      "▁straining": 7705,
      "climb": 7706,
      "▁audio": 7707,
      "▁indig": 7708,
      "▁happening": 7709,
      "▁rooster": 7710,
      "▁schoolgirl": 7711,
      "headed": 7712,
      "▁France": 7713,
      "▁services": 7714,
      "▁cutoff": 7715,
      "▁infants": 7716,
      "▁related": 7717,
      "▁Grouch": 7718,
      "▁banquet": 7719,
      "▁landsc": 7720,
      "▁landmark": 7721,
      "▁electrical": 7722,
      "▁breakfast": 7723,
      "▁director": 7724,
      "▁directed": 7725,
      "▁formations": 7726,
      "▁knight": 7727,
      "▁knives": 7728,
      "▁knits": 7729,
      "▁exposing": 7730,
      "▁expensive": 7731,
      "▁30": 7732,
      "▁3rd": 7733,
      "▁Ve": 7734,
      "▁Vi": 7735,
      "▁bulls": 7736,
      "▁quilt": 7737,
      "▁onlooker": 7738,
      "▁digger": 7739,
      "▁report": 7740,
      "olog": 7741,
      "▁resear": 7742,
      "▁respect": 7743,
      "▁collide": 7744,
      "▁monks": 7745,
      "▁monster": 7746,
      "▁claw": 7747,
      "▁clams": 7748,
      "▁hammers": 7749,
      "▁rowers": 7750,
      "▁surfboards": 7751,
      "▁liter": 7752,
      "▁littered": 7753,
      "▁trots": 7754,
      "▁tuba": 7755,
      "▁towed": 7756,
      "▁towering": 7757,
      "▁partner": 7758,
      "▁observed": 7759,
      "▁violins": 7760,
      "▁intimate": 7761,
      "▁media": 7762,
      "▁meditating": 7763,
      "▁fingertips": 7764,
      "▁urin": 7765,
      "▁talkie": 7766,
      "▁crouch": 7767,
      "▁violinist": 7768,
      "▁mirrored": 7769,
      "ski": 7770,
      "▁sleds": 7771,
      "▁sledge": 7772,
      "▁refres": 7773,
      "▁refuge": 7774,
      "▁referees": 7775,
      "▁stock": 7776,
      "▁wrapping": 7777,
      "▁shaded": 7778,
      "▁ends": 7779,
      "▁interior": 7780,
      "allet": 7781,
      "▁electrician": 7782,
      "▁golfer": 7783,
      "▁participants": 7784,
      "▁coverings": 7785,
      "▁Workmen": 7786,
      "▁pierced": 7787,
      "abil": 7788,
      "▁14": 7789,
      "▁braces": 7790,
      "▁susp": 7791,
      "angular": 7792,
      "▁mixes": 7793,
      "▁mixed": 7794,
      "ultaneous": 7795,
      "▁engages": 7796,
      "▁assortment": 7797,
      "▁packages": 7798,
      "▁princess": 7799,
      "▁featured": 7800,
      "▁ponders": 7801,
      "▁pets": 7802,
      "▁final": 7803,
      "▁napkin": 7804,
      "▁seemingly": 7805,
      "▁dunks": 7806,
      "▁festive": 7807,
      "▁streams": 7808,
      "▁hurdles": 7809,
      "▁approach": 7810,
      "▁contains": 7811,
      "pany": 7812,
      "▁mustached": 7813,
      "▁mustachio": 7814,
      "▁South": 7815,
      "▁excav": 7816,
      "▁collected": 7817,
      "▁kinds": 7818,
      "▁figur": 7819,
      "▁Team": 7820,
      "▁professionally": 7821,
      "araoke": 7822,
      "▁Cola": 7823,
      "▁Coffee": 7824,
      "▁tiles": 7825,
      "▁mopping": 7826,
      "rolled": 7827,
      "▁sprinkling": 7828,
      "▁sprinkles": 7829,
      "▁sprinkled": 7830,
      "▁ironing": 7831,
      "▁keyboards": 7832,
      "▁panel": 7833,
      "▁twent": 7834,
      "▁twigs": 7835,
      "▁twilight": 7836,
      "▁donuts": 7837,
      "▁dustpan": 7838,
      "▁layered": 7839,
      "▁sheepdog": 7840,
      "▁pairs": 7841,
      "atown": 7842,
      "▁positions": 7843,
      "▁vacant": 7844,
      "▁amused": 7845,
      "▁wildflowers": 7846,
      "▁diag": 7847,
      "▁Spain": 7848,
      "▁campaign": 7849,
      "▁shadowed": 7850,
      "▁route": 7851,
      "▁simultaneous": 7852,
      "▁entertains": 7853,
      "▁entertaining": 7854,
      "▁entertained": 7855,
      "▁entertainment": 7856,
      "▁bouncer": 7857,
      "▁bounces": 7858,
      "▁bouncy": 7859,
      "▁racquet": 7860,
      "▁Chef": 7861,
      "▁peaceful": 7862,
      "▁ponytails": 7863,
      "▁cereal": 7864,
      "▁dreads": 7865,
      "▁heartbeat": 7866,
      "▁trumpets": 7867,
      "▁warmly": 7868,
      "▁dumps": 7869,
      "▁fences": 7870,
      "▁outstreached": 7871,
      "▁extra": 7872,
      "▁protesters": 7873,
      "▁focuses": 7874,
      "▁applied": 7875,
      "▁dishwas": 7876,
      "▁Down": 7877,
      "▁Dozens": 7878,
      "▁leafy": 7879,
      "▁Joe": 7880,
      "▁Jockey": 7881,
      "▁aquatic": 7882,
      "▁recently": 7883,
      "▁BMW": 7884,
      "▁maintain": 7885,
      "▁freeway": 7886,
      "▁nursing": 7887,
      "▁cobbled": 7888,
      "▁taxis": 7889,
      "▁villagers": 7890,
      "▁spreads": 7891,
      "▁Firetrucks": 7892,
      "▁cabinet": 7893,
      "▁Hollister": 7894,
      "▁Road": 7895,
      "▁patiently": 7896,
      "▁transporting": 7897,
      "▁supervis": 7898,
      "▁blast": 7899,
      "▁blade": 7900,
      "▁pumpkins": 7901,
      "▁crocod": 7902,
      "▁crotch": 7903,
      "▁records": 7904,
      "▁ballerinas": 7905,
      "▁sparse": 7906,
      "▁parasail": 7907,
      "▁protester": 7908,
      "▁bagpipe": 7909,
      "▁grandda": 7910,
      "▁grandmother": 7911,
      "▁craftsman": 7912,
      "▁Student": 7913,
      "▁vacuums": 7914,
      "▁defends": 7915,
      "▁region": 7916,
      "▁scoops": 7917,
      "▁decals": 7918,
      "▁explores": 7919,
      "▁explorer": 7920,
      "▁explosion": 7921,
      "▁similarly": 7922,
      "▁demonstrates": 7923,
      "▁tickets": 7924,
      "▁bullet": 7925,
      "▁popping": 7926,
      "iction": 7927,
      "▁organized": 7928,
      "▁Lead": 7929,
      "▁interested": 7930,
      "▁pressing": 7931,
      "▁presses": 7932,
      "▁gripping": 7933,
      "eteran": 7934,
      "▁remove": 7935,
      "▁removes": 7936,
      "▁removed": 7937,
      "▁poorly": 7938,
      "▁Skier": 7939,
      "▁technic": 7940,
      "▁descri": 7941,
      "▁tricycles": 7942,
      "▁crashes": 7943,
      "▁crashed": 7944,
      "▁screams": 7945,
      "▁congregating": 7946,
      "▁congregated": 7947,
      "▁snowshoe": 7948,
      "namese": 7949,
      "▁styl": 7950,
      "▁navigating": 7951,
      "▁leotards": 7952,
      "▁solar": 7953,
      "▁solider": 7954,
      "▁texas": 7955,
      "▁enthusiasm": 7956,
      "▁portraits": 7957,
      "▁powered": 7958,
      "▁reluct": 7959,
      "▁recliner": 7960,
      "▁blurry": 7961,
      "▁selection": 7962,
      "▁Commut": 7963,
      "▁Company": 7964,
      "▁briefs": 7965,
      "▁advantage": 7966,
      "▁horizont": 7967,
      "▁descends": 7968,
      "▁awaits": 7969,
      "▁temporary": 7970,
      "▁informal": 7971,
      "▁powerpoint": 7972,
      "▁homes": 7973,
      "▁fitness": 7974,
      "▁pockets": 7975,
      "▁Mexico": 7976,
      "▁unusually": 7977,
      "▁elevator": 7978,
      "▁potatoes": 7979,
      "▁notebooks": 7980,
      "▁impro": 7981,
      "▁retriever": 7982,
      "▁Teenagers": 7983,
      "▁tuxedos": 7984,
      "▁Player": 7985,
      "▁accompanies": 7986,
      "▁tutus": 7987,
      "▁geese": 7988,
      "▁geomet": 7989,
      "▁geisha": 7990,
      "▁diverse": 7991,
      "▁fatig": 7992,
      "▁maneuver": 7993,
      "▁maneuvers": 7994,
      "▁maneuvering": 7995,
      "▁charging": 7996,
      "▁Scottish": 7997,
      "▁cameramen": 7998,
      "▁butchering": 7999
    },
    "merges": [
      [
        "▁",
        "a"
      ],
      [
        "i",
        "n"
      ],
      [
        "in",
        "g"
      ],
      [
        "▁",
        "s"
      ],
      [
        "▁",
        "w"
      ],
      [
        "▁",
        "t"
      ],
      [
        "▁",
        "o"
      ],
      [
        "a",
        "n"
      ],
      [
        "▁",
        "b"
      ],
      [
        "h",
        "e"
      ],
      [
        "▁",
        "A"
      ],
      [
        "r",
        "e"
      ],
      [
        "▁",
        "in"
      ],
      [
        "i",
        "t"
      ],
      [
        "▁",
        "p"
      ],
      [
        "▁",
        "m"
      ],
      [
        "e",
        "r"
      ],
      [
        "▁",
        "c"
      ],
      [
        "l",
        "e"
      ],
      [
        "i",
        "s"
      ],
      [
        "r",
        "o"
      ],
      [
        "▁t",
        "he"
      ],
      [
        "a",
        "r"
      ],
      [
        "n",
        "d"
      ],
      [
        "▁",
        "g"
      ],
      [
        "▁o",
        "n"
      ],
      [
        "▁",
        "h"
      ],
      [
        "▁",
        "d"
      ],
      [
        "▁",
        "f"
      ],
      [
        "a",
        "l"
      ],
      [
        "l",
        "a"
      ],
      [
        "i",
        "r"
      ],
      [
        "a",
        "t"
      ],
      [
        "e",
        "n"
      ],
      [
        "▁",
        "is"
      ],
      [
        "▁m",
        "an"
      ],
      [
        "▁o",
        "f"
      ],
      [
        "▁a",
        "nd"
      ],
      [
        "o",
        "m"
      ],
      [
        "▁s",
        "t"
      ],
      [
        "c",
        "k"
      ],
      [
        "l",
        "o"
      ],
      [
        "it",
        "h"
      ],
      [
        "▁w",
        "ith"
      ],
      [
        "o",
        "r"
      ],
      [
        "l",
        "d"
      ],
      [
        "e",
        "t"
      ],
      [
        "▁",
        "T"
      ],
      [
        "u",
        "n"
      ],
      [
        "e",
        "s"
      ],
      [
        "▁t",
        "o"
      ],
      [
        "▁w",
        "om"
      ],
      [
        "i",
        "d"
      ],
      [
        "o",
        "n"
      ],
      [
        "▁w",
        "h"
      ],
      [
        "▁s",
        "h"
      ],
      [
        "▁d",
        "o"
      ],
      [
        "an",
        "d"
      ],
      [
        "ro",
        "u"
      ],
      [
        "k",
        "ing"
      ],
      [
        "▁a",
        "re"
      ],
      [
        "o",
        "p"
      ],
      [
        "w",
        "o"
      ],
      [
        "r",
        "a"
      ],
      [
        "e",
        "d"
      ],
      [
        "e",
        "ar"
      ],
      [
        "▁wom",
        "an"
      ],
      [
        "s",
        "s"
      ],
      [
        "he",
        "r"
      ],
      [
        "i",
        "c"
      ],
      [
        "▁b",
        "o"
      ],
      [
        "▁p",
        "la"
      ],
      [
        "u",
        "t"
      ],
      [
        "▁a",
        "t"
      ],
      [
        "al",
        "l"
      ],
      [
        "ir",
        "t"
      ],
      [
        "e",
        "op"
      ],
      [
        "eop",
        "le"
      ],
      [
        "▁T",
        "wo"
      ],
      [
        "▁",
        "y"
      ],
      [
        "▁",
        "re"
      ],
      [
        "▁pla",
        "y"
      ],
      [
        "t",
        "ing"
      ],
      [
        "▁",
        "l"
      ],
      [
        "c",
        "h"
      ],
      [
        "o",
        "un"
      ],
      [
        "er",
        "s"
      ],
      [
        "▁w",
        "ear"
      ],
      [
        "▁a",
        "n"
      ],
      [
        "▁wear",
        "ing"
      ],
      [
        "▁s",
        "it"
      ],
      [
        "▁st",
        "and"
      ],
      [
        "▁p",
        "eople"
      ],
      [
        "w",
        "n"
      ],
      [
        "▁",
        "r"
      ],
      [
        "s",
        "t"
      ],
      [
        "id",
        "e"
      ],
      [
        "u",
        "r"
      ],
      [
        "g",
        "e"
      ],
      [
        "it",
        "e"
      ],
      [
        "▁sh",
        "irt"
      ],
      [
        "i",
        "ld"
      ],
      [
        "▁",
        "n"
      ],
      [
        "oun",
        "g"
      ],
      [
        "▁",
        "j"
      ],
      [
        "i",
        "le"
      ],
      [
        "g",
        "h"
      ],
      [
        "▁",
        "lo"
      ],
      [
        "▁h",
        "o"
      ],
      [
        "▁c",
        "h"
      ],
      [
        "▁b",
        "a"
      ],
      [
        "▁wh",
        "ite"
      ],
      [
        "ir",
        "l"
      ],
      [
        "▁c",
        "o"
      ],
      [
        "▁y",
        "oung"
      ],
      [
        "e",
        "l"
      ],
      [
        "u",
        "m"
      ],
      [
        "▁w",
        "al"
      ],
      [
        "a",
        "d"
      ],
      [
        "▁g",
        "irl"
      ],
      [
        "o",
        "t"
      ],
      [
        "u",
        "e"
      ],
      [
        "▁do",
        "g"
      ],
      [
        "la",
        "ck"
      ],
      [
        "▁f",
        "ro"
      ],
      [
        "▁o",
        "ut"
      ],
      [
        "▁b",
        "lack"
      ],
      [
        "▁h",
        "is"
      ],
      [
        "▁bo",
        "y"
      ],
      [
        "▁b",
        "l"
      ],
      [
        "▁b",
        "e"
      ],
      [
        "▁wh",
        "ile"
      ],
      [
        "▁w",
        "at"
      ],
      [
        "i",
        "l"
      ],
      [
        "▁bl",
        "ue"
      ],
      [
        "▁t",
        "h"
      ],
      [
        "u",
        "s"
      ],
      [
        "c",
        "e"
      ],
      [
        "a",
        "m"
      ],
      [
        "▁re",
        "d"
      ],
      [
        "▁",
        "e"
      ],
      [
        "v",
        "er"
      ],
      [
        "t",
        "s"
      ],
      [
        "▁g",
        "rou"
      ],
      [
        "▁sit",
        "ting"
      ],
      [
        "▁m",
        "en"
      ],
      [
        "u",
        "p"
      ],
      [
        "r",
        "i"
      ],
      [
        "▁ho",
        "ld"
      ],
      [
        "▁stand",
        "ing"
      ],
      [
        "▁",
        "ro"
      ],
      [
        "▁play",
        "ing"
      ],
      [
        "▁st",
        "re"
      ],
      [
        "▁ch",
        "ild"
      ],
      [
        "ar",
        "d"
      ],
      [
        "▁lo",
        "o"
      ],
      [
        "▁grou",
        "p"
      ],
      [
        "▁stre",
        "et"
      ],
      [
        "o",
        "o"
      ],
      [
        "▁do",
        "wn"
      ],
      [
        "v",
        "e"
      ],
      [
        "re",
        "e"
      ],
      [
        "n",
        "t"
      ],
      [
        "i",
        "m"
      ],
      [
        "▁wal",
        "king"
      ],
      [
        "rou",
        "nd"
      ],
      [
        "▁",
        "la"
      ],
      [
        "o",
        "w"
      ],
      [
        "▁s",
        "m"
      ],
      [
        "▁",
        "her"
      ],
      [
        "lo",
        "w"
      ],
      [
        "▁T",
        "he"
      ],
      [
        "▁fro",
        "nt"
      ],
      [
        "▁t",
        "a"
      ],
      [
        "▁hold",
        "ing"
      ],
      [
        "k",
        "s"
      ],
      [
        "k",
        "e"
      ],
      [
        "u",
        "l"
      ],
      [
        "re",
        "ss"
      ],
      [
        "▁",
        "he"
      ],
      [
        "en",
        "t"
      ],
      [
        "a",
        "ir"
      ],
      [
        "a",
        "s"
      ],
      [
        "▁g",
        "ra"
      ],
      [
        "▁wat",
        "er"
      ],
      [
        "c",
        "t"
      ],
      [
        "i",
        "on"
      ],
      [
        "s",
        "ide"
      ],
      [
        "▁",
        "k"
      ],
      [
        "i",
        "e"
      ],
      [
        "a",
        "ch"
      ],
      [
        "▁c",
        "ar"
      ],
      [
        "▁d",
        "ress"
      ],
      [
        "b",
        "o"
      ],
      [
        "▁p",
        "o"
      ],
      [
        "y",
        "ing"
      ],
      [
        "a",
        "in"
      ],
      [
        "▁b",
        "y"
      ],
      [
        "t",
        "le"
      ],
      [
        "um",
        "p"
      ],
      [
        "▁f",
        "or"
      ],
      [
        "▁s",
        "om"
      ],
      [
        "▁T",
        "h"
      ],
      [
        "▁",
        "up"
      ],
      [
        "▁a",
        "s"
      ],
      [
        "▁",
        "ra"
      ],
      [
        "re",
        "en"
      ],
      [
        "h",
        "ing"
      ],
      [
        "▁r",
        "un"
      ],
      [
        "s",
        "e"
      ],
      [
        "a",
        "y"
      ],
      [
        "i",
        "gh"
      ],
      [
        "a",
        "ck"
      ],
      [
        "▁",
        "S"
      ],
      [
        "▁b",
        "u"
      ],
      [
        "▁ba",
        "ck"
      ],
      [
        "▁w",
        "or"
      ],
      [
        "ar",
        "k"
      ],
      [
        "re",
        "d"
      ],
      [
        "▁j",
        "ump"
      ],
      [
        "u",
        "it"
      ],
      [
        "▁n",
        "e"
      ],
      [
        "▁A",
        "n"
      ],
      [
        "▁g",
        "reen"
      ],
      [
        "▁wom",
        "en"
      ],
      [
        "▁",
        "M"
      ],
      [
        "it",
        "tle"
      ],
      [
        "▁on",
        "e"
      ],
      [
        "▁s",
        "w"
      ],
      [
        "f",
        "or"
      ],
      [
        "ro",
        "w"
      ],
      [
        "a",
        "p"
      ],
      [
        "▁loo",
        "king"
      ],
      [
        "▁s",
        "k"
      ],
      [
        "on",
        "e"
      ],
      [
        "▁h",
        "at"
      ],
      [
        "▁s",
        "n"
      ],
      [
        "▁out",
        "side"
      ],
      [
        "▁r",
        "id"
      ],
      [
        "for",
        "m"
      ],
      [
        "t",
        "o"
      ],
      [
        "▁b",
        "ro"
      ],
      [
        "b",
        "le"
      ],
      [
        "▁Th",
        "ree"
      ],
      [
        "oo",
        "d"
      ],
      [
        "in",
        "d"
      ],
      [
        "▁",
        "le"
      ],
      [
        "ar",
        "ge"
      ],
      [
        "re",
        "n"
      ],
      [
        "▁l",
        "ittle"
      ],
      [
        "rou",
        "gh"
      ],
      [
        "▁s",
        "ide"
      ],
      [
        "▁l",
        "arge"
      ],
      [
        "▁b",
        "i"
      ],
      [
        "t",
        "her"
      ],
      [
        "▁th",
        "rough"
      ],
      [
        "▁",
        "P"
      ],
      [
        "▁",
        "v"
      ],
      [
        "b",
        "all"
      ],
      [
        "▁o",
        "ther"
      ],
      [
        "el",
        "low"
      ],
      [
        "▁o",
        "r"
      ],
      [
        "▁sn",
        "ow"
      ],
      [
        "▁b",
        "all"
      ],
      [
        "▁bro",
        "wn"
      ],
      [
        "▁y",
        "ellow"
      ],
      [
        "▁t",
        "wo"
      ],
      [
        "ers",
        "on"
      ],
      [
        "l",
        "y"
      ],
      [
        "▁s",
        "p"
      ],
      [
        "▁o",
        "ver"
      ],
      [
        "▁t",
        "ra"
      ],
      [
        "la",
        "ss"
      ],
      [
        "y",
        "c"
      ],
      [
        "e",
        "m"
      ],
      [
        "i",
        "an"
      ],
      [
        "▁fro",
        "m"
      ],
      [
        "c",
        "he"
      ],
      [
        "u",
        "re"
      ],
      [
        "▁the",
        "ir"
      ],
      [
        "n",
        "g"
      ],
      [
        "▁in",
        "to"
      ],
      [
        "▁f",
        "o"
      ],
      [
        "x",
        "t"
      ],
      [
        "▁p",
        "erson"
      ],
      [
        "▁m",
        "a"
      ],
      [
        "n",
        "ing"
      ],
      [
        "▁c",
        "on"
      ],
      [
        "▁h",
        "and"
      ],
      [
        "▁bu",
        "ild"
      ],
      [
        "▁build",
        "ing"
      ],
      [
        "in",
        "k"
      ],
      [
        "al",
        "k"
      ],
      [
        "ld",
        "er"
      ],
      [
        "▁child",
        "ren"
      ],
      [
        "▁ne",
        "xt"
      ],
      [
        "i",
        "g"
      ],
      [
        "▁sm",
        "all"
      ],
      [
        "row",
        "d"
      ],
      [
        "▁n",
        "ear"
      ],
      [
        "▁",
        "F"
      ],
      [
        "ot",
        "her"
      ],
      [
        "▁j",
        "ack"
      ],
      [
        "▁dress",
        "ed"
      ],
      [
        "▁som",
        "e"
      ],
      [
        "▁c",
        "rowd"
      ],
      [
        "▁jack",
        "et"
      ],
      [
        "igh",
        "t"
      ],
      [
        "▁s",
        "o"
      ],
      [
        "▁gra",
        "ss"
      ],
      [
        "v",
        "ing"
      ],
      [
        "▁c",
        "lo"
      ],
      [
        "bo",
        "ard"
      ],
      [
        "g",
        "round"
      ],
      [
        "▁t",
        "e"
      ],
      [
        "at",
        "e"
      ],
      [
        "d",
        "y"
      ],
      [
        "w",
        "alk"
      ],
      [
        "▁w",
        "a"
      ],
      [
        "▁rid",
        "ing"
      ],
      [
        "▁s",
        "e"
      ],
      [
        "a",
        "ge"
      ],
      [
        "▁run",
        "ning"
      ],
      [
        "▁P",
        "eople"
      ],
      [
        "p",
        "h"
      ],
      [
        "an",
        "ge"
      ],
      [
        "l",
        "ing"
      ],
      [
        "▁a",
        "round"
      ],
      [
        "▁of",
        "f"
      ],
      [
        "▁an",
        "other"
      ],
      [
        "ie",
        "ld"
      ],
      [
        "▁s",
        "c"
      ],
      [
        "oun",
        "t"
      ],
      [
        "yc",
        "le"
      ],
      [
        "e",
        "p"
      ],
      [
        "▁",
        "C"
      ],
      [
        "▁p",
        "a"
      ],
      [
        "c",
        "er"
      ],
      [
        "▁f",
        "ield"
      ],
      [
        "r",
        "u"
      ],
      [
        "▁ta",
        "ble"
      ],
      [
        "i",
        "ck"
      ],
      [
        "▁side",
        "walk"
      ],
      [
        "▁M",
        "an"
      ],
      [
        "lass",
        "es"
      ],
      [
        "f",
        "f"
      ],
      [
        "it",
        "y"
      ],
      [
        "▁be",
        "ach"
      ],
      [
        "▁or",
        "ange"
      ],
      [
        "▁c",
        "am"
      ],
      [
        "is",
        "t"
      ],
      [
        "r",
        "ying"
      ],
      [
        "in",
        "e"
      ],
      [
        "▁a",
        "ir"
      ],
      [
        "▁m",
        "o"
      ],
      [
        "ro",
        "ss"
      ],
      [
        "▁g",
        "o"
      ],
      [
        "▁",
        "it"
      ],
      [
        "▁a",
        "r"
      ],
      [
        "▁f",
        "a"
      ],
      [
        "t",
        "ure"
      ],
      [
        "▁stand",
        "s"
      ],
      [
        "▁p",
        "ink"
      ],
      [
        "▁p",
        "er"
      ],
      [
        "▁sit",
        "s"
      ],
      [
        "▁jump",
        "ing"
      ],
      [
        "▁be",
        "h"
      ],
      [
        "▁beh",
        "ind"
      ],
      [
        "▁b",
        "lo"
      ],
      [
        "▁wat",
        "ch"
      ],
      [
        "▁wor",
        "k"
      ],
      [
        "▁s",
        "un"
      ],
      [
        "i",
        "p"
      ],
      [
        "l",
        "l"
      ],
      [
        "il",
        "ing"
      ],
      [
        "t",
        "e"
      ],
      [
        "s",
        "h"
      ],
      [
        "n",
        "e"
      ],
      [
        "t",
        "er"
      ],
      [
        "▁per",
        "form"
      ],
      [
        "▁",
        "un"
      ],
      [
        "▁p",
        "ic"
      ],
      [
        "w",
        "ay"
      ],
      [
        "▁back",
        "ground"
      ],
      [
        "g",
        "et"
      ],
      [
        "i",
        "re"
      ],
      [
        "u",
        "nd"
      ],
      [
        "an",
        "s"
      ],
      [
        "▁p",
        "ark"
      ],
      [
        "▁c",
        "om"
      ],
      [
        "at",
        "ing"
      ],
      [
        "▁c",
        "l"
      ],
      [
        "b",
        "y"
      ],
      [
        "▁to",
        "p"
      ],
      [
        "▁t",
        "al"
      ],
      [
        "▁he",
        "ad"
      ],
      [
        "▁bi",
        "ke"
      ],
      [
        "▁sh",
        "o"
      ],
      [
        "▁ro",
        "ck"
      ],
      [
        "▁d",
        "r"
      ],
      [
        "ic",
        "e"
      ],
      [
        "▁w",
        "all"
      ],
      [
        "▁re",
        "ad"
      ],
      [
        "▁c",
        "ity"
      ],
      [
        "c",
        "ing"
      ],
      [
        "v",
        "es"
      ],
      [
        "▁play",
        "er"
      ],
      [
        "▁girl",
        "s"
      ],
      [
        "u",
        "d"
      ],
      [
        "▁pic",
        "ture"
      ],
      [
        "▁a",
        "lo"
      ],
      [
        "▁b",
        "ic"
      ],
      [
        "▁loo",
        "ks"
      ],
      [
        "am",
        "e"
      ],
      [
        "▁cam",
        "er"
      ],
      [
        "le",
        "s"
      ],
      [
        "▁sh",
        "or"
      ],
      [
        "uit",
        "ar"
      ],
      [
        "▁s",
        "ur"
      ],
      [
        "▁g",
        "uitar"
      ],
      [
        "ver",
        "al"
      ],
      [
        "▁th",
        "at"
      ],
      [
        "▁p",
        "ar"
      ],
      [
        "▁d",
        "an"
      ],
      [
        "oo",
        "l"
      ],
      [
        "▁h",
        "air"
      ],
      [
        "▁b",
        "us"
      ],
      [
        "ount",
        "ain"
      ],
      [
        "▁dog",
        "s"
      ],
      [
        "che",
        "s"
      ],
      [
        "▁",
        "W"
      ],
      [
        "il",
        "l"
      ],
      [
        "d",
        "o"
      ],
      [
        "▁clo",
        "t"
      ],
      [
        "u",
        "b"
      ],
      [
        "p",
        "p"
      ],
      [
        "▁camer",
        "a"
      ],
      [
        "▁w",
        "ood"
      ],
      [
        "▁g",
        "u"
      ],
      [
        "▁tal",
        "king"
      ],
      [
        "▁a",
        "c"
      ],
      [
        "et",
        "hing"
      ],
      [
        "▁",
        "B"
      ],
      [
        "or",
        "s"
      ],
      [
        "▁som",
        "ething"
      ],
      [
        "an",
        "t"
      ],
      [
        "c",
        "cer"
      ],
      [
        "▁o",
        "lder"
      ],
      [
        "▁m",
        "id"
      ],
      [
        "▁p",
        "h"
      ],
      [
        "ph",
        "one"
      ],
      [
        "▁alo",
        "ng"
      ],
      [
        "▁wal",
        "k"
      ],
      [
        "▁wal",
        "ks"
      ],
      [
        "an",
        "ts"
      ],
      [
        "e",
        "at"
      ],
      [
        "d",
        "le"
      ],
      [
        "i",
        "ve"
      ],
      [
        "▁la",
        "dy"
      ],
      [
        "▁to",
        "get"
      ],
      [
        "▁so",
        "ccer"
      ],
      [
        "▁toget",
        "her"
      ],
      [
        "▁he",
        "l"
      ],
      [
        "▁wor",
        "king"
      ],
      [
        "▁blo",
        "nd"
      ],
      [
        "▁b",
        "ri"
      ],
      [
        "▁f",
        "ood"
      ],
      [
        "▁sk",
        "ate"
      ],
      [
        "▁co",
        "lo"
      ],
      [
        "▁boy",
        "s"
      ],
      [
        "i",
        "f"
      ],
      [
        "▁gra",
        "y"
      ],
      [
        "▁A",
        "s"
      ],
      [
        "▁a",
        "d"
      ],
      [
        "k",
        "et"
      ],
      [
        "▁b",
        "en"
      ],
      [
        "o",
        "re"
      ],
      [
        "▁bic",
        "ycle"
      ],
      [
        "▁sm",
        "iling"
      ],
      [
        "k",
        "es"
      ],
      [
        "o",
        "ur"
      ],
      [
        "q",
        "u"
      ],
      [
        "▁h",
        "im"
      ],
      [
        "ig",
        "n"
      ],
      [
        "ct",
        "ion"
      ],
      [
        "▁un",
        "i"
      ],
      [
        "g",
        "g"
      ],
      [
        "▁h",
        "as"
      ],
      [
        "o",
        "l"
      ],
      [
        "▁g",
        "ame"
      ],
      [
        "▁",
        "O"
      ],
      [
        "▁As",
        "ian"
      ],
      [
        "▁the",
        "m"
      ],
      [
        "▁gu",
        "y"
      ],
      [
        "▁play",
        "s"
      ],
      [
        "▁ro",
        "ad"
      ],
      [
        "▁uni",
        "form"
      ],
      [
        "▁hold",
        "s"
      ],
      [
        "im",
        "b"
      ],
      [
        "▁",
        "us"
      ],
      [
        "p",
        "e"
      ],
      [
        "▁s",
        "and"
      ],
      [
        "▁p",
        "re"
      ],
      [
        "▁com",
        "p"
      ],
      [
        "um",
        "b"
      ],
      [
        "at",
        "ion"
      ],
      [
        "▁j",
        "e"
      ],
      [
        "▁F",
        "our"
      ],
      [
        "▁S",
        "e"
      ],
      [
        "▁sw",
        "im"
      ],
      [
        "▁skate",
        "board"
      ],
      [
        "a",
        "re"
      ],
      [
        "sh",
        "irt"
      ],
      [
        "▁cl",
        "imb"
      ],
      [
        "▁ben",
        "ch"
      ],
      [
        "a",
        "le"
      ],
      [
        "▁",
        "und"
      ],
      [
        "▁c",
        "he"
      ],
      [
        "▁p",
        "ants"
      ],
      [
        "▁g",
        "lasses"
      ],
      [
        "at",
        "h"
      ],
      [
        "▁b",
        "r"
      ],
      [
        "▁k",
        "id"
      ],
      [
        "▁und",
        "er"
      ],
      [
        "es",
        "t"
      ],
      [
        "▁st",
        "age"
      ],
      [
        "▁co",
        "up"
      ],
      [
        "▁shor",
        "ts"
      ],
      [
        "g",
        "s"
      ],
      [
        "i",
        "es"
      ],
      [
        "s",
        "ing"
      ],
      [
        "m",
        "er"
      ],
      [
        "▁p",
        "ur"
      ],
      [
        "▁car",
        "rying"
      ],
      [
        "▁s",
        "uit"
      ],
      [
[...]
