{
  "version": "1.0",
  "truncation": null,
  "padding": null,
  "added_tokens": [
    {
      "id": 0,
      "content": "[PAD]",
      "single_word": false,
      "lstrip": false,
      "rstrip": false,
      "normalized": false,
      "special": true
    },
    {
      "id": 1,
      "content": "[UNK]",
      "single_word": false,
      "lstrip": false,
      "rstrip": false,
      "normalized": false,
      "special": true
    },
    {
      "id": 2,
      "content": "[BOS]",
      "single_word": false,
      "lstrip": false,
      "rstrip": false,
      "normalized": false,
      "special": true
    },
    {
      "id": 3,
      "content": "[EOS]",
      "single_word": false,
      "lstrip": false,
      "rstrip": false,
      "normalized": false,
      "special": true
    }
  ],
  "normalizer": null,
  "pre_tokenizer": {
    "type": "Sequence",
    "pretokenizers": [
      {
        "type": "Metaspace",
        "replacement": "▁",
        "prepend_scheme": "always",
        "split": true
      },
      {
        "type": "Punctuation",
        "behavior": "Isolated"
      }
    ]
  },
  "post_processor": null,
  "decoder": {
    "type": "Metaspace",
    "replacement": "▁",
    "prepend_scheme": "always",
    "split": true
  },
  "model": {
    "type": "BPE",
    "dropout": null,
    "unk_token": "[UNK]",
    "continuing_subword_prefix": null,
    "end_of_word_suffix": null,
    "fuse_unk": false,
    "byte_fallback": false,
    "ignore_merges": false,
    "vocab": {
      "[PAD]": 0,
      "[UNK]": 1,
      "[BOS]": 2,
      "[EOS]": 3,
      "\n": 4,
      "!": 5,
      "\"": 6,
      "#": 7,
      "$": 8,
      "%": 9,
      "&": 10,
      "'": 11,
      "*": 12,
      "+": 13,
      ",": 14,
      "-": 15,
      ".": 16,
      "/": 17,
      "0": 18,
      "1": 19,
      "2": 20,
      "3": 21,
      "4": 22,
      "5": 23,
      "6": 24,
      "7": 25,
      "8": 26,
      "9": 27,
      ":": 28,
      ";": 29,
      "=": 30,
      ">": 31,
      "?": 32,
      "@": 33,
      "A": 34,
      "B": 35,
      "C": 36,
      "D": 37,
      "E": 38,
      "F": 39,
      "G": 40,
      "H": 41,
      "I": 42,
      "J": 43,
      "K": 44,
      "L": 45,
      "M": 46,
      "N": 47,
      "O": 48,
      "P": 49,
      "Q": 50,
      "R": 51,
      "S": 52,
      "T": 53,
      "U": 54,
      "V": 55,
      "W": 56,
      "X": 57,
      "Y": 58,
      "Z": 59,
      "^": 60,
      "_": 61,
      "`": 62,
      "a": 63,
      "b": 64,
      "c": 65,
      "d": 66,
      "e": 67,
      "f": 68,
      "g": 69,
      "h": 70,
      "i": 71,
      "j": 72,
      "k": 73,
      "l": 74,
      "m": 75,
      "n": 76,
      "o": 77,
      "p": 78,
      "q": 79,
      "r": 80,
      "s": 81,
      "t": 82,
      "u": 83,
      "v": 84,
      "w": 85,
      "x": 86,
      "y": 87,
      "z": 88,
      "°": 89,
      "²": 90,
      "¿": 91,
      "×": 92,
      "Ø": 93,
      "ë": 94,
      "ö": 95,
      "́": 96,
      "̆": 97,
      "̈": 98,
      "ο": 99,
      "π": 100,
      "Ё": 101,
      "А": 102,
      "Б": 103,
      "В": 104,
      "Г": 105,
      "Д": 106,
      "Е": 107,
      "Ж": 108,
      "З": 109,
      "И": 110,
      "Й": 111,
      "К": 112,
      "Л": 113,
      "М": 114,
      "Н": 115,
      "О": 116,
      "П": 117,
      "Р": 118,
      "С": 119,
      "Т": 120,
      "У": 121,
      "Ф": 122,
      "Х": 123,
      "Ц": 124,
      "Ч": 125,
      "Ш": 126,
      "Щ": 127,
      "Ъ": 128,
      "Ы": 129,
      "Ь": 130,
      "Э": 131,
      "Ю": 132,
      "Я": 133,
      "а": 134,
      "б": 135,
      "в": 136,
      "г": 137,
      "д": 138,
      "е": 139,
      "ж": 140,
      "з": 141,
      "и": 142,
      "й": 143,
      "к": 144,
      "л": 145,
      "м": 146,
      "н": 147,
      "о": 148,
      "п": 149,
      "р": 150,
      "с": 151,
      "т": 152,
      "у": 153,
      "ф": 154,
      "х": 155,
      "ц": 156,
      "ч": 157,
      "ш": 158,
      "щ": 159,
      "ъ": 160,
      "ы": 161,
      "ь": 162,
      "э": 163,
      "ю": 164,
      "я": 165,
      "ё": 166,
      "​": 167,
      "’": 168,
      "“": 169,
      "”": 170,
      "″": 171,
      "€": 172,
      "№": 173,
      "−": 174,
      "▁": 175,
      "▒": 176,
      "☺": 177,
      "☻": 178,
      "。": 179,
      "为": 180,
      "举": 181,
      "事": 182,
      "人": 183,
      "代": 184,
      "任": 185,
      "会": 186,
      "副": 187,
      "名": 188,
      "命": 189,
      "已": 190,
      "并": 191,
      "应": 192,
      "成": 193,
      "手": 194,
      "接": 195,
      "数": 196,
      "新": 197,
      "最": 198,
      "果": 199,
      "然": 200,
      "理": 201,
      "由": 202,
      "的": 203,
      "直": 204,
      "经": 205,
      "结": 206,
      "给": 207,
      "老": 208,
      "虽": 209,
      "表": 210,
      "选": 211,
      "长": 212,
      "﻿": 213,
      "，": 214,
      "▁п": 215,
      "▁н": 216,
      "▁в": 217,
      "▁с": 218,
      "то": 219,
      "ра": 220,
      "ет": 221,
      "ко": 222,
      "ен": 223,
      "ро": 224,
      "ка": 225,
      "▁м": 226,
      "▁по": 227,
      "▁д": 228,
      "▁о": 229,
      "но": 230,
      "ст": 231,
      "▁и": 232,
      "ит": 233,
      "го": 234,
      "▁т": 235,
      "▁на": 236,
      "ли": 237,
      "▁б": 238,
      "ва": 239,
      "▁ч": 240,
      "▁не": 241,
      "ре": 242,
      "ла": 243,
      "▁у": 244,
      "ло": 245,
      "▁з": 246,
      "на": 247,
      "ль": 248,
      "во": 249,
      "ни": 250,
      "ри": 251,
      "ся": 252,
      "да": 253,
      "ть": 254,
      "ки": 255,
      "ер": 256,
      "ем": 257,
      "▁что": 258,
      "▁за": 259,
      "ны": 260,
      "▁ко": 261,
      "▁к": 262,
      "▁ж": 263,
      "ру": 264,
      "▁П": 265,
      "ле": 266,
      "▁В": 267,
      "▁Н": 268,
      "хо": 269,
      "▁а": 270,
      "▁е": 271,
      "не": 272,
      "▁ка": 273,
      "ма": 274,
      "та": 275,
      "▁ра": 276,
      "де": 277,
      "▁то": 278,
      "▁э": 279,
      "ди": 280,
      "се": 281,
      "▁я": 282,
      "▁С": 283,
      "▁вы": 284,
      "▁до": 285,
      "ку": 286,
      "▁мо": 287,
      "▁про": 288,
      "ти": 289,
      "мо": 290,
      "▁Д": 291,
      "те": 292,
      "бо": 293,
      "▁А": 294,
      "сь": 295,
      "ить": 296,
      "до": 297,
      "ми": 298,
      "ве": 299,
      "▁та": 300,
      "▁от": 301,
      "▁М": 302,
      "▁во": 303,
      "▁го": 304,
      "▁К": 305,
      "уж": 306,
      "ви": 307,
      "ча": 308,
      "ля": 309,
      "га": 310,
      "ше": 311,
      "▁при": 312,
      "▁со": 313,
      "ну": 314,
      "чи": 315,
      "▁это": 316,
      "▁бы": 317,
      "▁те": 318,
      "ени": 319,
      "шь": 320,
      "си": 321,
      "ду": 322,
      "ши": 323,
      "▁но": 324,
      "па": 325,
      "ют": 326,
      "че": 327,
      "за": 328,
      "лю": 329,
      "гда": 330,
      "ите": 331,
      "▁Т": 332,
      "лу": 333,
      "▁г": 334,
      "ста": 335,
      "по": 336,
      "▁де": 337,
      "ры": 338,
      "▁О": 339,
      "▁все": 340,
      "же": 341,
      "▁ты": 342,
      "▁По": 343,
      "ень": 344,
      "▁хо": 345,
      "▁как": 346,
      "сто": 347,
      "щи": 348,
      "▁ма": 349,
      "бе": 350,
      "ня": 351,
      "сть": 352,
      "▁се": 353,
      "ву": 354,
      "▁ва": 355,
      "му": 356,
      "▁жен": 357,
      "ется": 358,
      "ще": 359,
      "▁И": 360,
      "ере": 361,
      "▁из": 362,
      "▁бо": 363,
      "ме": 364,
      "вы": 365,
      "со": 366,
      "еня": 367,
      "ша": 368,
      "ци": 369,
      "▁бу": 370,
      "ный": 371,
      "сли": 372,
      "▁раз": 373,
      "бы": 374,
      "кой": 375,
      "би": 376,
      "ему": 377,
      "▁ни": 378,
      "лько": 379,
      "▁па": 380,
      "пи": 381,
      "са": 382,
      "ски": 383,
      "▁Р": 384,
      "▁муж": 385,
      "▁да": 386,
      "▁Я": 387,
      "ги": 388,
      "▁У": 389,
      "ят": 390,
      "▁меня": 391,
      "ке": 392,
      "жа": 393,
      "ной": 394,
      "▁об": 395,
      "сти": 396,
      "▁лю": 397,
      "▁Ч": 398,
      "▁са": 399,
      "ете": 400,
      "▁ре": 401,
      "▁Да": 402,
      "▁На": 403,
      "▁Е": 404,
      "▁под": 405,
      "ба": 406,
      "бя": 407,
      "вор": 408,
      "▁Б": 409,
      "▁ф": 410,
      "ты": 411,
      "▁сво": 412,
      "жи": 413,
      "ак": 414,
      "▁бе": 415,
      "лы": 416,
      "вать": 417,
      "ту": 418,
      "▁же": 419,
      "▁ве": 420,
      "ход": 421,
      "▁так": 422,
      "▁З": 423,
      "▁ку": 424,
      "▁зна": 425,
      "льно": 426,
      "▁пре": 427,
      "▁когда": 428,
      "лся": 429,
      "ей": 430,
      "дет": 431,
      "▁че": 432,
      "▁мне": 433,
      "▁ме": 434,
      "▁он": 435,
      "ешь": 436,
      "ут": 437,
      "▁ста": 438,
      "вает": 439,
      "ца": 440,
      "бу": 441,
      "ды": 442,
      "ные": 443,
      "лет": 444,
      "ско": 445,
      "▁жи": 446,
      "ря": 447,
      "▁ро": 448,
      "▁сп": 449,
      "ная": 450,
      "▁ру": 451,
      "ного": 452,
      "▁пере": 453,
      "тра": 454,
      "▁ли": 455,
      "ха": 456,
      "дь": 457,
      "зы": 458,
      "вер": 459,
      "сси": 460,
      "мен": 461,
      "▁ви": 462,
      "▁Не": 463,
      "зи": 464,
      "▁ба": 465,
      "ита": 466,
      "▁мож": 467,
      "▁пос": 468,
      "▁говор": 469,
      "▁дру": 470,
      "гу": 471,
      "▁Г": 472,
      "це": 473,
      "▁кото": 474,
      "чему": 475,
      "каза": 476,
      "▁Во": 477,
      "▁Ко": 478,
      "▁ми": 479,
      "рав": 480,
      "▁только": 481,
      "ение": 482,
      "▁Ну": 483,
      "▁си": 484,
      "нь": 485,
      "мы": 486,
      "▁ш": 487,
      "▁его": 488,
      "зо": 489,
      "▁тебя": 490,
      "▁рабо": 491,
      "▁сто": 492,
      "чно": 493,
      "ска": 494,
      "▁Мо": 495,
      "ща": 496,
      "▁Если": 497,
      "▁Э": 498,
      "▁Л": 499,
      "ения": 500,
      "▁уже": 501,
      "▁женщи": 502,
      "▁од": 503,
      "вет": 504,
      "▁ду": 505,
      "▁ле": 506,
      "▁Ма": 507,
      "▁х": 508,
      "шка": 509,
      "лове": 510,
      "▁До": 511,
      "▁еще": 512,
      "дин": 513,
      "▁Что": 514,
      "пу": 515,
      "пе": 516,
      "том": 517,
      "▁боль": 518,
      "▁чтобы": 519,
      "ных": 520,
      "нима": 521,
      "кто": 522,
      "▁пи": 523,
      "▁мы": 524,
      "мот": 525,
      "▁если": 526,
      "ров": 527,
      "▁для": 528,
      "ком": 529,
      "▁Ро": 530,
      "ром": 531,
      "гра": 532,
      "рет": 533,
      "чка": 534,
      "▁вас": 535,
      "ходит": 536,
      "▁она": 537,
      "ное": 538,
      "▁Ж": 539,
      "ство": 540,
      "▁нет": 541,
      "лен": 542,
      "нов": 543,
      "▁есть": 544,
      "▁Но": 545,
      "▁день": 546,
      "▁Ты": 547,
      "▁Вы": 548,
      "рем": 549,
      "▁челове": 550,
      "▁За": 551,
      "сы": 552,
      "ник": 553,
      "про": 554,
      "▁су": 555,
      "ться": 556,
      "▁Как": 557,
      "ков": 558,
      "пер": 559,
      "йте": 560,
      "▁говорит": 561,
      "▁дол": 562,
      "▁Х": 563,
      "▁ча": 564,
      "чу": 565,
      "▁Ка": 566,
      "▁Это": 567,
      "▁рас": 568,
      "лась": 569,
      "кра": 570,
      "су": 571,
      "▁Нет": 572,
      "▁чем": 573,
      "вают": 574,
      "лись": 575,
      "▁Ва": 576,
      "▁дела": 577,
      "чень": 578,
      "▁жиз": 579,
      "▁тебе": 580,
      "ена": 581,
      "вой": 582,
      "год": 583,
      "▁кто": 584,
      "ств": 585,
      "ится": 586,
      "тому": 587,
      "зна": 588,
      "▁после": 589,
      "зу": 590,
      "об": 591,
      "ние": 592,
      "шо": 593,
      "лось": 594,
      "раши": 595,
      "▁нас": 596,
      "▁ин": 597,
      "▁ее": 598,
      "чина": 599,
      "он": 600,
      "ным": 601,
      "▁деву": 602,
      "▁Росси": 603,
      "▁воз": 604,
      "▁которы": 605,
      "вый": 606,
      "вно": 607,
      "ья": 608,
      "мер": 609,
      "луч": 610,
      "итель": 611,
      "▁они": 612,
      "▁стра": 613,
      "▁пер": 614,
      "▁спраши": 615,
      "ский": 616,
      "▁хоро": 617,
      "чь": 618,
      "▁почему": 619,
      "▁При": 620,
      "зя": 621,
      "▁будет": 622,
      "кая": 623,
      "▁или": 624,
      "▁кон": 625,
      "▁То": 626,
      "▁врем": 627,
      "▁лет": 628,
      "▁можно": 629,
      "ную": 630,
      "спо": 631,
      "ются": 632,
      "фи": 633,
      "тер": 634,
      "ден": 635,
      "▁сказа": 636,
      "став": 637,
      "чит": 638,
      "сту": 639,
      "сте": 640,
      "▁кра": 641,
      "▁ту": 642,
      "▁сло": 643,
      "▁1": 644,
      "дела": 645,
      "жу": 646,
      "ном": 647,
      "годня": 648,
      "▁их": 649,
      "иться": 650,
      "▁два": 651,
      "▁надо": 652,
      "▁без": 653,
      "шел": 654,
      "тов": 655,
      "▁Ра": 656,
      "▁было": 657,
      "▁Па": 658,
      "чера": 659,
      "дит": 660,
      "▁ско": 661,
      "ствен": 662,
      "▁просто": 663,
      "вал": 664,
      "▁там": 665,
      "▁пред": 666,
      "бра": 667,
      "нет": 668,
      "кры": 669,
      "▁Муж": 670,
      "▁Де": 671,
      "перь": 672,
      "▁пол": 673,
      "▁жена": 674,
      "▁пра": 675,
      "цы": 676,
      "▁пу": 677,
      "▁пла": 678,
      "ктор": 679,
      "▁вам": 680,
      "▁очень": 681,
      "▁голо": 682,
      "дно": 683,
      "▁вот": 684,
      "▁Про": 685,
      "ции": 686,
      "▁время": 687,
      "ния": 688,
      "▁ком": 689,
      "▁Почему": 690,
      "кие": 691,
      "▁ло": 692,
      "ять": 693,
      "▁каж": 694,
      "▁нуж": 695,
      "мой": 696,
      "вая": 697,
      "▁Хо": 698,
      "▁дума": 699,
      "ик": 700,
      "▁гла": 701,
      "▁где": 702,
      "кое": 703,
      "ран": 704,
      "▁больше": 705,
      "▁был": 706,
      "дите": 707,
      "ене": 708,
      "▁может": 709,
      "рой": 710,
      "мет": 711,
      "чего": 712,
      "стоя": 713,
      "вто": 714,
      "пы": 715,
      "▁смот": 716,
      "▁сы": 717,
      "▁оста": 718,
      "жно": 719,
      "стре": 720,
      "ск": 721,
      "лей": 722,
      "ез": 723,
      "▁спрашивает": 724,
      "▁ст": 725,
      "▁Когда": 726,
      "ника": 727,
      "▁луч": 728,
      "▁слу": 729,
      "▁дет": 730,
      "▁само": 731,
      "▁пе": 732,
      "▁буду": 733,
      "пла": 734,
      "чем": 735,
      "гой": 736,
      "▁Так": 737,
      "▁вс": 738,
      "кого": 739,
      "бой": 740,
      "▁фи": 741,
      "жен": 742,
      "▁России": 743,
      "▁ди": 744,
      "▁сек": 745,
      "▁ему": 746,
      "цу": 747,
      "шу": 748,
      "вали": 749,
      "▁люб": 750,
      "▁га": 751,
      "▁один": 752,
      "вается": 753,
      "▁Вот": 754,
      "▁себе": 755,
      "▁себя": 756,
      "▁свои": 757,
      "стро": 758,
      "ские": 759,
      "▁теле": 760,
      "шки": 761,
      "▁работа": 762,
      "▁доро": 763,
      "▁вер": 764,
      "▁Са": 765,
      "дя": 766,
      "ющи": 767,
      "рти": 768,
      "▁му": 769,
      "бира": 770,
      "фо": 771,
      "сно": 772,
      "▁ц": 773,
      "ред": 774,
      "▁тво": 775,
      "▁2": 776,
      "▁чу": 777,
      "ской": 778,
      "▁Со": 779,
      "▁человек": 780,
      "▁ска": 781,
      "час": 782,
      "▁сдела": 783,
      "▁спо": 784,
      "▁мужчи": 785,
      "дел": 786,
      "▁пока": 787,
      "▁быть": 788,
      "нее": 789,
      "▁потом": 790,
      "рт": 791,
      "чита": 792,
      "ства": 793,
      "▁тру": 794,
      "▁него": 795,
      "вай": 796,
      "чет": 797,
      "фе": 798,
      "ству": 799,
      "нок": 800,
      "▁даже": 801,
      "▁всегда": 802,
      "его": 803,
      "▁сегодня": 804,
      "▁Го": 805,
      "лем": 806,
      "▁Бо": 807,
      "вари": 808,
      "вые": 809,
      "хи": 810,
      "чку": 811,
      "гла": 812,
      "ин": 813,
      "▁жизни": 814,
      "тель": 815,
      "сты": 816,
      "▁пло": 817,
      "▁Все": 818,
      "ню": 819,
      "ъя": 820,
      "▁авто": 821,
      "▁Ф": 822,
      "▁три": 823,
      "▁полу": 824,
      "▁ус": 825,
      "▁Ни": 826,
      "рь": 827,
      "чки": 828,
      "сле": 829,
      "▁тем": 830,
      "ского": 831,
      "кла": 832,
      "▁Те": 833,
      "▁нача": 834,
      "дом": 835,
      "▁ла": 836,
      "▁спа": 837,
      "▁Пу": 838,
      "рова": 839,
      "из": 840,
      "▁лучше": 841,
      "ено": 842,
      "ску": 843,
      "▁того": 844,
      "▁теперь": 845,
      "рю": 846,
      "▁ки": 847,
      "ция": 848,
      "рма": 849,
      "вя": 850,
      "руг": 851,
      "▁дома": 852,
      "чик": 853,
      "▁женщина": 854,
      "▁поло": 855,
      "▁моло": 856,
      "дума": 857,
      "▁Из": 858,
      "тере": 859,
      "ерез": 860,
      "▁обра": 861,
      "▁две": 862,
      "вочка": 863,
      "▁Ш": 864,
      "вши": 865,
      "▁Он": 866,
      "будь": 867,
      "▁такой": 868,
      "пре": 869,
      "▁тоже": 870,
      "▁поня": 871,
      "дер": 872,
      "лень": 873,
      "▁им": 874,
      "▁От": 875,
      "рит": 876,
      "дей": 877,
      "шей": 878,
      "▁деньги": 879,
      "▁пар": 880,
      "юсь": 881,
      "ней": 882,
      "▁ша": 883,
      "аль": 884,
      "▁сле": 885,
      "кон": 886,
      "▁чего": 887,
      "когда": 888,
      "род": 889,
      "▁жизнь": 890,
      "▁ут": 891,
      "ление": 892,
      "жда": 893,
      "▁ничего": 894,
      "вод": 895,
      "нибудь": 896,
      "▁маши": 897,
      "▁люди": 898,
      "▁помо": 899,
      "нут": 900,
      "тя": 901,
      "ских": 902,
      "кан": 903,
      "▁вод": 904,
      "▁потому": 905,
      "▁Доро": 906,
      "▁фо": 907,
      "сс": 908,
      "ью": 909,
      "вое": 910,
      "кий": 911,
      "▁сем": 912,
      "▁гру": 913,
      "▁Лю": 914,
      "▁сей": 915,
      "▁вра": 916,
      "▁тут": 917,
      "▁рус": 918,
      "дешь": 919,
      "▁вчера": 920,
      "тив": 921,
      "▁них": 922,
      "▁всех": 923,
      "▁какой": 924,
      "нно": 925,
      "▁прав": 926,
      "▁сейчас": 927,
      "▁тре": 928,
      "ница": 929,
      "▁домой": 930,
      "шла": 931,
      "рен": 932,
      "▁пода": 933,
      "нечно": 934,
      "▁много": 935,
      "йти": 936,
      "▁нужно": 937,
      "чен": 938,
      "вра": 939,
      "▁ры": 940,
      "дем": 941,
      "вич": 942,
      "ходи": 943,
      "▁ум": 944,
      "▁хорошо": 945,
      "▁такое": 946,
      "▁Се": 947,
      "ники": 948,
      "▁всего": 949,
      "▁мог": 950,
      "▁гра": 951,
      "стра": 952,
      "бов": 953,
      "жет": 954,
      "ман": 955,
      "ан": 956,
      "▁бра": 957,
      "нии": 958,
      "лек": 959,
      "разу": 960,
      "жите": 961,
      "лом": 962,
      "нуть": 963,
      "гля": 964,
      "цо": 965,
      "ками": 966,
      "▁Доктор": 967,
      "▁который": 968,
      "лон": 969,
      "▁Ми": 970,
      "ар": 971,
      "▁чи": 972,
      "▁эти": 973,
      "▁соба": 974,
      "при": 975,
      "▁Си": 976,
      "ская": 977,
      "вори": 978,
      "▁мой": 979,
      "▁обе": 980,
      "▁поз": 981,
      "дой": 982,
      "▁значит": 983,
      "▁знаю": 984,
      "шку": 985,
      "▁вз": 986,
      "лый": 987,
      "▁Жена": 988,
      "▁кри": 989,
      "▁це": 990,
      "сов": 991,
      "ге": 992,
      "ний": 993,
      "00": 994,
      "лли": 995,
      "енно": 996,
      "▁была": 997,
      "▁шко": 998,
      "дят": 999,
      "▁понима": 1000,
      "▁ночь": 1001,
      "▁сосе": 1002,
      "сем": 1003,
      "вре": 1004,
      "гази": 1005,
      "▁зо": 1006,
      "▁ей": 1007,
      "писа": 1008,
      "▁Та": 1009,
      "▁начина": 1010,
      "ваться": 1011,
      "▁нее": 1012,
      "тно": 1013,
      "▁уда": 1014,
      "▁Деву": 1015,
      "▁росси": 1016,
      "ках": 1017,
      "гая": 1018,
      "▁вто": 1019,
      "▁могу": 1020,
      "▁через": 1021,
      "▁сколько": 1022,
      "шли": 1023,
      "▁кла": 1024,
      "▁женщины": 1025,
      "▁девушка": 1026,
      "▁которые": 1027,
      "клю": 1028,
      "▁чер": 1029,
      "обще": 1030,
      "прав": 1031,
      "нец": 1032,
      "▁никогда": 1033,
      "пил": 1034,
      "▁Пути": 1035,
      "сит": 1036,
      "ительно": 1037,
      "▁нам": 1038,
      "лит": 1039,
      "▁прода": 1040,
      "▁жа": 1041,
      "▁случа": 1042,
      "▁ново": 1043,
      "▁пой": 1044,
      "▁спи": 1045,
      "▁перед": 1046,
      "▁магази": 1047,
      "жду": 1048,
      "стви": 1049,
      "▁пожа": 1050,
      "▁Мне": 1051,
      "▁ква": 1052,
      "▁хоте": 1053,
      "еха": 1054,
      "▁мужчина": 1055,
      "▁своей": 1056,
      "деть": 1057,
      "▁назы": 1058,
      "▁тот": 1059,
      "дый": 1060,
      "▁ну": 1061,
      "сом": 1062,
      "дить": 1063,
      "▁Ин": 1064,
      "▁вопро": 1065,
      "▁проб": 1066,
      "▁сказал": 1067,
      "сить": 1068,
      "▁мужик": 1069,
      "чает": 1070,
      "щу": 1071,
      "▁мужи": 1072,
      "ент": 1073,
      "тельно": 1074,
      "цию": 1075,
      "шего": 1076,
      "▁ведь": 1077,
      "▁коро": 1078,
      "вую": 1079,
      "ваю": 1080,
      "▁ше": 1081,
      "▁откры": 1082,
      "▁взя": 1083,
      "▁кого": 1084,
      "▁Мама": 1085,
      "лин": 1086,
      "дут": 1087,
      "вых": 1088,
      "▁люби": 1089,
      "▁краси": 1090,
      "рави": 1091,
      "реть": 1092,
      "▁Пет": 1093,
      "▁Жен": 1094,
      "▁делать": 1095,
      "▁этом": 1096,
      "ными": 1097,
      "▁Ку": 1098,
      "вля": 1099,
      "▁людей": 1100,
      "соб": 1101,
      "ван": 1102,
      "ой": 1103,
      "▁кро": 1104,
      "ху": 1105,
      "ил": 1106,
      "▁сразу": 1107,
      "мери": 1108,
      "▁оп": 1109,
      "мый": 1110,
      "▁ней": 1111,
      "им": 1112,
      "шая": 1113,
      "▁счита": 1114,
      "▁узна": 1115,
      "▁объя": 1116,
      "▁Она": 1117,
      "▁человека": 1118,
      "рая": 1119,
      "▁работу": 1120,
      "рить": 1121,
      "▁попа": 1122,
      "той": 1123,
      "▁хочу": 1124,
      "бор": 1125,
      "▁кол": 1126,
      "▁кре": 1127,
      "ском": 1128,
      "нес": 1129,
      "▁пом": 1130,
      "пить": 1131,
      "чешь": 1132,
      "▁друго": 1133,
      "ните": 1134,
      "▁подо": 1135,
      "▁дву": 1136,
      "▁Зна": 1137,
      "нул": 1138,
      "▁Девушка": 1139,
      "▁нем": 1140,
      "ставля": 1141,
      "▁том": 1142,
      "▁кор": 1143,
      "грам": 1144,
      "три": 1145,
      "▁Ба": 1146,
      "▁ули": 1147,
      "▁Мы": 1148,
      "▁вообще": 1149,
      "льник": 1150,
      "▁таки": 1151,
      "ников": 1152,
      "▁пор": 1153,
      "нем": 1154,
      "▁обо": 1155,
      "▁сер": 1156,
      "▁одна": 1157,
      "▁ответ": 1158,
      "ении": 1159,
      "▁свою": 1160,
      "ньше": 1161,
      "▁реши": 1162,
      "▁тогда": 1163,
      "▁3": 1164,
      "▁дене": 1165,
      "▁год": 1166,
      "лез": 1167,
      "▁кру": 1168,
      "▁зачем": 1169,
      "зиден": 1170,
      "▁Папа": 1171,
      "▁поку": 1172,
      "лыша": 1173,
      "▁пья": 1174,
      "сил": 1175,
      "▁бро": 1176,
      "▁малень": 1177,
      "▁любов": 1178,
      "луй": 1179,
      "раз": 1180,
      "▁Раз": 1181,
      "▁холо": 1182,
      "вым": 1183,
      "▁этого": 1184,
      "▁Только": 1185,
      "лку": 1186,
      "▁ок": 1187,
      "▁сча": 1188,
      "▁гу": 1189,
      "▁игра": 1190,
      "дать": 1191,
      "▁дер": 1192,
      "▁отли": 1193,
      "▁плохо": 1194,
      "▁сту": 1195,
      "▁уч": 1196,
      "▁вме": 1197,
      "стве": 1198,
      "▁кварти": 1199,
      "▁приходит": 1200,
      "▁тех": 1201,
      "▁После": 1202,
      "ность": 1203,
      "стит": 1204,
      "▁тра": 1205,
      "ший": 1206,
      "рок": 1207,
      "▁стоит": 1208,
      "▁Кто": 1209,
      "▁мама": 1210,
      "жд": 1211,
      "▁послед": 1212,
      "говари": 1213,
      "▁5": 1214,
      "▁денег": 1215,
      "ье": 1216,
      "▁зво": 1217,
      "▁други": 1218,
      "▁года": 1219,
      "дает": 1220,
      "уч": 1221,
      "втра": 1222,
      "▁ис": 1223,
      "▁куда": 1224,
      "▁сов": 1225,
      "По": 1226,
      "дал": 1227,
      "бли": 1228,
      "▁моя": 1229,
      "▁реб": 1230,
      "ятся": 1231,
      "тро": 1232,
      "▁проблем": 1233,
      "▁Вчера": 1234,
      "▁говори": 1235,
      "▁были": 1236,
      "▁глаза": 1237,
      "рга": 1238,
      "▁этот": 1239,
      "▁поя": 1240,
      "дели": 1241,
      "▁Ска": 1242,
      "▁сам": 1243,
      "▁дура": 1244,
      "зе": 1245,
      "пол": 1246,
      "▁ал": 1247,
      "вил": 1248,
      "▁меся": 1249,
      "▁пы": 1250,
      "▁руб": 1251,
      "▁Женщи": 1252,
      "жать": 1253,
      "чала": 1254,
      "▁чув": 1255,
      "▁над": 1256,
      "▁сви": 1257,
      "▁маль": 1258,
      "▁между": 1259,
      "▁Потому": 1260,
      "▁лег": 1261,
      "▁Под": 1262,
      "▁комп": 1263,
      "▁сме": 1264,
      "▁такая": 1265,
      "льный": 1266,
      "▁глу": 1267,
      "нк": 1268,
      "▁Хоро": 1269,
      "от": 1270,
      "казы": 1271,
      "кую": 1272,
      "еты": 1273,
      "нг": 1274,
      "рко": 1275,
      "▁зам": 1276,
      "вез": 1277,
      "▁кар": 1278,
      "менно": 1279,
      "луж": 1280,
      "▁мужа": 1281,
      "▁всю": 1282,
      "нить": 1283,
      "▁Вовочка": 1284,
      "логи": 1285,
      "вого": 1286,
      "▁Чтобы": 1287,
      "гает": 1288,
      "▁ос": 1289,
      "енси": 1290,
      "▁Чем": 1291,
      "▁хва": 1292,
      "▁долго": 1293,
      "дца": 1294,
      "ев": 1295,
      "сса": 1296,
      "▁Об": 1297,
      "▁Ве": 1298,
      "дов": 1299,
      "она": 1300,
      "лов": 1301,
      "▁ти": 1302,
      "▁занима": 1303,
      "▁будут": 1304,
      "▁Укра": 1305,
      "▁Бе": 1306,
      "вайте": 1307,
      "▁Один": 1308,
      "▁Сегодня": 1309,
      "▁Бу": 1310,
      "жит": 1311,
      "тор": 1312,
      "▁ак": 1313,
      "рого": 1314,
      "чается": 1315,
      "▁Од": 1316,
      "друг": 1317,
      "▁посмот": 1318,
      "▁смо": 1319,
      "▁равно": 1320,
      "▁Ре": 1321,
      "этому": 1322,
      "щего": 1323,
      "▁испо": 1324,
      "▁эк": 1325,
      "▁ар": 1326,
      "▁попро": 1327,
      "▁бабу": 1328,
      "▁страш": 1329,
      "▁доста": 1330,
      "десь": 1331,
      "вом": 1332,
      "▁сва": 1333,
      "▁одно": 1334,
      "▁каждый": 1335,
      "ющий": 1336,
      "▁пря": 1337,
      "▁уме": 1338,
      "▁интере": 1339,
      "▁своего": 1340,
      "▁сторо": 1341,
      "щий": 1342,
      "ления": 1343,
      "▁россий": 1344,
      "▁би": 1345,
      "▁поли": 1346,
      "луйста": 1347,
      "ток": 1348,
      "куда": 1349,
      "ально": 1350,
      "▁ю": 1351,
      "▁похо": 1352,
      "дил": 1353,
      "зья": 1354,
      "чный": 1355,
      "сла": 1356,
      "фон": 1357,
      "▁Че": 1358,
      "▁Ско": 1359,
      "сили": 1360,
      "▁мужчины": 1361,
      "▁встре": 1362,
      "вала": 1363,
      "жешь": 1364,
      "льзя": 1365,
      "▁отно": 1366,
      "▁знаешь": 1367,
      "еть": 1368,
      "рел": 1369,
      "чил": 1370,
      "ян": 1371,
      "▁Су": 1372,
      "▁президен": 1373,
      "▁оде": 1374,
      "▁отве": 1375,
      "▁успе": 1376,
      "лондин": 1377,
      "ением": 1378,
      "дишь": 1379,
      "ешься": 1380,
      "▁Теперь": 1381,
      "ких": 1382,
      "мая": 1383,
      "▁всем": 1384,
      "▁двух": 1385,
      "шке": 1386,
      "▁недо": 1387,
      "етей": 1388,
      "▁мед": 1389,
      "вление": 1390,
      "льше": 1391,
      "▁име": 1392,
      "▁Дорогой": 1393,
      "луша": 1394,
      "▁здо": 1395,
      "▁прави": 1396,
      "▁посте": 1397,
      "▁Ал": 1398,
      "▁жене": 1399,
      "▁свой": 1400,
      "▁ника": 1401,
      "▁другой": 1402,
      "▁слова": 1403,
      "говор": 1404,
      "лее": 1405,
      "рта": 1406,
      "▁забы": 1407,
      "бро": 1408,
      "▁женщин": 1409,
      "чать": 1410,
      "▁буд": 1411,
      "▁уви": 1412,
      "▁никто": 1413,
      "▁сказать": 1414,
      "утбо": 1415,
      "стя": 1416,
      "чат": 1417,
      "▁жены": 1418,
      "▁милли": 1419,
      "▁друг": 1420,
      "▁тер": 1421,
      "▁туа": 1422,
      "▁такие": 1423,
      "▁Украи": 1424,
      "рпла": 1425,
      "ъе": 1426,
      "▁свя": 1427,
      "▁наш": 1428,
      "сят": 1429,
      "▁моей": 1430,
      "рети": 1431,
      "▁наз": 1432,
      "чется": 1433,
      "▁собира": 1434,
      "▁шо": 1435,
      "▁свет": 1436,
      "ним": 1437,
      "▁язы": 1438,
      "нт": 1439,
      "ые": 1440,
      "ших": 1441,
      "▁двер": 1442,
      "рии": 1443,
      "шен": 1444,
      "вания": 1445,
      "▁расска": 1446,
      "▁Ме": 1447,
      "▁нрав": 1448,
      "▁хот": 1449,
      "▁дере": 1450,
      "▁спро": 1451,
      "▁долж": 1452,
      "▁мол": 1453,
      "▁говорят": 1454,
      "▁оче": 1455,
      "▁хоть": 1456,
      "льные": 1457,
      "ское": 1458,
      "▁закон": 1459,
      "▁подума": 1460,
      "ема": 1461,
      "▁евре": 1462,
      "▁вста": 1463,
      "▁вся": 1464,
      "мина": 1465,
      "ению": 1466,
      "▁папа": 1467,
      "▁пенси": 1468,
      "▁мет": 1469,
      "▁ск": 1470,
      "▁мя": 1471,
      "воз": 1472,
      "▁пси": 1473,
      "▁бере": 1474,
      "▁буты": 1475,
      "нит": 1476,
      "лог": 1477,
      "бота": 1478,
      "щается": 1479,
      "лож": 1480,
      "чить": 1481,
      "рать": 1482,
      "▁вол": 1483,
      "▁укра": 1484,
      "тец": 1485,
      "▁должен": 1486,
      "▁совсем": 1487,
      "▁пить": 1488,
      "начала": 1489,
      "чке": 1490,
      "стно": 1491,
      "▁завтра": 1492,
      "▁выход": 1493,
      "▁Моск": 1494,
      "▁живо": 1495,
      "▁вопрос": 1496,
      "▁знает": 1497,
      "▁дети": 1498,
      "нка": 1499,
      "нова": 1500,
      "лого": 1501,
      "▁подру": 1502,
      "▁зарпла": 1503,
      "нять": 1504,
      "▁чита": 1505,
      "▁место": 1506,
      "▁Ста": 1507,
      "▁детей": 1508,
      "нд": 1509,
      "▁обы": 1510,
      "пута": 1511,
      "▁покупа": 1512,
      "рода": 1513,
      "ступ": 1514,
      "можно": 1515,
      "▁родите": 1516,
      "▁ваш": 1517,
      "▁пожалуйста": 1518,
      "▁ря": 1519,
      "дол": 1520,
      "▁тобой": 1521,
      "▁замуж": 1522,
      "ницу": 1523,
      "▁здесь": 1524,
      "▁тол": 1525,
      "▁весь": 1526,
      "▁следу": 1527,
      "вести": 1528,
      "▁футбо": 1529,
      "ый": 1530,
      "лая": 1531,
      "▁работы": 1532,
      "емо": 1533,
      "▁руки": 1534,
      "▁утра": 1535,
      "жды": 1536,
      "ьют": 1537,
      "▁жить": 1538,
      "шие": 1539,
      "▁женой": 1540,
      "бер": 1541,
      "их": 1542,
      "тре": 1543,
      "▁нако": 1544,
      "дар": 1545,
      "▁Сы": 1546,
      "цев": 1547,
      "▁глав": 1548,
      "▁пять": 1549,
      "▁нельзя": 1550,
      "▁хочешь": 1551,
      "▁ним": 1552,
      "▁Ой": 1553,
      "скую": 1554,
      "▁опять": 1555,
      "нки": 1556,
      "▁дня": 1557,
      "▁Мужик": 1558,
      "вут": 1559,
      "▁сделать": 1560,
      "▁случай": 1561,
      "рое": 1562,
      "▁уста": 1563,
      "▁мужу": 1564,
      "▁утром": 1565,
      "ети": 1566,
      "зер": 1567,
      "щей": 1568,
      "▁телеви": 1569,
      "▁Одна": 1570,
      "▁эта": 1571,
      "▁Конечно": 1572,
      "жал": 1573,
      "нный": 1574,
      "▁постоя": 1575,
      "▁какая": 1576,
      "шкой": 1577,
      "щая": 1578,
      "▁Они": 1579,
      "▁могут": 1580,
      "ити": 1581,
      "▁филь": 1582,
      "▁орга": 1583,
      "▁кот": 1584,
      "ссо": 1585,
      "▁жену": 1586,
      "▁конечно": 1587,
      "▁сосед": 1588,
      "йца": 1589,
      "лки": 1590,
      "вание": 1591,
      "▁побе": 1592,
      "▁тя": 1593,
      "чески": 1594,
      "▁будешь": 1595,
      "реди": 1596,
      "нулся": 1597,
      "▁Ива": 1598,
      "▁возра": 1599,
      "▁понял": 1600,
      "пера": 1601,
      "рую": 1602,
      "пал": 1603,
      "▁жела": 1604,
      "▁свадь": 1605,
      "▁Путин": 1606,
      "воль": 1607,
      "ницы": 1608,
      "тить": 1609,
      "▁вла": 1610,
      "▁жо": 1611,
      "ким": 1612,
      "▁спать": 1613,
      "мерикан": 1614,
      "▁написа": 1615,
      "▁прои": 1616,
      "▁люблю": 1617,
      "▁Ви": 1618,
      "рый": 1619,
      "вед": 1620,
      "▁меч": 1621,
      "чер": 1622,
      "▁зу": 1623,
      "▁вече": 1624,
      "▁пара": 1625,
      "▁20": 1626,
      "щен": 1627,
      "▁получ": 1628,
      "ений": 1629,
      "▁Вам": 1630,
      "шком": 1631,
      "чек": 1632,
      "яза": 1633,
      "▁новый": 1634,
      "▁тыся": 1635,
      "▁фото": 1636,
      "▁улице": 1637,
      "роде": 1638,
      "▁интер": 1639,
      "▁фа": 1640,
      "▁девушки": 1641,
      "▁готов": 1642,
      "▁спе": 1643,
      "▁зая": 1644,
      "▁Есть": 1645,
      "▁ды": 1646,
      "зывает": 1647,
      "▁одной": 1648,
      "вро": 1649,
      "▁Ц": 1650,
      "▁сред": 1651,
      "него": 1652,
      "моби": 1653,
      "▁одного": 1654,
      "▁позво": 1655,
      "кет": 1656,
      "▁Бы": 1657,
      "ряд": 1658,
      "▁Пре": 1659,
      "лета": 1660,
      "ровать": 1661,
      "▁мор": 1662,
      "▁Ле": 1663,
      "пор": 1664,
      "▁рублей": 1665,
      "пита": 1666,
      "▁идет": 1667,
      "▁Тогда": 1668,
      "уже": 1669,
      "сыпа": 1670,
      "▁пыта": 1671,
      "лаго": 1672,
      "вили": 1673,
      "▁первый": 1674,
      "вели": 1675,
      "сколько": 1676,
      "ждения": 1677,
      "▁кни": 1678,
      "зд": 1679,
      "енка": 1680,
      "▁уби": 1681,
      "▁хочется": 1682,
      "рил": 1683,
      "шения": 1684,
      "▁зад": 1685,
      "▁4": 1686,
      "рам": 1687,
      "▁прекра": 1688,
      "вший": 1689,
      "▁иг": 1690,
      "сут": 1691,
      "▁прос": 1692,
      "▁хочет": 1693,
      "кс": 1694,
      "▁Два": 1695,
      "▁своих": 1696,
      "▁стать": 1697,
      "торы": 1698,
      "▁расс": 1699,
      "▁Дорогая": 1700,
      "▁сла": 1701,
      "▁какие": 1702,
      "ссе": 1703,
      "коно": 1704,
      "еньше": 1705,
      "▁кур": 1706,
      "▁скоро": 1707,
      "▁дело": 1708,
      "цей": 1709,
      "▁гор": 1710,
      "шься": 1711,
      "▁10": 1712,
      "▁Хорошо": 1713,
      "▁офи": 1714,
      "шать": 1715,
      "▁неде": 1716,
      "▁сли": 1717,
      "▁раньше": 1718,
      "▁хотел": 1719,
      "▁иди": 1720,
      "ногда": 1721,
      "стли": 1722,
      "▁Пер": 1723,
      "▁против": 1724,
      "ваются": 1725,
      "▁кажется": 1726,
      "ента": 1727,
      "▁работе": 1728,
      "▁переста": 1729,
      "▁ха": 1730,
      "▁убе": 1731,
      "▁голову": 1732,
      "▁которая": 1733,
      "▁алкого": 1734,
      "▁Женщина": 1735,
      "▁ап": 1736,
      "жает": 1737,
      "▁объяс": 1738,
      "▁пят": 1739,
      "▁вре": 1740,
      "▁обяза": 1741,
      "тый": 1742,
      "▁бес": 1743,
      "▁Зачем": 1744,
      "мя": 1745,
      "лете": 1746,
      "▁мной": 1747,
      "▁потер": 1748,
      "еры": 1749,
      "▁купи": 1750,
      "▁Мой": 1751,
      "▁тор": 1752,
      "▁собой": 1753,
      "▁пора": 1754,
      "▁Вла": 1755,
      "стов": 1756,
      "вле": 1757,
      "▁выра": 1758,
      "▁паль": 1759,
      "блю": 1760,
      "шло": 1761,
      "▁телевизо": 1762,
      "▁бер": 1763,
      "▁умер": 1764,
      "▁Ду": 1765,
      "пыт": 1766,
      "▁автомоби": 1767,
      "шек": 1768,
      "▁ночью": 1769,
      "стью": 1770,
      "▁бога": 1771,
      "▁Может": 1772,
      "▁зара": 1773,
      "▁тр": 1774,
      "▁блондин": 1775,
      "шим": 1776,
      "▁водки": 1777,
      "▁шу": 1778,
      "▁наде": 1779,
      "спе": 1780,
      "ваешь": 1781,
      "нти": 1782,
      "▁вдруг": 1783,
      "ложи": 1784,
      "верное": 1785,
      "▁сынок": 1786,
      "▁цвет": 1787,
      "зм": 1788,
      "▁соз": 1789,
      "▁норма": 1790,
      "лые": 1791,
      "графи": 1792,
      "▁цен": 1793,
      "▁настоя": 1794,
      "▁мало": 1795,
      "▁подходит": 1796,
      "▁стал": 1797,
      "▁Скажите": 1798,
      "▁уди": 1799,
      "▁дей": 1800,
      "рей": 1801,
      "▁моз": 1802,
      "▁насто": 1803,
      "ок": 1804,
      "▁знаете": 1805,
      "▁роди": 1806,
      "▁большо": 1807,
      "дра": 1808,
      "▁Пред": 1809,
      "▁произ": 1810,
      "чилось": 1811,
      "зад": 1812,
      "▁самы": 1813,
      "▁смотрит": 1814,
      "▁Объя": 1815,
      "▁оши": 1816,
      "▁тро": 1817,
      "чаются": 1818,
      "▁постоянно": 1819,
      "▁поэтому": 1820,
      "▁ноги": 1821,
      "▁нау": 1822,
      "нике": 1823,
      "▁выгля": 1824,
      "ходят": 1825,
      "рот": 1826,
      "гами": 1827,
      "чная": 1828,
      "▁вос": 1829,
      "На": 1830,
      "нил": 1831,
      "▁отпу": 1832,
      "▁призна": 1833,
      "мент": 1834,
      "▁секса": 1835,
      "▁дверь": 1836,
      "▁твой": 1837,
      "▁разговари": 1838,
      "▁минут": 1839,
      "▁Говор": 1840,
      "▁живот": 1841,
      "мени": 1842,
      "▁Пере": 1843,
      "лять": 1844,
      "чество": 1845,
      "цион": 1846,
      "пись": 1847,
      "рос": 1848,
      "▁раза": 1849,
      "▁ге": 1850,
      "Муж": 1851,
      "▁нарко": 1852,
      "▁точно": 1853,
      "гать": 1854,
      "▁телефо": 1855,
      "▁све": 1856,
      "▁смы": 1857,
      "дам": 1858,
      "▁давай": 1859,
      "▁секс": 1860,
      "▁назад": 1861,
      "пло": 1862,
      "▁слыша": 1863,
      "▁меньше": 1864,
      "стер": 1865,
      "дох": 1866,
      "▁сказала": 1867,
      "▁стро": 1868,
      "▁пришел": 1869,
      "▁деся": 1870,
      "▁удо": 1871,
      "льной": 1872,
      "▁быстро": 1873,
      "▁Моло": 1874,
      "▁слово": 1875,
      "▁заня": 1876,
      "пом": 1877,
      "▁сол": 1878,
      "▁своим": 1879,
      "ША": 1880,
      "нали": 1881,
      "тери": 1882,
      "▁прин": 1883,
      "▁оказа": 1884,
      "▁член": 1885,
      "▁замет": 1886,
      "▁кли": 1887,
      "▁доктор": 1888,
      "льного": 1889,
      "лка": 1890,
      "▁поль": 1891,
      "▁уро": 1892,
      "таки": 1893,
      "нья": 1894,
      "ур": 1895,
      "нику": 1896,
      "дают": 1897,
      "▁долла": 1898,
      "▁закры": 1899,
      "▁США": 1900,
      "▁мои": 1901,
      "▁род": 1902,
      "кро": 1903,
      "▁жени": 1904,
      "▁лишь": 1905,
      "▁Мужчина": 1906,
      "нице": 1907,
      "▁Для": 1908,
      "▁способ": 1909,
      "▁машину": 1910,
      "▁второй": 1911,
      "▁Где": 1912,
      "▁часа": 1913,
      "▁видел": 1914,
      "нке": 1915,
      "▁коман": 1916,
      "ъез": 1917,
      "▁зап": 1918,
      "▁столько": 1919,
      "ности": 1920,
      "▁говорить": 1921,
      "ом": 1922,
      "▁най": 1923,
      "▁програм": 1924,
      "▁дев": 1925,
      "▁давно": 1926,
      "▁Луч": 1927,
      "бка": 1928,
      "рите": 1929,
      "▁вку": 1930,
      "▁вой": 1931,
      "▁сооб": 1932,
      "▁кух": 1933,
      "льта": 1934,
      "мена": 1935,
      "▁рыба": 1936,
      "▁оби": 1937,
      "сила": 1938,
      "▁купить": 1939,
      "тит": 1940,
      "▁Сколько": 1941,
      "▁комна": 1942,
      "▁бли": 1943,
      "▁Вас": 1944,
      "▁поч": 1945,
      "▁году": 1946,
      "▁совер": 1947,
      "▁одну": 1948,
      "етыре": 1949,
      "дцать": 1950,
      "▁Алло": 1951,
      "▁показа": 1952,
      "▁ад": 1953,
      "▁вечером": 1954,
      "▁смер": 1955,
      "ружи": 1956,
      "▁уж": 1957,
      "▁женщину": 1958,
      "тия": 1959,
      "мом": 1960,
      "кти": 1961,
      "▁ши": 1962,
      "етесь": 1963,
      "▁выбо": 1964,
      "сибо": 1965,
      "ставить": 1966,
      "пере": 1967,
      "▁Приходит": 1968,
      "ступа": 1969,
      "тру": 1970,
      "▁кры": 1971,
      "▁Сто": 1972,
      "▁мире": 1973,
      "▁гре": 1974,
      "▁бор": 1975,
      "▁сидит": 1976,
      "▁автобу": 1977,
      "▁сти": 1978,
      "кам": 1979,
      "вати": 1980,
      "▁ради": 1981,
      "▁решил": 1982,
      "▁нравится": 1983,
      "жки": 1984,
      "▁американ": 1985,
      "▁постели": 1986,
      "▁съе": 1987,
      "▁этой": 1988,
      "▁Влади": 1989,
      "▁купил": 1990,
      "жить": 1991,
      "▁лицо": 1992,
      "▁запа": 1993,
      "▁ги": 1994,
      "гие": 1995,
      "динствен": 1996,
      "▁Новый": 1997,
      "▁Россия": 1998,
      "▁туда": 1999,
      "ерт": 2000,
      "▁Ру": 2001,
      "▁друзья": 2002,
      "▁сын": 2003,
      "дется": 2004,
      "жение": 2005,
      "чной": 2006,
      "▁ци": 2007,
      "▁элек": 2008,
      "▁Ди": 2009,
      "▁хозя": 2010,
      "щее": 2011,
      "▁рядом": 2012,
      "▁радо": 2013,
      "▁согла": 2014,
      "▁работать": 2015,
      "▁мечта": 2016,
      "▁возвра": 2017,
      "▁телефон": 2018,
      "▁вместе": 2019,
      "▁правда": 2020,
      "кола": 2021,
      "▁нашей": 2022,
      "йся": 2023,
      "них": 2024,
      "нию": 2025,
      "▁самое": 2026,
      "цен": 2027,
      "▁Объявление": 2028,
      "▁воло": 2029,
      "лушай": 2030,
      "▁наконец": 2031,
      "драв": 2032,
      "▁мальчик": 2033,
      "ющих": 2034,
      "▁8": 2035,
      "▁счастли": 2036,
      "енок": 2037,
      "ствие": 2038,
      "▁студен": 2039,
      "смот": 2040,
      "рия": 2041,
      "▁твоя": 2042,
      "сать": 2043,
      "▁свое": 2044,
      "чные": 2045,
      "▁кому": 2046,
      "▁дом": 2047,
      "шение": 2048,
      "▁станов": 2049,
      "хать": 2050,
      "лить": 2051,
      "▁неко": 2052,
      "▁мар": 2053,
      "▁пиво": 2054,
      "бить": 2055,
      "дали": 2056,
      "▁можешь": 2057,
      "итай": 2058,
      "▁суще": 2059,
      "▁чай": 2060,
      "▁рождения": 2061,
      "▁друга": 2062,
      "ришь": 2063,
      "▁кос": 2064,
      "▁Моя": 2065,
      "▁слишком": 2066,
      "хожу": 2067,
      "рах": 2068,
      "▁крас": 2069,
      "нете": 2070,
      "нах": 2071,
      "▁сами": 2072,
      "▁Интере": 2073,
      "нав": 2074,
      "▁школе": 2075,
      "рень": 2076,
      "лок": 2077,
      "▁Каж": 2078,
      "▁любит": 2079,
      "▁магазин": 2080,
      "ске": 2081,
      "▁несколько": 2082,
      "▁Можно": 2083,
      "▁спрашивают": 2084,
      "▁месяц": 2085,
      "▁арми": 2086,
      "мпа": 2087,
      "стить": 2088,
      "▁возь": 2089,
      "▁100": 2090,
      "▁мужчин": 2091,
      "меня": 2092,
      "▁более": 2093,
      "▁Владими": 2094,
      "▁ог": 2095,
      "▁правитель": 2096,
      "▁слы": 2097,
      "нович": 2098,
      "▁Какой": 2099,
      "вался": 2100,
      "льная": 2101,
      "льное": 2102,
      "али": 2103,
      "▁вспо": 2104,
      "▁мат": 2105,
      "▁работает": 2106,
      "▁настолько": 2107,
      "▁сначала": 2108,
      "▁пого": 2109,
      "стей": 2110,
      "▁исто": 2111,
      "▁найти": 2112,
      "лой": 2113,
      "бот": 2114,
      "▁счасть": 2115,
      "▁ри": 2116,
      "▁высо": 2117,
      "нула": 2118,
      "шает": 2119,
      "▁пиш": 2120,
      "▁суп": 2121,
      "▁кофе": 2122,
      "▁Смот": 2123,
      "▁газ": 2124,
      "нен": 2125,
      "судар": 2126,
      "нку": 2127,
      "рик": 2128,
      "▁делает": 2129,
      "▁нео": 2130,
      "▁ресто": 2131,
      "рак": 2132,
      "▁оди": 2133,
      "▁народ": 2134,
      "ейчас": 2135,
      "рка": 2136,
      "▁требу": 2137,
      "стой": 2138,
      "▁понимаю": 2139,
      "▁заме": 2140,
      "гал": 2141,
      "▁Давай": 2142,
      "▁хвата": 2143,
      "кономи": 2144,
      "ат": 2145,
      "оне": 2146,
      "▁уго": 2147,
      "▁другу": 2148,
      "▁детстве": 2149,
      "▁дево": 2150,
      "ским": 2151,
      "▁мир": 2152,
      "▁ху": 2153,
      "▁думаю": 2154,
      "▁р": 2155,
      "▁четыре": 2156,
      "▁смотреть": 2157,
      "▁пь": 2158,
      "пой": 2159,
      "▁парень": 2160,
      "▁магазине": 2161,
      "▁отвечает": 2162,
      "роз": 2163,
      "▁нап": 2164,
      "▁выпу": 2165,
      "сок": 2166,
      "▁немного": 2167,
      "фа": 2168,
      "▁оно": 2169,
      "▁кем": 2170,
      "▁карто": 2171,
      "щение": 2172,
      "▁пя": 2173,
      "лав": 2174,
      "▁Чу": 2175,
      "▁холоди": 2176,
      "Не": 2177,
      "виру": 2178,
      "▁ужа": 2179,
      "▁девочка": 2180,
      "▁либо": 2181,
      "▁Га": 2182,
      "▁стране": 2183,
      "▁сделал": 2184,
      "ститу": 2185,
      "рли": 2186,
      "рут": 2187,
      "вила": 2188,
      "щик": 2189,
      "руп": 2190,
      "▁будем": 2191,
      "▁Меня": 2192,
      "▁сильно": 2193,
      "▁яйца": 2194,
      "йтесь": 2195,
      "▁времени": 2196,
      "или": 2197,
      "▁6": 2198,
      "▁собра": 2199,
      "бил": 2200,
      "ходить": 2201,
      "▁часто": 2202,
      "▁русский": 2203,
      "▁прямо": 2204,
      "▁сте": 2205,
      "▁кота": 2206,
      "пример": 2207,
      "ческий": 2208,
      "▁Маль": 2209,
      "▁вместо": 2210,
      "▁проблемы": 2211,
      "сло": 2212,
      "ьте": 2213,
      "▁л": 2214,
      "▁дво": 2215,
      "▁Ки": 2216,
      "▁туалет": 2217,
      "▁депута": 2218,
      "▁Очень": 2219,
      "▁мину": 2220,
      "что": 2221,
      "▁служ": 2222,
      "кар": 2223,
      "▁поста": 2224,
      "▁свобо": 2225,
      "▁хи": 2226,
      "бку": 2227,
      "▁обна": 2228,
      "▁мальчи": 2229,
      "▁доб": 2230,
      "няя": 2231,
      "лко": 2232,
      "▁Путина": 2233,
      "▁внима": 2234,
      "рович": 2235,
      "▁отец": 2236,
      "▁неу": 2237,
      "▁чинов": 2238,
      "того": 2239,
      "лик": 2240,
      "▁Сейчас": 2241,
      "▁Пока": 2242,
      "ленно": 2243,
      "собенно": 2244,
      "▁именно": 2245,
      "▁упа": 2246,
      "щие": 2247,
      "вить": 2248,
      "▁улы": 2249,
      "меть": 2250,
      "держа": 2251,
      "▁другому": 2252,
      "дая": 2253,
      "ерка": 2254,
      "▁которого": 2255,
      "▁празд": 2256,
      "▁сына": 2257,
      "бки": 2258,
      "вел": 2259,
      "▁бума": 2260,
      "▁которой": 2261,
      "зом": 2262,
      "ющие": 2263,
      "чился": 2264,
      "иту": 2265,
      "▁вок": 2266,
      "▁хотя": 2267,
      "▁Какая": 2268,
      "мое": 2269,
      "вар": 2270,
      "давно": 2271,
      "дель": 2272,
      "▁Стра": 2273,
      "▁виде": 2274,
      "зульта": 2275,
      "▁думаешь": 2276,
      "ником": 2277,
      "▁Слушай": 2278,
      "тел": 2279,
      "▁гости": 2280,
      "▁соб": 2281,
      "чили": 2282,
      "▁возможно": 2283,
      "ляет": 2284,
      "▁паци": 2285,
      "▁Воз": 2286,
      "▁опера": 2287,
      "▁эту": 2288,
      "▁придума": 2289,
      "ствует": 2290,
      "▁собака": 2291,
      "▁Говорят": 2292,
      "бло": 2293,
      "прави": 2294,
      "рят": 2295,
      "читель": 2296,
      "▁вст": 2297,
      "▁опа": 2298,
      "▁увер": 2299,
      "▁вещи": 2300,
      "▁мужика": 2301,
      "щем": 2302,
      "▁чуж": 2303,
      "▁отды": 2304,
      "▁появи": 2305,
      "чкой": 2306,
      "нам": 2307,
      "док": 2308,
      "▁презер": 2309,
      "▁Ла": 2310,
      "▁хле": 2311,
      "▁девушку": 2312,
      "▁ску": 2313,
      "точно": 2314,
      "ета": 2315,
      "рее": 2316,
      "нят": 2317,
      "▁разве": 2318,
      "эр": 2319,
      "тирли": 2320,
      "щения": 2321,
      "▁Абра": 2322,
      "▁откуда": 2323,
      "▁Просто": 2324,
      "▁обеща": 2325,
      "▁кричит": 2326,
      "▁вну": 2327,
      "▁жалу": 2328,
      "▁неделю": 2329,
      "▁Интересно": 2330,
      "дете": 2331,
      "▁карма": 2332,
      "чал": 2333,
      "▁самый": 2334,
      "▁кино": 2335,
      "▁ребенка": 2336,
      "▁сни": 2337,
      "рал": 2338,
      "стру": 2339,
      "рий": 2340,
      "▁Ничего": 2341,
      "▁тяже": 2342,
      "лага": 2343,
      "▁бывает": 2344,
      "▁наши": 2345,
      "▁месте": 2346,
      "▁позна": 2347,
      "▁стали": 2348,
      "▁час": 2349,
      "▁Штирли": 2350,
      "▁напо": 2351,
      "▁зи": 2352,
      "▁ез": 2353,
      "▁голу": 2354,
      "▁Еще": 2355,
      "▁Спа": 2356,
      "цией": 2357,
      "лых": 2358,
      "▁наверное": 2359,
      "▁зако": 2360,
      "ехал": 2361,
      "казывается": 2362,
      "▁самом": 2363,
      "▁здоров": 2364,
      "▁голове": 2365,
      "▁рекла": 2366,
      "▁каждо": 2367,
      "шую": 2368,
      "ор": 2369,
      "▁выпи": 2370,
      "▁компа": 2371,
      "▁вклю": 2372,
      "▁зави": 2373,
      "дили": 2374,
      "сни": 2375,
      "▁деле": 2376,
      "циан": 2377,
      "нные": 2378,
      "▁снима": 2379,
      "лья": 2380,
      "▁видит": 2381,
      "▁Жиз": 2382,
      "клады": 2383,
      "гре": 2384,
      "рачи": 2385,
      "▁иде": 2386,
      "лий": 2387,
      "▁благо": 2388,
      "▁экономи": 2389,
      "▁мою": 2390,
      "▁нужен": 2391,
      "▁дерев": 2392,
      "дравству": 2393,
      "За": 2394,
      "▁уг": 2395,
      "нин": 2396,
      "еру": 2397,
      "▁гри": 2398,
      "▁трех": 2399,
      "рож": 2400,
      "▁чет": 2401,
      "▁совет": 2402,
      "▁сама": 2403,
      "▁Зво": 2404,
      "скать": 2405,
      "▁должна": 2406,
      "▁государ": 2407,
      "дание": 2408,
      "▁единствен": 2409,
      "▁гражда": 2410,
      "▁легко": 2411,
      "дро": 2412,
      "жения": 2413,
      "▁9": 2414,
      "▁профе": 2415,
      "▁принима": 2416,
      "стите": 2417,
      "дим": 2418,
      "жин": 2419,
      "ходя": 2420,
      "▁мини": 2421,
      "▁стоя": 2422,
      "▁другие": 2423,
      "▁случайно": 2424,
      "рач": 2425,
      "нял": 2426,
      "▁результа": 2427,
      "▁стре": 2428,
      "▁сне": 2429,
      "▁зем": 2430,
      "льных": 2431,
      "▁раст": 2432,
      "вест": 2433,
      "▁ваша": 2434,
      "▁девушкой": 2435,
      "▁голова": 2436,
      "▁начинает": 2437,
      "нта": 2438,
      "▁еврей": 2439,
      "игра": 2440,
      "кому": 2441,
      "▁Сер": 2442,
      "лят": 2443,
      "▁вами": 2444,
      "▁хотите": 2445,
      "вит": 2446,
      "▁Пи": 2447,
      "▁рот": 2448,
      "▁которых": 2449,
      "ченые": 2450,
      "▁взял": 2451,
      "коло": 2452,
      "▁руку": 2453,
      "▁Фи": 2454,
      "▁потеря": 2455,
      "рами": 2456,
      "▁состоя": 2457,
      "стом": 2458,
      "▁беспо": 2459,
      "▁полити": 2460,
      "▁водку": 2461,
      "▁нему": 2462,
      "▁уча": 2463,
      "▁доме": 2464,
      "▁Интер": 2465,
      "▁обычно": 2466,
      "дка": 2467,
      "кт": 2468,
      "▁каби": 2469,
      "▁девушке": 2470,
      "ститут": 2471,
      "▁повы": 2472,
      "гов": 2473,
      "▁Изви": 2474,
      "▁семь": 2475,
      "▁здоро": 2476,
      "▁Лучше": 2477,
      "▁сда": 2478,
      "▁пово": 2479,
      "▁привы": 2480,
      "ях": 2481,
      "▁непо": 2482,
      "нами": 2483,
      "▁Прав": 2484,
      "▁моего": 2485,
      "▁места": 2486,
      "▁называется": 2487,
      "▁нес": 2488,
      "▁неза": 2489,
      "лье": 2490,
      "▁разре": 2491,
      "▁Надо": 2492,
      "▁кило": 2493,
      "▁полови": 2494,
      "▁смог": 2495,
      "▁будто": 2496,
      "▁мно": 2497,
      "итесь": 2498,
      "▁Жизнь": 2499,
      "нда": 2500,
      "▁ночи": 2501,
      "нной": 2502,
      "▁вижу": 2503,
      "емся": 2504,
      "▁Встре": 2505,
      "▁сига": 2506,
      "▁Раби": 2507,
      "вляется": 2508,
      "▁Сынок": 2509,
      "▁обязательно": 2510,
      "ственно": 2511,
      "дям": 2512,
      "труд": 2513,
      "▁нена": 2514,
      "▁вне": 2515,
      "рев": 2516,
      "▁любо": 2517,
      "▁вечер": 2518,
      "▁говорю": 2519,
      "ум": 2520,
      "нал": 2521,
      "▁Ага": 2522,
      "▁других": 2523,
      "▁никак": 2524,
      "▁беспла": 2525,
      "ьез": 2526,
      "▁внут": 2527,
      "кор": 2528,
      "▁изоб": 2529,
      "▁понять": 2530,
      "▁родители": 2531,
      "шно": 2532,
      "▁обще": 2533,
      "▁лоша": 2534,
      "▁7": 2535,
      "▁ходить": 2536,
      "тки": 2537,
      "ливо": 2538,
      "рует": 2539,
      "тая": 2540,
      "▁правильно": 2541,
      "▁тысяч": 2542,
      "шить": 2543,
      "▁нашел": 2544,
      "▁тан": 2545,
      "гада": 2546,
      "▁лиф": 2547,
      "▁шта": 2548,
      "▁чувство": 2549,
      "▁забо": 2550,
      "хов": 2551,
      "▁секрет": 2552,
      "▁любят": 2553,
      "▁главное": 2554,
      "▁продол": 2555,
      "▁Евро": 2556,
      "▁украин": 2557,
      "рки": 2558,
      "спа": 2559,
      "▁нач": 2560,
      "▁зе": 2561,
      "ал": 2562,
      "гом": 2563,
      "▁провер": 2564,
      "▁кури": 2565,
      "▁должно": 2566,
      "▁квартиру": 2567,
      "▁зерка": 2568,
      "▁запи": 2569,
      "▁Мед": 2570,
      "вете": 2571,
      "▁пон": 2572,
      "▁бю": 2573,
      "замен": 2574,
      "сков": 2575,
      "▁15": 2576,
      "Во": 2577,
      "▁дви": 2578,
      "дила": 2579,
      "чают": 2580,
      "▁вели": 2581,
      "зин": 2582,
      "▁стол": 2583,
      "зей": 2584,
      "сю": 2585,
      "▁тому": 2586,
      "▁прово": 2587,
      "▁Привет": 2588,
      "▁думал": 2589,
      "▁музы": 2590,
      "ствия": 2591,
      "▁должны": 2592,
      "готов": 2593,
      "казать": 2594,
      "▁интернет": 2595,
      "▁хватает": 2596,
      "▁Штирлиц": 2597,
      "дев": 2598,
      "ляр": 2599,
      "▁прият": 2600,
      "▁пригла": 2601,
      "сор": 2602,
      "▁Кон": 2603,
      "▁сих": 2604,
      "▁случилось": 2605,
      "▁утро": 2606,
      "▁золо": 2607,
      "ьютер": 2608,
      "опа": 2609,
      "нием": 2610,
      "▁вашей": 2611,
      "▁бук": 2612,
      "▁Даже": 2613,
      "▁попу": 2614,
      "▁китай": 2615,
      "мах": 2616,
      "▁Кра": 2617,
      "няет": 2618,
      "ретий": 2619,
      "щих": 2620,
      "мента": 2621,
      "▁Раньше": 2622,
      "нови": 2623,
      "навиру": 2624,
      "теля": 2625,
      "вец": 2626,
      "▁пива": 2627,
      "▁серд": 2628,
      "▁проду": 2629,
      "чей": 2630,
      "раздо": 2631,
      "▁медве": 2632,
      "▁поез": 2633,
      "▁ох": 2634,
      "▁опре": 2635,
      "лови": 2636,
      "тики": 2637,
      "▁звонит": 2638,
      "▁большой": 2639,
      "лют": 2640,
      "▁пле": 2641,
      "▁счет": 2642,
      "▁своему": 2643,
      "жида": 2644,
      "зов": 2645,
      "▁хотят": 2646,
      "▁пры": 2647,
      "ету": 2648,
      "иты": 2649,
      "реза": 2650,
      "▁выбра": 2651,
      "▁знако": 2652,
      "ствительно": 2653,
      "вшись": 2654,
      "▁фор": 2655,
      "▁грудь": 2656,
      "сный": 2657,
      "▁выбира": 2658,
      "▁воды": 2659,
      "▁баба": 2660,
      "▁хуже": 2661,
      "▁этим": 2662,
      "▁Амери": 2663,
      "шее": 2664,
      "▁куп": 2665,
      "жде": 2666,
      "льника": 2667,
      "▁ваши": 2668,
      "▁вес": 2669,
      "▁стало": 2670,
      "▁Хочу": 2671,
      "дравствуйте": 2672,
      "ила": 2673,
      "▁двое": 2674,
      "тые": 2675,
      "▁часов": 2676,
      "стрее": 2677,
      "▁помощ": 2678,
      "▁любовь": 2679,
      "▁исполь": 2680,
      "тен": 2681,
      "▁свер": 2682,
      "▁пох": 2683,
      "лия": 2684,
      "▁зай": 2685,
      "▁горя": 2686,
      "вка": 2687,
      "чных": 2688,
      "▁охо": 2689,
      "▁тю": 2690,
      "▁мать": 2691,
      "▁пару": 2692,
      "▁женщиной": 2693,
      "▁зовут": 2694,
      "▁будете": 2695,
      "▁специ": 2696,
      "чок": 2697,
      "мато": 2698,
      "▁момент": 2699,
      "▁Му": 2700,
      "▁бар": 2701,
      "▁Глав": 2702,
      "▁делают": 2703,
      "▁врач": 2704,
      "▁отношения": 2705,
      "ителя": 2706,
      "▁показы": 2707,
      "▁отличается": 2708,
      "▁десять": 2709,
      "▁снова": 2710,
      "▁ого": 2711,
      "нек": 2712,
      "▁Две": 2713,
      "▁гря": 2714,
      "▁гром": 2715,
      "▁женщине": 2716,
      "▁думает": 2717,
      "▁твои": 2718,
      "▁спокой": 2719,
      "зма": 2720,
      "нди": 2721,
      "тора": 2722,
      "раб": 2723,
      "баты": 2724,
      "▁семье": 2725,
      "лер": 2726,
      "нная": 2727,
      "▁пля": 2728,
      "▁День": 2729,
      "тера": 2730,
      "▁сбор": 2731,
      "мист": 2732,
      "▁Трам": 2733,
      "▁Учитель": 2734,
      "▁подъез": 2735,
      "▁бед": 2736,
      "▁скажи": 2737,
      "До": 2738,
      "▁воен": 2739,
      "▁матери": 2740,
      "▁обратно": 2741,
      "▁мужики": 2742,
      "▁чувству": 2743,
      "▁долларов": 2744,
      "нение": 2745,
      "▁пошел": 2746,
      "▁Бабу": 2747,
      "ссажи": 2748,
      "чения": 2749,
      "▁посо": 2750,
      "нуться": 2751,
      "шин": 2752,
      "▁сро": 2753,
      "▁дра": 2754,
      "▁новую": 2755,
      "▁стар": 2756,
      "▁мимо": 2757,
      "▁Москве": 2758,
      "▁нали": 2759,
      "▁фра": 2760,
      "варищ": 2761,
      "▁Челове": 2762,
      "▁сигарет": 2763,
      "▁гото": 2764,
      "▁дальше": 2765,
      "▁дорогая": 2766,
      "▁пойма": 2767,
      "иш": 2768,
      "чного": 2769,
      "▁заходит": 2770,
      "▁гораздо": 2771,
      "▁глаз": 2772,
      "жку": 2773,
      "доб": 2774,
      "▁весе": 2775,
      "шенно": 2776,
      "▁безо": 2777,
      "▁делаешь": 2778,
      "▁любви": 2779,
      "▁взять": 2780,
      "▁пове": 2781,
      "▁какое": 2782,
      "ремя": 2783,
      "▁психо": 2784,
      "▁удив": 2785,
      "▁Каждый": 2786,
      "нита": 2787,
      "оло": 2788,
      "лим": 2789,
      "▁неве": 2790,
      "▁такого": 2791,
      "▁пример": 2792,
      "▁Знаете": 2793,
      "▁рестора": 2794,
      "▁порт": 2795,
      "стран": 2796,
      "▁превра": 2797,
      "▁вид": 2798,
      "▁Тебе": 2799,
      "▁стороны": 2800,
      "▁апте": 2801,
      "тами": 2802,
      "▁воду": 2803,
      "времен": 2804,
      "▁Ю": 2805,
      "▁зада": 2806,
      "▁Мам": 2807,
      "▁коронавиру": 2808,
      "▁учитель": 2809,
      "▁связи": 2810,
      "▁рассказы": 2811,
      "нения": 2812,
      "▁пое": 2813,
      "▁непри": 2814,
      "ческой": 2815,
      "▁конф": 2816,
      "▁беремен": 2817,
      "▁зарплату": 2818,
      "▁органи": 2819,
      "навли": 2820,
      "▁огром": 2821,
      "гры": 2822,
      "чение": 2823,
      "еме": 2824,
      "нешь": 2825,
      "дец": 2826,
      "▁проти": 2827,
      "▁представля": 2828,
      "▁начал": 2829,
      "▁фотографи": 2830,
      "дки": 2831,
      "▁захо": 2832,
      "мар": 2833,
      "▁разде": 2834,
      "▁посу": 2835,
      "▁Пап": 2836,
      "▁Сидо": 2837,
      "▁говорил": 2838,
      "▁фильм": 2839,
      "▁Мальчик": 2840,
      "рат": 2841,
      "важа": 2842,
      "▁такси": 2843,
      "хая": 2844,
      "страи": 2845,
      "▁играть": 2846,
      "ены": 2847,
      "▁поса": 2848,
      "▁ото": 2849,
      "▁настро": 2850,
      "▁доба": 2851,
      "рые": 2852,
      "ством": 2853,
      "▁Какие": 2854,
      "▁твоей": 2855,
      "▁пьяный": 2856,
      "▁компьютер": 2857,
      "▁метро": 2858,
      "▁становится": 2859,
      "йн": 2860,
      "▁нер": 2861,
      "▁зато": 2862,
      "▁мили": 2863,
      "▁чуть": 2864,
      "▁почти": 2865,
      "кли": 2866,
      "▁биз": 2867,
      "ваем": 2868,
      "▁зву": 2869,
      "нишь": 2870,
      "▁слуша": 2871,
      "▁дире": 2872,
      "▁Медве": 2873,
      "Но": 2874,
      "▁пти": 2875,
      "▁дя": 2876,
      "дици": 2877,
      "▁останов": 2878,
      "▁Идет": 2879,
      "▁лежит": 2880,
      "▁получается": 2881,
      "шлось": 2882,
      "▁иск": 2883,
      "▁иногда": 2884,
      "▁вып": 2885,
      "▁знать": 2886,
      "зова": 2887,
      "держи": 2888,
      "▁любишь": 2889,
      "▁презервати": 2890,
      "▁нашего": 2891,
      "душка": 2892,
      "езжа": 2893,
      "дку": 2894,
      "шему": 2895,
      "▁опо": 2896,
      "▁уто": 2897,
      "нили": 2898,
      "▁дочь": 2899,
      "▁приня": 2900,
      "▁дает": 2901,
      "▁обла": 2902,
      "фор": 2903,
      "▁случае": 2904,
      "▁пропа": 2905,
      "тил": 2906,
      "▁вов": 2907,
      "▁Иногда": 2908,
      "▁первого": 2909,
      "▁семей": 2910,
      "▁груп": 2911,
      "▁Милый": 2912,
      "▁колба": 2913,
      "▁проблема": 2914,
      "▁некоторы": 2915,
      "нется": 2916,
      "хе": 2917,
      "шите": 2918,
      "▁осо": 2919,
      "стри": 2920,
      "▁клу": 2921,
      "▁придется": 2922,
      "нули": 2923,
      "чие": 2924,
      "▁Люди": 2925,
      "▁школу": 2926,
      "▁Встречаются": 2927,
      "Он": 2928,
      "ям": 2929,
      "▁рай": 2930,
      "кур": 2931,
      "▁отда": 2932,
      "ческие": 2933,
      "казал": 2934,
      "▁человеку": 2935,
      "ранти": 2936,
      "ностью": 2937,
      "▁ребенок": 2938,
      "▁подумал": 2939,
      "▁удоволь": 2940,
      "▁коли": 2941,
      "мов": 2942,
      "▁Настоя": 2943,
      "▁предлож": 2944,
      "▁Там": 2945,
      "▁кредит": 2946,
      "▁самые": 2947,
      "цем": 2948,
      "▁устро": 2949,
      "▁зас": 2950,
      "▁Сем": 2951,
      "енька": 2952,
      "▁пусть": 2953,
      "нюю": 2954,
      "▁молодо": 2955,
      "▁удалось": 2956,
      "▁экзамен": 2957,
      "▁город": 2958,
      "▁фе": 2959,
      "▁Здравствуйте": 2960,
      "▁сказали": 2961,
      "мета": 2962,
      "▁Люся": 2963,
      "▁квартире": 2964,
      "ики": 2965,
      "▁впере": 2966,
      "▁поро": 2967,
      "нан": 2968,
      "▁запре": 2969,
      "▁каче": 2970,
      "▁сотруд": 2971,
      "циона": 2972,
      "▁пам": 2973,
      "▁можете": 2974,
      "▁Малень": 2975,
      "▁50": 2976,
      "циант": 2977,
      "пти": 2978,
      "▁ищ": 2979,
      "▁уни": 2980,
      "▁море": 2981,
      "▁быстрее": 2982,
      "▁дай": 2983,
      "▁страны": 2984,
      "▁предложи": 2985,
      "нте": 2986,
      "▁бом": 2987,
      "▁мужчину": 2988,
      "▁брать": 2989,
      "▁поздно": 2990,
      "▁кроме": 2991,
      "▁узнать": 2992,
      "▁психи": 2993,
      "▁кухне": 2994,
      "Ма": 2995,
      "бок": 2996,
      "дова": 2997,
      "▁гля": 2998,
      "▁любой": 2999,
      "▁Вася": 3000,
      "▁Извините": 3001,
      "pа": 3002,
      "кло": 3003,
      "сная": 3004,
      "рати": 3005,
      "мат": 3006,
      "▁вез": 3007,
      "▁стала": 3008,
      "▁руга": 3009,
      "щую": 3010,
      "▁30": 3011,
      "▁прино": 3012,
      "▁знал": 3013,
      "▁права": 3014,
      "▁нормально": 3015,
      "▁действительно": 3016,
      "▁Рабинович": 3017,
      "выми": 3018,
      "▁людям": 3019,
      "▁Ли": 3020,
      "▁смотрю": 3021,
      "▁сексом": 3022,
      "цов": 3023,
      "▁вокруг": 3024,
      "чную": 3025,
      "щему": 3026,
      "▁лу": 3027,
      "▁клю": 3028,
      "▁гро": 3029,
      "▁живет": 3030,
      "▁друзей": 3031,
      "▁дорогой": 3032,
      "▁понимаешь": 3033,
      "фу": 3034,
      "▁сю": 3035,
      "▁заку": 3036,
      "▁дать": 3037,
      "▁которую": 3038,
      "▁самого": 3039,
      "▁трудно": 3040,
      "▁машины": 3041,
      "▁президент": 3042,
      "▁проис": 3043,
      "▁иметь": 3044,
      "▁аб": 3045,
      "▁прош": 3046,
      "хал": 3047,
      "▁язык": 3048,
      "▁вспом": 3049,
      "▁ино": 3050,
      "рию": 3051,
      "▁право": 3052,
      "гляды": 3053,
      "▁таким": 3054,
      "▁бабушка": 3055,
      "йдет": 3056,
      "▁Пе": 3057,
      "шил": 3058,
      "▁новые": 3059,
      "▁руках": 3060,
      "щает": 3061,
      "▁телевизор": 3062,
      "ых": 3063,
      "▁ума": 3064,
      "▁какую": 3065,
      "▁Никогда": 3066,
      "▁молодой": 3067,
      "▁серьез": 3068,
      "▁свадьбы": 3069,
      "▁ца": 3070,
      "▁третий": 3071,
      "лец": 3072,
      "▁май": 3073,
      "▁болез": 3074,
      "▁Ча": 3075,
      "▁мира": 3076,
      "▁лесу": 3077,
      "▁марш": 3078,
      "обо": 3079,
      "▁небо": 3080,
      "нулась": 3081,
      "▁поднима": 3082,
      "▁шту": 3083,
      "▁конце": 3084,
      "▁дорогу": 3085,
      "▁четвер": 3086,
      "жете": 3087,
      "▁просыпа": 3088,
      "ляю": 3089,
      "▁маме": 3090,
      "бин": 3091,
      "били": 3092,
      "▁шка": 3093,
      "▁Ха": 3094,
      "▁слома": 3095,
      "▁парня": 3096,
      "▁испол": 3097,
      "▁например": 3098,
      "▁необ": 3099,
      "скому": 3100,
      "▁продав": 3101,
      "▁Украине": 3102,
      "▁ненави": 3103,
      "сен": 3104,
      "кать": 3105,
      "▁повер": 3106,
      "▁выходит": 3107,
      "пать": 3108,
      "▁курить": 3109,
      "ктора": 3110,
      "▁судь": 3111,
      "▁лета": 3112,
      "ступи": 3113,
      "▁голос": 3114,
      "▁сексу": 3115,
      "▁совершенно": 3116,
      "▁электри": 3117,
      "▁Спасибо": 3118,
      "Да": 3119,
      "▁водите": 3120,
      "▁принес": 3121,
      "чила": 3122,
      "▁боя": 3123,
      "▁знаком": 3124,
      "пусти": 3125,
      "▁сказ": 3126,
      "▁Петрович": 3127,
      "▁маленький": 3128,
      "▁имеет": 3129,
      "▁лы": 3130,
      "▁горо": 3131,
      "▁знают": 3132,
      "▁возду": 3133,
      "▁другого": 3134,
      "▁дней": 3135,
      "ному": 3136,
      "стный": 3137,
      "▁иску": 3138,
      "▁блин": 3139,
      "▁Через": 3140,
      "▁самая": 3141,
      "▁команди": 3142,
      "▁треть": 3143,
      "ваете": 3144,
      "▁зака": 3145,
      "рус": 3146,
      "нев": 3147,
      "там": 3148,
      "думы": 3149,
      "ители": 3150,
      "▁болит": 3151,
      "лым": 3152,
      "▁машина": 3153,
      "итуа": 3154,
      "▁поме": 3155,
      "▁теща": 3156,
      "▁переда": 3157,
      "▁могли": 3158,
      "▁холод": 3159,
      "гово": 3160,
      "▁отсут": 3161,
      "▁Оде": 3162,
      "▁Поэтому": 3163,
      "▁разво": 3164,
      "▁Чего": 3165,
      "▁сист": 3166,
      "▁лежа": 3167,
      "▁созда": 3168,
      "некдо": 3169,
      "▁гряз": 3170,
      "дти": 3171,
      "мся": 3172,
      "лег": 3173,
      "▁анг": 3174,
      "▁хр": 3175,
      "▁красивая": 3176,
      "▁Скажи": 3177,
      "▁Женщины": 3178,
      "▁Иванов": 3179,
      "▁жалуется": 3180,
      "руют": 3181,
      "▁моби": 3182,
      "▁воск": 3183,
      "▁Иван": 3184,
      "сах": 3185,
      "▁супер": 3186,
      "▁приходится": 3187,
      "▁пенсион": 3188,
      "гру": 3189,
      "зво": 3190,
      "лии": 3191,
      "льным": 3192,
      "▁коло": 3193,
      "тие": 3194,
      "тик": 3195,
      "▁ними": 3196,
      "▁лес": 3197,
      "канчи": 3198,
      "▁корм": 3199,
      "шит": 3200,
      "▁ощу": 3201,
      "▁звез": 3202,
      "нато": 3203,
      "▁Врач": 3204,
      "хом": 3205,
      "гах": 3206,
      "▁ног": 3207,
      "сон": 3208,
      "▁Бог": 3209,
      "ходил": 3210,
      "▁Разговор": 3211,
      "мец": 3212,
      "▁мужем": 3213,
      "ссия": 3214,
      "▁чаще": 3215,
      "▁трусы": 3216,
      "▁врачу": 3217,
      "▁армии": 3218,
      "▁супру": 3219,
      "кает": 3220,
      "▁огра": 3221,
      "▁наших": 3222,
      "тах": 3223,
      "▁ябло": 3224,
      "гают": 3225,
      "рым": 3226,
      "▁преду": 3227,
      "▁живут": 3228,
      "▁Мар": 3229,
      "вшие": 3230,
      "▁подарок": 3231,
      "▁власти": 3232,
      "▁наше": 3233,
      "ременно": 3234,
      "▁дож": 3235,
      "▁мое": 3236,
      "дую": 3237,
      "▁Над": 3238,
      "▁называют": 3239,
      "▁Значит": 3240,
      "▁решили": 3241,
      "▁телефону": 3242,
      "▁счастье": 3243,
      "▁одино": 3244,
      "▁понрави": 3245,
      "тка": 3246,
      "треб": 3247,
      "Если": 3248,
      "Ко": 3249,
      "коми": 3250,
      "хода": 3251,
      "▁Сначала": 3252,
      "▁рез": 3253,
      "▁одном": 3254,
      "▁лето": 3255,
      "▁нового": 3256,
      "▁Знаешь": 3257,
      "▁собствен": 3258,
      "рели": 3259,
      "▁анекдо": 3260,
      "▁ката": 3261,
      "▁выс": 3262,
      "чины": 3263,
      "зади": 3264,
      "▁бара": 3265,
      "▁Россию": 3266,
      "▁плать": 3267,
      "▁президента": 3268,
      "▁вкус": 3269,
      "вшего": 3270,
      "▁ситуа": 3271,
      "редь": 3272,
      "▁увели": 3273,
      "▁зло": 3274,
      "▁конья": 3275,
      "▁Вдруг": 3276,
      "▁Слы": 3277,
      "▁просит": 3278,
      "под": 3279,
      "▁Зем": 3280,
      "▁медици": 3281,
      "▁слышал": 3282,
      "▁насе": 3283,
      "▁брю": 3284,
      "▁Вер": 3285,
      "так": 3286,
      "ган": 3287,
      "стая": 3288,
      "▁пассажи": 3289,
      "▁бан": 3290,
      "▁однов": 3291,
      "▁Ша": 3292,
      "▁Куда": 3293,
      "▁помню": 3294,
      "▁увидел": 3295,
      "▁Молодой": 3296,
      "Жена": 3297,
      "От": 3298,
      "дение": 3299,
      "рке": 3300,
      "▁постро": 3301,
      "▁длин": 3302,
      "лина": 3303,
      "льту": 3304,
      "матри": 3305,
      "▁Ти": 3306,
      "▁Ново": 3307,
      "▁Россий": 3308,
      "▁фами": 3309,
      "▁Интернет": 3310,
      "сл": 3311,
      "▁повто": 3312,
      "▁поху": 3313,
      "▁анти": 3314,
      "вей": 3315,
      "▁посла": 3316,
      "щаться": 3317,
      "пыта": 3318,
      "вших": 3319,
      "▁сэр": 3320,
      "▁идти": 3321,
      "▁недели": 3322,
      "чали": 3323,
      "▁Изя": 3324,
      "▁борь": 3325,
      "▁собаку": 3326,
      "▁взрос": 3327,
      "▁новости": 3328,
      "▁компью": 3329,
      "▁достаточно": 3330,
      "▁миллио": 3331,
      "нер": 3332,
      "чко": 3333,
      "рес": 3334,
      "▁успо": 3335,
      "▁деше": 3336,
      "бегает": 3337,
      "▁разо": 3338,
      "▁пах": 3339,
      "▁руками": 3340,
      "▁Кар": 3341,
      "▁Васили": 3342,
      "▁Парень": 3343,
      "▁услыша": 3344,
      "▁взгля": 3345,
      "▁написано": 3346,
      "▁дворе": 3347,
      "▁мер": 3348,
      "мира": 3349,
      "▁сове": 3350,
      "▁одни": 3351,
      "чув": 3352,
      "▁забыл": 3353,
      "▁нашли": 3354,
      "▁жениться": 3355,
      "▁разу": 3356,
      "▁Его": 3357,
      "▁жив": 3358,
      "▁логи": 3359,
      "▁своими": 3360,
      "▁солда": 3361,
      "жка": 3362,
      "▁недавно": 3363,
      "мати": 3364,
      "тим": 3365,
      "бом": 3366,
      "▁таб": 3367,
      "▁пришла": 3368,
      "чий": 3369,
      "▁разница": 3370,
      "▁режи": 3371,
      "тых": 3372,
      "▁человеком": 3373,
      "▁обезья": 3374,
      "▁космо": 3375,
      "▁сердце": 3376,
      "▁одновременно": 3377,
      "кре": 3378,
      "▁плю": 3379,
      "▁среди": 3380,
      "рочка": 3381,
      "▁запо": 3382,
      "сколь": 3383,
      "цеп": 3384,
      "▁русские": 3385,
      "▁узнал": 3386,
      "▁окно": 3387,
      "▁Звонок": 3388,
      "лке": 3389,
      "▁города": 3390,
      "▁старо": 3391,
      "▁лично": 3392,
      "▁хороший": 3393,
      "▁нужна": 3394,
      "▁Фе": 3395,
      "▁этих": 3396,
      "▁подоз": 3397,
      "пки": 3398,
      "ителей": 3399,
      "▁писа": 3400,
      "▁хорошая": 3401,
      "▁физи": 3402,
      "▁глупо": 3403,
      "▁посмотреть": 3404,
      "▁бутылку": 3405,
      "▁пользу": 3406,
      "тный": 3407,
      "▁H": 3408,
      "▁ль": 3409,
      "▁невоз": 3410,
      "▁выпол": 3411,
      "солют": 3412,
      "▁сади": 3413,
      "леты": 3414,
      "▁мыс": 3415,
      "▁часы": 3416,
      "▁предпо": 3417,
      "▁россиян": 3418,
      "▁похоро": 3419,
      "▁принци": 3420,
      "лимпи": 3421,
      "шко": 3422,
      "ясь": 3423,
      "▁ще": 3424,
      "▁поце": 3425,
      "▁неф": 3426,
      "рили": 3427,
      "▁новая": 3428,
      "тым": 3429,
      "менить": 3430,
      "▁произо": 3431,
      "▁Человек": 3432,
      "кру": 3433,
      "▁такую": 3434,
      "дуют": 3435,
      "▁изменя": 3436,
      "▁давайте": 3437,
      "▁фак": 3438,
      "▁обращается": 3439,
      "▁недоста": 3440,
      "▁вет": 3441,
      "рака": 3442,
      "▁находит": 3443,
      "чаю": 3444,
      "ляют": 3445,
      "чилась": 3446,
      "▁Три": 3447,
      "▁санк": 3448,
      "цами": 3449,
      "▁которое": 3450,
      "▁пись": 3451,
      "обра": 3452,
      "▁нужны": 3453,
      "рный": 3454,
      "рита": 3455,
      "▁изви": 3456,
      "▁лиш": 3457,
      "мые": 3458,
      "▁хра": 3459,
      "▁красо": 3460,
      "▁фигу": 3461,
      "жено": 3462,
      "▁врача": 3463,
      "ехали": 3464,
      "▁поко": 3465,
      "льную": 3466,
      "▁воро": 3467,
      "люб": 3468,
      "▁станет": 3469,
      "▁домаш": 3470,
      "▁автобусе": 3471,
      "▁встрет": 3472,
      "▁Правда": 3473,
      "пку": 3474,
      "▁запла": 3475,
      "чая": 3476,
      "печат": 3477,
      "▁дива": 3478,
      "▁машине": 3479,
      "▁интерес": 3480,
      "ссор": 3481,
      "▁Абрам": 3482,
      "гите": 3483,
      "кси": 3484,
      "▁ученые": 3485,
      "нист": 3486,
      "▁выя": 3487,
      "шед": 3488,
      "▁Тут": 3489,
      "лую": 3490,
      "▁Офи": 3491,
      "▁Потом": 3492,
      "▁сидят": 3493,
      "▁Ло": 3494,
      "▁страна": 3495,
      "▁Дед": 3496,
      "▁пель": 3497,
      "▁двери": 3498,
      "▁класс": 3499,
      "▁очеред": 3500,
      "▁подруги": 3501,
      "▁волосы": 3502,
      "▁Владимир": 3503,
      "щит": 3504,
      "▁поне": 3505,
      "▁идут": 3506,
      "▁жур": 3507,
      "▁Пой": 3508,
      "▁своем": 3509,
      "ссии": 3510,
      "▁баб": 3511,
      "▁Гу": 3512,
      "ченька": 3513,
      "▁твою": 3514,
      "▁хотела": 3515,
      "▁попробу": 3516,
      "▁пяти": 3517,
      "гло": 3518,
      "крет": 3519,
      "▁пью": 3520,
      "▁вроде": 3521,
      "▁полез": 3522,
      "▁унита": 3523,
      "▁моро": 3524,
      "▁Отец": 3525,
      "▁разме": 3526,
      "▁12": 3527,
      "▁начала": 3528,
      "▁следую": 3529,
      "▁смерти": 3530,
      "оборот": 3531,
      "пра": 3532,
      "тон": 3533,
      "стю": 3534,
      "лова": 3535,
      "▁обс": 3536,
      "▁Самое": 3537,
      "▁получил": 3538,
      "▁корруп": 3539,
      "▁следующий": 3540,
      "▁воспита": 3541,
      "▁женился": 3542,
      "Ну": 3543,
      "▁особенно": 3544,
      "▁тран": 3545,
      "▁какого": 3546,
      "▁Дети": 3547,
      "ций": 3548,
      "▁девушек": 3549,
      "▁первой": 3550,
      "▁осталось": 3551,
      "▁Ше": 3552,
      "▁утвер": 3553,
      "▁другом": 3554,
      "▁мясо": 3555,
      "▁блондинка": 3556,
      "▁Представля": 3557,
      "▁килограм": 3558,
      "Как": 3559,
      "нных": 3560,
      "чным": 3561,
      "▁нару": 3562,
      "▁уров": 3563,
      "▁крова": 3564,
      "ехать": 3565,
      "▁рассказывает": 3566,
      "▁волну": 3567,
      "бит": 3568,
      "вшая": 3569,
      "сня": 3570,
      "▁бен": 3571,
      "▁зат": 3572,
      "▁кам": 3573,
      "гар": 3574,
      "▁номер": 3575,
      "шают": 3576,
      "▁сум": 3577,
      "▁Гос": 3578,
      "▁зоопа": 3579,
      "▁напи": 3580,
      "▁стара": 3581,
      "▁шут": 3582,
      "▁креп": 3583,
      "▁берет": 3584,
      "дви": 3585,
      "▁посе": 3586,
      "▁упал": 3587,
      "лога": 3588,
      "▁заканчи": 3589,
      "▁выйти": 3590,
      "▁нос": 3591,
      "ческая": 3592,
      "▁секу": 3593,
      "читы": 3594,
      "▁интересно": 3595,
      "▁жопу": 3596,
      "▁игру": 3597,
      "вку": 3598,
      "▁отказа": 3599,
      "▁ходит": 3600,
      "▁реально": 3601,
      "▁пережи": 3602,
      "▁дороги": 3603,
      "▁спорт": 3604,
      "▁зубы": 3605,
      "▁бизнес": 3606,
      "дный": 3607,
      "жо": 3608,
      "чительно": 3609,
      "▁сты": 3610,
      "▁Сема": 3611,
      "ходите": 3612,
      "менты": 3613,
      "лена": 3614,
      "прос": 3615,
      "▁представ": 3616,
      "▁дурак": 3617,
      "▁миллиар": 3618,
      "▁Украины": 3619,
      "▁очередь": 3620,
      "▁Дума": 3621,
      "жный": 3622,
      "ина": 3623,
      "рг": 3624,
      "▁сма": 3625,
      "▁пожи": 3626,
      "▁окон": 3627,
      "▁бл": 3628,
      "▁Сере": 3629,
      "▁добро": 3630,
      "мор": 3631,
      "▁Оста": 3632,
      "ранцу": 3633,
      "енера": 3634,
      "▁смотри": 3635,
      "логии": 3636,
      "▁правительство": 3637,
      "▁Бабушка": 3638,
      "тите": 3639,
      "нила": 3640,
      "рила": 3641,
      "▁заве": 3642,
      "▁сад": 3643,
      "▁ремо": 3644,
      "▁Ната": 3645,
      "▁русского": 3646,
      "▁Сын": 3647,
      "▁пьет": 3648,
      "▁Сту": 3649,
      "▁пришли": 3650,
      "летки": 3651,
      "▁слов": 3652,
      "▁думать": 3653,
      "альный": 3654,
      "▁заниматься": 3655,
      "pо": 3656,
      "▁опыт": 3657,
      "▁тет": 3658,
      "▁рано": 3659,
      "▁дости": 3660,
      "▁парти": 3661,
      "тура": 3662,
      "скор": 3663,
      "▁видно": 3664,
      "▁Хочешь": 3665,
      "▁диа": 3666,
      "говаривают": 3667,
      "▁возраст": 3668,
      "▁купила": 3669,
      "▁тюрь": 3670,
      "▁безопа": 3671,
      "Про": 3672,
      "лкой": 3673,
      "пли": 3674,
      "сет": 3675,
      "ьет": 3676,
      "▁Пло": 3677,
      "▁ай": 3678,
      "ческого": 3679,
      "▁видишь": 3680,
      "▁практи": 3681,
      "▁Ведь": 3682,
      "емокра": 3683,
      "жем": 3684,
      "▁вышел": 3685,
      "▁выигра": 3686,
      "▁вашего": 3687,
      "▁изна": 3688,
      "▁лица": 3689,
      "▁Лени": 3690,
      "▁Жи": 3691,
      "▁стри": 3692,
      "▁туалете": 3693,
      "▁идио": 3694,
      "▁улыба": 3695,
      "дко": 3696,
      "жь": 3697,
      "▁коше": 3698,
      "▁выз": 3699,
      "▁Ан": 3700,
      "чай": 3701,
      "▁больно": 3702,
      "▁Уже": 3703,
      "▁Простите": 3704,
      "▁Сидят": 3705,
      "▁поменя": 3706,
      "▁хозяй": 3707,
      "▁каждого": 3708,
      "▁сбе": 3709,
      "▁пои": 3710,
      "строй": 3711,
      "▁наша": 3712,
      "▁евро": 3713,
      "тать": 3714,
      "▁проце": 3715,
      "вестно": 3716,
      "▁отца": 3717,
      "▁пришлось": 3718,
      "▁современ": 3719,
      "▁никого": 3720,
      "▁лекар": 3721,
      "ровь": 3722,
      "форма": 3723,
      "▁окна": 3724,
      "влека": 3725,
      "▁абсолют": 3726,
      "▁маршрут": 3727,
      "При": 3728,
      "гент": 3729,
      "нное": 3730,
      "▁окру": 3731,
      "▁тихо": 3732,
      "▁Однажды": 3733,
      "▁нег": 3734,
      "лад": 3735,
      "▁уво": 3736,
      "леко": 3737,
      "▁дово": 3738,
      "тика": 3739,
      "▁паспо": 3740,
      "▁руко": 3741,
      "▁Рас": 3742,
      "▁головой": 3743,
      "▁останавли": 3744,
      "▁дороге": 3745,
      "▁корот": 3746,
      "▁страшно": 3747,
      "▁прекрас": 3748,
      "▁запрет": 3749,
      "▁матема": 3750,
      "▁Главное": 3751,
      "пей": 3752,
      "▁поле": 3753,
      "лил": 3754,
      "дава": 3755,
      "рых": 3756,
      "▁видели": 3757,
      "класс": 3758,
      "▁спокойно": 3759,
      "тю": 3760,
      "▁оказывается": 3761,
      "▁заво": 3762,
      "▁зага": 3763,
      "чились": 3764,
      "▁носки": 3765,
      "жают": 3766,
      "▁Блин": 3767,
      "▁первым": 3768,
      "▁целый": 3769,
      "▁начинают": 3770,
      "▁хватит": 3771,
      "▁необходи": 3772,
      "лго": 3773,
      "ффе": 3774,
      "лично": 3775,
      "▁упо": 3776,
      "▁коль": 3777,
      "▁вышла": 3778,
      "▁смотрят": 3779,
      "▁Сара": 3780,
      "▁ладно": 3781,
      "▁Петров": 3782,
      "▁желание": 3783,
      "▁напомина": 3784,
      "▁продук": 3785,
      "Она": 3786,
      "вки": 3787,
      "нце": 3788,
      "фри": 3789,
      "▁наблю": 3790,
      "▁наоборот": 3791,
      "▁нечего": 3792,
      "вов": 3793,
      "бовал": 3794,
      "▁Пом": 3795,
      "▁писать": 3796,
      "▁возму": 3797,
      "▁Самый": 3798,
      "▁Откуда": 3799,
      "▁последний": 3800,
      "▁встреча": 3801,
      "ужели": 3802,
      "▁электро": 3803,
      "▁противо": 3804,
      "▁отправ": 3805,
      "пон": 3806,
      "▁Посмот": 3807,
      "▁срочно": 3808,
      "виа": 3809,
      "▁рези": 3810,
      "▁пойду": 3811,
      "▁получить": 3812,
      "▁отдыха": 3813,
      "▁платье": 3814,
      "▁ны": 3815,
      "▁конец": 3816,
      "▁Свет": 3817,
      "▁проститут": 3818,
      "▁тай": 3819,
      "гай": 3820,
      "жей": 3821,
      "▁старый": 3822,
      "▁котором": 3823,
      "зор": 3824,
      "▁конца": 3825,
      "▁легче": 3826,
      "▁очереди": 3827,
      "▁объяснить": 3828,
      "▁мозг": 3829,
      "бри": 3830,
      "гно": 3831,
      "мите": 3832,
      "▁каком": 3833,
      "▁приду": 3834,
      "ческих": 3835,
      "▁Ту": 3836,
      "▁винова": 3837,
      "▁часть": 3838,
      "▁думают": 3839,
      "▁скажите": 3840,
      "▁мужчине": 3841,
      "▁труд": 3842,
      "▁типа": 3843,
      "▁Судя": 3844,
      "▁параш": 3845,
      "Де": 3846,
      "Ка": 3847,
      "ек": 3848,
      "▁еду": 3849,
      "димо": 3850,
      "тели": 3851,
      "▁прия": 3852,
      "▁новых": 3853,
      "▁дед": 3854,
      "▁Дайте": 3855,
      "▁преступ": 3856,
      "▁вино": 3857,
      "▁Маша": 3858,
      "▁гаиш": 3859,
      "ющим": 3860,
      "▁русских": 3861,
      "▁нашем": 3862,
      "▁блондинки": 3863,
      "Па": 3864,
      "пять": 3865,
      "нако": 3866,
      "рина": 3867,
      "дания": 3868,
      "кими": 3869,
      "▁коз": 3870,
      "▁ногу": 3871,
      "мую": 3872,
      "▁сись": 3873,
      "брать": 3874,
      "▁имя": 3875,
      "▁шесть": 3876,
      "▁колле": 3877,
      "▁покупать": 3878,
      "мпати": 3879,
      "▁громко": 3880,
      "▁искус": 3881,
      "лением": 3882,
      "хва": 3883,
      "▁сзади": 3884,
      "▁двой": 3885,
      "рим": 3886,
      "▁боюсь": 3887,
      "▁большин": 3888,
      "▁водка": 3889,
      "▁Подходит": 3890,
      "▁родился": 3891,
      "▁смысле": 3892,
      "▁радио": 3893,
      "рно": 3894,
      "лам": 3895,
      "▁кле": 3896,
      "▁той": 3897,
      "▁Сп": 3898,
      "▁пакет": 3899,
      "▁Мои": 3900,
      "▁зуб": 3901,
      "▁зарабаты": 3902,
      "мит": 3903,
      "ъем": 3904,
      "▁свете": 3905,
      "▁пору": 3906,
      "даю": 3907,
      "хой": 3908,
      "▁сала": 3909,
      "жил": 3910,
      "дым": 3911,
      "▁спра": 3912,
      "пуска": 3913,
      "никам": 3914,
      "▁семья": 3915,
      "вляет": 3916,
      "▁интересу": 3917,
      "▁замеча": 3918,
      "лле": 3919,
      "▁костю": 3920,
      "▁ест": 3921,
      "▁прове": 3922,
      "▁прошло": 3923,
      "▁лез": 3924,
      "ленный": 3925,
      "▁тури": 3926,
      "▁считает": 3927,
      "зел": 3928,
      "▁нав": 3929,
      "ницей": 3930,
      "▁ас": 3931,
      "▁кана": 3932,
      "▁вон": 3933,
      "▁восем": 3934,
      "▁причи": 3935,
      "▁спу": 3936,
      "▁18": 3937,
      "▁цер": 3938,
      "▁образо": 3939,
      "▁считать": 3940,
      "▁порно": 3941,
      "▁заявил": 3942,
      "▁обнаружи": 3943,
      "▁кабинет": 3944,
      "кча": 3945,
      "нного": 3946,
      "▁рю": 3947,
      "▁пож": 3948,
      "▁карти": 3949,
      "▁раду": 3950,
      "дера": 3951,
      "сило": 3952,
      "зать": 3953,
      "▁пала": 3954,
      "▁стен": 3955,
      "деми": 3956,
      "▁брат": 3957,
      "▁таких": 3958,
      "▁трам": 3959,
      "пет": 3960,
      "▁мене": 3961,
      "▁поря": 3962,
      "наче": 3963,
      "лесо": 3964,
      "▁Мак": 3965,
      "▁городе": 3966,
      "лях": 3967,
      "чим": 3968,
      "▁мест": 3969,
      "щать": 3970,
      "▁которым": 3971,
      "▁школы": 3972,
      "▁Сидоров": 3973,
      "кова": 3974,
      "▁поп": 3975,
      "лое": 3976,
      "▁каким": 3977,
      "▁соци": 3978,
      "▁мамы": 3979,
      "бята": 3980,
      "лено": 3981,
      "▁чемпи": 3982,
      "ительный": 3983,
      "▁мусор": 3984,
      "▁чисто": 3985,
      "▁последнее": 3986,
      "▁российских": 3987,
      "▁книгу": 3988,
      "▁Рус": 3989,
      "▁двор": 3990,
      "года": 3991,
      "▁бак": 3992,
      "▁зр": 3993,
      "▁заго": 3994,
      "▁дают": 3995,
      "▁вело": 3996,
      "читал": 3997,
      "водить": 3998,
      "▁хотели": 3999,
      "▁надпись": 4000,
      "▁молча": 4001,
      "▁родителей": 4002,
      "▁отпуск": 4003,
      "▁холодиль": 4004,
      "Вы": 4005,
      "дения": 4006,
      "▁поо": 4007,
      "▁пото": 4008,
      "▁сох": 4009,
      "▁паро": 4010,
      "▁подска": 4011,
      "ступил": 4012,
      "▁остальные": 4013,
      "▁собаки": 4014,
      "▁россия": 4015,
      "ехала": 4016,
      "▁шокола": 4017,
      "Те": 4018,
      "сер": 4019,
      "▁поми": 4020,
      "▁наро": 4021,
      "вало": 4022,
      "дается": 4023,
      "▁тон": 4024,
      "чика": 4025,
      "зал": 4026,
      "▁бух": 4027,
      "ственный": 4028,
      "▁броса": 4029,
      "▁умеет": 4030,
      "▁постель": 4031,
      "▁тормо": 4032,
      "▁цветы": 4033,
      "атр": 4034,
      "▁лошадь": 4035,
      "▁ресторане": 4036,
      "▁исклю": 4037,
      "ую": 4038,
      "▁ски": 4039,
      "▁поряд": 4040,
      "▁ори": 4041,
      "▁оружи": 4042,
      "▁управ": 4043,
      "вок": 4044,
      "▁Пья": 4045,
      "лед": 4046,
      "▁доказа": 4047,
      "▁отдел": 4048,
      "▁приходи": 4049,
      "сипе": 4050,
      "люсь": 4051,
      "скими": 4052,
      "▁спит": 4053,
      "▁банк": 4054,
      "▁мысли": 4055,
      "▁Зато": 4056,
      "▁круп": 4057,
      "▁харак": 4058,
      "▁автомобиль": 4059,
      "важаем": 4060,
      "▁сюда": 4061,
      "▁невозможно": 4062,
      "конец": 4063,
      "▁озна": 4064,
      "▁бре": 4065,
      "низ": 4066,
      "▁кошка": 4067,
      "▁отде": 4068,
      "▁ходят": 4069,
      "▁Или": 4070,
      "▁разные": 4071,
      "сами": 4072,
      "▁Ум": 4073,
      "▁бал": 4074,
      "▁Лу": 4075,
      "▁суб": 4076,
      "▁край": 4077,
      "▁скорее": 4078,
      "▁плохи": 4079,
      "тяги": 4080,
      "▁Любов": 4081,
      "▁основ": 4082,
      "▁познакоми": 4083,
      "▁бесплатно": 4084,
      "▁англий": 4085,
      "гли": 4086,
      "день": 4087,
      "шем": 4088,
      "нос": 4089,
      "рела": 4090,
      "▁ушел": 4091,
      "дож": 4092,
      "▁годы": 4093,
      "стати": 4094,
      "щим": 4095,
      "▁рукой": 4096,
      "▁возле": 4097,
      "▁каждой": 4098,
      "▁соседи": 4099,
      "▁решила": 4100,
      "▁правило": 4101,
      "ступает": 4102,
      "▁другую": 4103,
      "Ты": 4104,
      "гна": 4105,
      "работа": 4106,
      "▁оскор": 4107,
      "риан": 4108,
      "▁выклю": 4109,
      "тей": 4110,
      "▁вода": 4111,
      "чики": 4112,
      "▁матер": 4113,
      "▁вашу": 4114,
      "▁Иди": 4115,
      "▁Тот": 4116,
      "▁думаете": 4117,
      "цом": 4118,
      "▁спросил": 4119,
      "▁Первый": 4120,
      "▁комнату": 4121,
      "дитель": 4122,
      "▁ля": 4123,
      "▁трав": 4124,
      "вобо": 4125,
      "▁является": 4126,
      "▁тарака": 4127,
      "гам": 4128,
      "▁гей": 4129,
      "▁Понима": 4130,
      "▁Ут": 4131,
      "стил": 4132,
      "▁роман": 4133,
      "▁летом": 4134,
      "▁хво": 4135,
      "▁слож": 4136,
      "▁помогает": 4137,
      "▁Люби": 4138,
      "▁новогод": 4139,
      "▁попал": 4140,
      "▁глазами": 4141,
      "▁полицей": 4142,
      "▁стира": 4143,
      "▁пишет": 4144,
      "▁мальчика": 4145,
      "▁опоз": 4146,
      "нным": 4147,
      "лан": 4148,
      "лью": 4149,
      "▁ана": 4150,
      "▁доче": 4151,
      "телей": 4152,
      "жали": 4153,
      "бай": 4154,
      "▁комму": 4155,
      "▁печень": 4156,
      "лондинка": 4157,
      "▁читать": 4158,
      "▁оказалось": 4159,
      "▁комнате": 4160,
      "▁предупре": 4161,
      "▁Официант": 4162,
      "▁W": 4163,
      "▁тря": 4164,
      "▁Прави": 4165,
      "нести": 4166,
      "▁маму": 4167,
      "▁РФ": 4168,
      "▁дали": 4169,
      "лыми": 4170,
      "▁плат": 4171,
      "▁начали": 4172,
      "▁маленькая": 4173,
      "шенко": 4174,
      "▁гине": 4175,
      "▁компании": 4176,
      "гей": 4177,
      "ксу": 4178,
      "▁поговор": 4179,
      "▁науч": 4180,
      "тан": 4181,
      "▁выда": 4182,
      "▁выпить": 4183,
      "▁сож": 4184,
      "нулись": 4185,
      "▁боле": 4186,
      "▁буди": 4187,
      "▁большая": 4188,
      "▁Заходит": 4189,
      "▁начальник": 4190,
      "▁шах": 4191,
      "▁опти": 4192,
      "▁словами": 4193,
      "▁света": 4194,
      "▁животных": 4195,
      "ева": 4196,
      "раи": 4197,
      "вались": 4198,
      "▁всей": 4199,
      "мей": 4200,
      "жай": 4201,
      "бав": 4202,
      "▁вечно": 4203,
      "▁микро": 4204,
      "▁одним": 4205,
      "▁надое": 4206,
      "▁платить": 4207,
      "▁трез": 4208,
      "▁Сидит": 4209,
      "▁получится": 4210,
      "▁заболе": 4211,
      "▁настроение": 4212,
      "▁находится": 4213,
      "▁кровати": 4214,
      "▁абсолютно": 4215,
      "джет": 4216,
      "рк": 4217,
      "▁днем": 4218,
      "▁ухо": 4219,
      "пин": 4220,
      "▁сало": 4221,
      "▁подруг": 4222,
      "▁купа": 4223,
      "дые": 4224,
      "▁стоят": 4225,
      "▁сыну": 4226,
      "▁строй": 4227,
      "▁200": 4228,
      "▁Девушки": 4229,
      "▁клад": 4230,
      "▁цены": 4231,
      "нтех": 4232,
      "▁командиров": 4233,
      "▁велосипе": 4234,
      "бря": 4235,
      "торой": 4236,
      "ровал": 4237,
      "▁иду": 4238,
      "▁нах": 4239,
      "валась": 4240,
      "▁кораб": 4241,
      "▁кафе": 4242,
      "▁капита": 4243,
      "мочка": 4244,
      "▁отклю": 4245,
      "▁придет": 4246,
      "чиво": 4247,
      "поте": 4248,
      "▁обма": 4249,
      "▁Без": 4250,
      "▁работаю": 4251,
      "▁месяца": 4252,
      "▁счастья": 4253,
      "▁Надпись": 4254,
      "▁пьют": 4255,
      "лосо": 4256,
      "▁довер": 4257,
      "▁моем": 4258,
      "тина": 4259,
      "телли": 4260,
      "▁Анд": 4261,
      "▁водо": 4262,
      "▁измени": 4263,
      "▁францу": 4264,
      "▁стакан": 4265,
      "▁работ": 4266,
      "▁Товарищ": 4267,
      "▁спасибо": 4268,
      "▁правду": 4269,
      "▁грам": 4270,
      "▁кризи": 4271,
      "▁мужиков": 4272,
      "▁появ": 4273,
      "▁сторону": 4274,
      "▁свобод": 4275,
      "лятся": 4276,
      "рку": 4277,
      "ровали": 4278,
      "▁круг": 4279,
      "десят": 4280,
      "лями": 4281,
      "▁нож": 4282,
      "бые": 4283,
      "▁фу": 4284,
      "▁симпати": 4285,
      "▁считают": 4286,
      "▁дерь": 4287,
      "▁ошиб": 4288,
      "▁друзьями": 4289,
      "▁возвращается": 4290,
      "▁Конститу": 4291,
      "вной": 4292,
      "кле": 4293,
      "нень": 4294,
      "кат": 4295,
      "дия": 4296,
      "▁доку": 4297,
      "▁проходит": 4298,
      "мини": 4299,
      "вето": 4300,
      "вица": 4301,
      "▁дал": 4302,
      "▁сидеть": 4303,
      "▁мужчиной": 4304,
      "делить": 4305,
      "▁начать": 4306,
      "альная": 4307,
      "▁кровать": 4308,
      "▁бросил": 4309,
      "стях": 4310,
      "▁40": 4311,
      "▁Смотри": 4312,
      "▁количество": 4313,
      "▁жрать": 4314,
      "▁выле": 4315,
      "▁привез": 4316,
      "▁справ": 4317,
      "▁Коля": 4318,
      "▁Эх": 4319,
      "▁расста": 4320,
      "годно": 4321,
      "дент": 4322,
      "▁финан": 4323,
      "▁Сосе": 4324,
      "▁Боль": 4325,
      "▁Разговаривают": 4326,
      "▁говорила": 4327,
      "дцати": 4328,
      "▁Президен": 4329,
      "▁смысл": 4330,
      "▁миллионов": 4331,
      "▁утвержда": 4332,
      "Все": 4333,
      "коном": 4334,
      "▁незна": 4335,
      "▁замо": 4336,
      "▁Ар": 4337,
      "▁Ах": 4338,
      "▁говно": 4339,
      "▁Тру": 4340,
      "▁сел": 4341,
      "жий": 4342,
      "▁бабы": 4343,
      "▁инстру": 4344,
      "▁конц": 4345,
      "▁шан": 4346,
      "▁двумя": 4347,
      "▁нравятся": 4348,
      "▁Перед": 4349,
      "▁одинако": 4350,
      "▁Василий": 4351,
      "ктив": 4352,
      "фаль": 4353,
      "▁повез": 4354,
      "▁оли": 4355,
      "▁ужин": 4356,
      "лочь": 4357,
      "▁вызы": 4358,
      "▁досто": 4359,
      "▁бывают": 4360,
      "▁ван": 4361,
      "гур": 4362,
      "▁долг": 4363,
      "▁начинается": 4364,
      "▁заработа": 4365,
      "Что": 4366,
      "вен": 4367,
      "чится": 4368,
      "тое": 4369,
      "кал": 4370,
      "▁напа": 4371,
      "водите": 4372,
      "▁Дру": 4373,
      "доро": 4374,
      "▁Опять": 4375,
      "▁Давайте": 4376,
      "утся": 4377,
      "▁живу": 4378,
      "▁столе": 4379,
      "▁Мороз": 4380,
      "▁плохая": 4381,
      "▁взят": 4382,
      "▁дерево": 4383,
      "▁времена": 4384,
      "▁уверен": 4385,
      "▁хлеб": 4386,
      "▁Учительница": 4387,
      "▁посуду": 4388,
      "зь": 4389,
      "лении": 4390,
      "▁ждет": 4391,
      "▁эффе": 4392,
      "лям": 4393,
      "▁новое": 4394,
      "сторо": 4395,
      "▁говорите": 4396,
      "▁Гер": 4397,
      "▁хит": 4398,
      "против": 4399,
      "▁первом": 4400,
      "▁Работа": 4401,
      "▁другим": 4402,
      "▁глубо": 4403,
      "▁одному": 4404,
      "▁пенсию": 4405,
      "Ра": 4406,
      "дю": 4407,
      "кции": 4408,
      "▁пошли": 4409,
      "▁наи": 4410,
      "▁чере": 4411,
      "▁заста": 4412,
      "мости": 4413,
      "вешь": 4414,
      "▁отцу": 4415,
      "▁теп": 4416,
      "▁ходил": 4417,
      "▁извест": 4418,
      "▁падает": 4419,
      "▁голосо": 4420,
      "▁звонок": 4421,
      "▁интернете": 4422,
      "▁граждан": 4423,
      "▁психиа": 4424,
      "кри": 4425,
      "▁пита": 4426,
      "▁налого": 4427,
      "▁уши": 4428,
      "▁выше": 4429,
      "ляется": 4430,
      "чества": 4431,
      "▁Особенно": 4432,
      "беща": 4433,
      "▁никому": 4434,
      "бами": 4435,
      "▁видеть": 4436,
      "▁Вово": 4437,
      "ваясь": 4438,
      "▁любить": 4439,
      "▁услу": 4440,
      "▁поняла": 4441,
      "▁черный": 4442,
      "▁ответил": 4443,
      "▁неожида": 4444,
      "▁дочери": 4445,
      "in": 4446,
      "ген": 4447,
      "ссу": 4448,
      "комен": 4449,
      "▁уче": 4450,
      "даря": 4451,
      "▁проще": 4452,
      "шили": 4453,
      "▁новой": 4454,
      "▁дала": 4455,
      "жала": 4456,
      "▁Чер": 4457,
      "▁пил": 4458,
      "▁любил": 4459,
      "▁улицу": 4460,
      "▁использо": 4461,
      "эро": 4462,
      "▁лит": 4463,
      "▁искать": 4464,
      "▁еди": 4465,
      "▁ешь": 4466,
      "▁сон": 4467,
      "щица": 4468,
      "жат": 4469,
      "▁реш": 4470,
      "тую": 4471,
      "▁спер": 4472,
      "▁Какое": 4473,
      "▁Вась": 4474,
      "▁хорошего": 4475,
      "▁Мужчины": 4476,
      "▁Совет": 4477,
      "стые": 4478,
      "▁понятно": 4479,
      "▁умный": 4480,
      "▁вопросы": 4481,
      "▁исче": 4482,
      "▁Москвы": 4483,
      "▁холодильник": 4484,
      "▁многие": 4485,
      "▁Представляешь": 4486,
      "ым": 4487,
      "▁мен": 4488,
      "дельник": 4489,
      "▁выта": 4490,
      "▁Наверное": 4491,
      "▁первую": 4492,
      "▁предлага": 4493,
      "▁Мужики": 4494,
      "▁смотришь": 4495,
      "езжает": 4496,
      "▁25": 4497,
      "▁ребен": 4498,
      "▁близ": 4499,
      "▁автобус": 4500,
      "▁праздник": 4501,
      "▁видео": 4502,
      "мс": 4503,
      "пка": 4504,
      "петь": 4505,
      "▁ушла": 4506,
      "надцать": 4507,
      "▁каза": 4508,
      "мого": 4509,
      "▁отдох": 4510,
      "▁прием": 4511,
      "▁состо": 4512,
      "почка": 4513,
      "▁Пожа": 4514,
      "цам": 4515,
      "▁жир": 4516,
      "▁сидя": 4517,
      "шок": 4518,
      "▁конкур": 4519,
      "▁самолет": 4520,
      "▁скажу": 4521,
      "тельный": 4522,
      "▁следует": 4523,
      "▁написал": 4524,
      "▁программи": 4525,
      "▁хиру": 4526,
      "▁Маленький": 4527,
      "ратино": 4528,
      "чник": 4529,
      "▁скры": 4530,
      "▁снять": 4531,
      "▁ор": 4532,
      "▁каранти": 4533,
      "▁общего": 4534,
      "▁минет": 4535,
      "ствовать": 4536,
      "краси": 4537,
      "▁умные": 4538,
      "▁открывает": 4539,
      "▁однажды": 4540,
      "▁пишут": 4541,
      "▁секретар": 4542,
      "▁сдох": 4543,
      "роят": 4544,
      "▁пошла": 4545,
      "▁демокра": 4546,
      "▁опла": 4547,
      "▁немец": 4548,
      "рио": 4549,
      "▁заклю": 4550,
      "▁запом": 4551,
      "▁ногами": 4552,
      "подава": 4553,
      "▁вечера": 4554,
      "ставь": 4555,
      "▁началь": 4556,
      "писал": 4557,
      "▁относ": 4558,
      "▁установ": 4559,
      "▁выглядит": 4560,
      "▁удоб": 4561,
      "ами": 4562,
      "▁сна": 4563,
      "▁ов": 4564,
      "льнее": 4565,
      "часа": 4566,
      "▁людь": 4567,
      "▁Нача": 4568,
      "▁Мало": 4569,
      "▁хорошее": 4570,
      "▁фир": 4571,
      "альной": 4572,
      "▁миллион": 4573,
      "▁футбол": 4574,
      "▁алкоголи": 4575,
      "▁смерть": 4576,
      "▁познаком": 4577,
      "▁вперед": 4578,
      "▁ищет": 4579,
      "▁дни": 4580,
      "▁орет": 4581,
      "ваюсь": 4582,
      "▁проте": 4583,
      "▁Двое": 4584,
      "▁матом": 4585,
      "жаю": 4586,
      "▁Наконец": 4587,
      "щаются": 4588,
      "▁большие": 4589,
      "▁19": 4590,
      "▁лучший": 4591,
      "▁Ничто": 4592,
      "клад": 4593,
      "▁намного": 4594,
      "▁попасть": 4595,
      "▁потерял": 4596,
      "▁внутрен": 4597,
      "▁пляже": 4598,
      "▁Деньги": 4599,
      "▁людьми": 4600,
      "жные": 4601,
      "жится": 4602,
      "▁впечат": 4603,
      "▁помы": 4604,
      "▁вый": 4605,
      "▁сом": 4606,
      "▁Ры": 4607,
      "▁стати": 4608,
      "▁обед": 4609,
      "▁жало": 4610,
      "▁называть": 4611,
      "▁зарплаты": 4612,
      "▁средство": 4613,
      "▁родствен": 4614,
      "▁пациен": 4615,
      "▁внутри": 4616,
      "▁чувствую": 4617,
      "▁кладби": 4618,
      "вный": 4619,
      "лла": 4620,
      "рому": 4621,
      "рек": 4622,
      "▁уходит": 4623,
      "рисо": 4624,
      "▁кара": 4625,
      "тии": 4626,
      "▁приста": 4627,
      "▁приготов": 4628,
      "▁тело": 4629,
      "▁гло": 4630,
      "▁саха": 4631,
      "▁честь": 4632,
      "▁перес": 4633,
      "▁делаете": 4634,
      "▁хотелось": 4635,
      "▁квартиры": 4636,
      "▁говорили": 4637,
      "▁готовить": 4638,
      "▁Стоит": 4639,
      "▁стыдно": 4640,
      "дж": 4641,
      "▁поставить": 4642,
      "▁навер": 4643,
      "▁национа": 4644,
      "▁блю": 4645,
      "▁уку": 4646,
      "водит": 4647,
      "дак": 4648,
      "хоже": 4649,
      "▁Сле": 4650,
      "▁Блондинка": 4651,
      "▁Коро": 4652,
      "▁мыть": 4653,
      "▁деньгами": 4654,
      "первые": 4655,
      "никами": 4656,
      "▁дорого": 4657,
      "▁Бога": 4658,
      "▁говоришь": 4659,
      "▁встрети": 4660,
      "твор": 4661,
      "ями": 4662,
      "▁ем": 4663,
      "▁ожи": 4664,
      "▁нами": 4665,
      "▁бри": 4666,
      "лава": 4667,
      "волю": 4668,
      "▁Соб": 4669,
      "▁дого": 4670,
      "ужден": 4671,
      "▁бол": 4672,
      "ньте": 4673,
      "чное": 4674,
      "стую": 4675,
      "▁двадцать": 4676,
      "▁помочь": 4677,
      "▁бутылки": 4678,
      "▁возраста": 4679,
      "▁производ": 4680,
      "▁заметил": 4681,
      "▁девочки": 4682,
      "▁зелен": 4683,
      "▁диване": 4684,
      "▁асфаль": 4685,
      "Это": 4686,
      "пит": 4687,
      "▁побо": 4688,
      "▁устраи": 4689,
      "льт": 4690,
      "рин": 4691,
      "▁ан": 4692,
      "чишь": 4693,
      "сим": 4694,
      "▁боро": 4695,
      "▁паца": 4696,
      "▁дам": 4697,
      "▁оба": 4698,
      "▁решение": 4699,
      "▁рука": 4700,
      "▁Эй": 4701,
      "▁контро": 4702,
      "▁краса": 4703,
      "▁смотрел": 4704,
      "▁всему": 4705,
      "▁работают": 4706,
      "▁сделала": 4707,
      "▁Пусть": 4708,
      "▁рыбу": 4709,
      "▁Купил": 4710,
      "ждение": 4711,
      "▁Буратино": 4712,
      "▁возрасте": 4713,
      "вят": 4714,
      "ьми": 4715,
      "▁твер": 4716,
      "▁наме": 4717,
      "▁экра": 4718,
      "седуют": 4719,
      "▁дочка": 4720,
      "мость": 4721,
      "▁раздра": 4722,
      "▁обу": 4723,
      "мено": 4724,
      "сности": 4725,
      "стый": 4726,
      "▁подруга": 4727,
      "▁зарплата": 4728,
      "▁идиот": 4729,
      "▁приятно": 4730,
      "▁похме": 4731,
      "Мо": 4732,
      "рте": 4733,
      "чено": 4734,
      "▁джин": 4735,
      "лах": 4736,
      "лоу": 4737,
      "▁жу": 4738,
      "таль": 4739,
      "▁моих": 4740,
      "▁деду": 4741,
      "▁хомя": 4742,
      "▁самой": 4743,
      "▁муд": 4744,
      "▁показывает": 4745,
      "ствием": 4746,
      "▁назвал": 4747,
      "ложить": 4748,
      "▁утрам": 4749,
      "▁жопа": 4750,
      "▁уроке": 4751,
      "▁вспомина": 4752,
      "▁участ": 4753,
      "▁сиськи": 4754,
      "ам": 4755,
      "ус": 4756,
      "тории": 4757,
      "▁могла": 4758,
      "▁Дж": 4759,
      "▁далеко": 4760,
      "▁объе": 4761,
      "▁Народ": 4762,
      "льном": 4763,
      "▁посы": 4764,
      "▁Гра": 4765,
      "▁стомато": 4766,
      "▁пид": 4767,
      "▁предла": 4768,
      "▁детям": 4769,
      "▁цент": 4770,
      "▁водитель": 4771,
      "лужи": 4772,
      "▁рыбалку": 4773,
      "▁выборы": 4774,
      "▁Трамп": 4775,
      "▁воскрес": 4776,
      "▁обсуж": 4777,
      "▁достоин": 4778,
      "▁поза": 4779,
      "▁около": 4780,
      "лома": 4781,
      "▁капу": 4782,
      "тили": 4783,
      "сток": 4784,
      "▁измен": 4785,
      "мым": 4786,
      "▁хло": 4787,
      "▁полчаса": 4788,
      "▁Профе": 4789,
      "▁Фран": 4790,
      "▁взяли": 4791,
      "▁красивые": 4792,
      "▁президентом": 4793,
      "мпан": 4794,
      "▁пахнет": 4795,
      "▁восемь": 4796,
      "жении": 4797,
      "хвати": 4798,
      "▁срав": 4799,
      "▁пок": 4800,
      "▁умира": 4801,
      "▁жар": 4802,
      "▁догада": 4803,
      "гали": 4804,
      "▁тепло": 4805,
      "пара": 4806,
      "▁Ох": 4807,
      "▁Бер": 4808,
      "▁честно": 4809,
      "менем": 4810,
      "▁стои": 4811,
      "пев": 4812,
      "▁Ваша": 4813,
      "▁полностью": 4814,
      "пые": 4815,
      "▁пес": 4816,
      "▁темно": 4817,
      "▁другое": 4818,
      "▁Украина": 4819,
      "▁читает": 4820,
      "▁бюджет": 4821,
      "чон": 4822,
      "лами": 4823,
      "▁защ": 4824,
      "▁каких": 4825,
      "▁ян": 4826,
      "купа": 4827,
      "▁примета": 4828,
      "сишь": 4829,
      "▁спаль": 4830,
      "▁пожар": 4831,
      "▁корпо": 4832,
      "▁любовью": 4833,
      "▁поликли": 4834,
      "▁увидеть": 4835,
      "▁футболи": 4836,
      "▁придумали": 4837,
      "▁зимой": 4838,
      "▁означает": 4839,
      "▁козел": 4840,
      "▁Алек": 4841,
      "ческое": 4842,
      "пот": 4843,
      "▁руке": 4844,
      "▁Вообще": 4845,
      "▁Ночь": 4846,
      "▁полно": 4847,
      "▁Израи": 4848,
      "▁билет": 4849,
      "▁футболу": 4850,
      "▁помощь": 4851,
      "▁фраза": 4852,
      "▁февра": 4853,
      "▁происходит": 4854,
      "▁иностран": 4855,
      "▁Утром": 4856,
      "жут": 4857,
      "плю": 4858,
      "▁потра": 4859,
      "рец": 4860,
      "вол": 4861,
      "нина": 4862,
      "▁заб": 4863,
      "▁Сча": 4864,
      "вича": 4865,
      "▁сожал": 4866,
      "▁этому": 4867,
      "▁Пос": 4868,
      "▁ванной": 4869,
      "гих": 4870,
      "▁рецеп": 4871,
      "туда": 4872,
      "▁чест": 4873,
      "леть": 4874,
      "▁видела": 4875,
      "▁Мать": 4876,
      "▁Никола": 4877,
      "▁Миха": 4878,
      "вляются": 4879,
      "▁кроко": 4880,
      "▁медленно": 4881,
      "▁спросить": 4882,
      "▁настоящий": 4883,
      "▁растет": 4884,
      "▁специально": 4885,
      "▁сборной": 4886,
      "▁затем": 4887,
      "пно": 4888,
      "▁поправ": 4889,
      "решь": 4890,
      "▁зим": 4891,
      "▁заду": 4892,
      "дии": 4893,
      "▁прис": 4894,
      "▁важ": 4895,
      "▁боится": 4896,
      "▁виски": 4897,
      "▁Недавно": 4898,
      "▁миро": 4899,
      "▁Девочка": 4900,
      "▁отнош": 4901,
      "▁одея": 4902,
      "▁скри": 4903,
      "▁алкоголь": 4904,
      "▁разговаривают": 4905,
      "▁неуда": 4906,
      "▁помощью": 4907,
      "▁коронавируса": 4908,
      "▁вовремя": 4909,
      "▁Настоящий": 4910,
      "▁порядке": 4911,
      "Хо": 4912,
      "сна": 4913,
      "рори": 4914,
      "▁пот": 4915,
      "▁убор": 4916,
      "лочка": 4917,
      "▁призы": 4918,
      "мум": 4919,
      "▁известно": 4920,
      "▁сапо": 4921,
      "▁фразу": 4922,
      "▁культу": 4923,
      "▁душе": 4924,
      "пуга": 4925,
      "▁писто": 4926,
      "▁Завтра": 4927,
      "брал": 4928,
      "стречу": 4929,
      "▁подарил": 4930,
      "▁коллек": 4931,
      "▁тради": 4932,
      "▁несча": 4933,
      "▁сожалению": 4934,
      "енный": 4935,
      "▁назна": 4936,
      "▁убира": 4937,
      "▁отправи": 4938,
      "▁дел": 4939,
      "няли": 4940,
      "▁Би": 4941,
      "▁хрен": 4942,
      "▁части": 4943,
      "езд": 4944,
      "▁детства": 4945,
      "▁твоего": 4946,
      "▁Откры": 4947,
      "▁требо": 4948,
      "▁плохой": 4949,
      "▁успел": 4950,
      "▁встает": 4951,
      "▁прекрасно": 4952,
      "▁войны": 4953,
      "▁согласи": 4954,
      "▁населения": 4955,
      "▁оскорб": 4956,
      "работ": 4957,
      "▁нашла": 4958,
      "▁народа": 4959,
      "▁едет": 4960,
      "▁Сте": 4961,
      "дор": 4962,
      "довой": 4963,
      "вик": 4964,
      "▁Оказывается": 4965,
      "▁обви": 4966,
      "▁Нава": 4967,
      "▁спря": 4968,
      "▁милый": 4969,
      "▁Ваш": 4970,
      "▁хорошие": 4971,
      "▁путе": 4972,
      "▁план": 4973,
      "▁Ника": 4974,
      "▁соседа": 4975,
      "▁гуля": 4976,
      "▁посмотрел": 4977,
      "▁всякий": 4978,
      "▁напря": 4979,
      "▁внимание": 4980,
      "▁штаны": 4981,
      "▁неприят": 4982,
      "▁предложение": 4983,
      "▁живем": 4984,
      "▁чемпиона": 4985,
      "▁неожиданно": 4986,
      "pи": 4987,
      "дво": 4988,
      "пят": 4989,
      "▁пей": 4990,
      "▁потре": 4991,
      "ногие": 4992,
      "▁неиз": 4993,
      "вому": 4994,
      "▁заставля": 4995,
      "дик": 4996,
      "▁привет": 4997,
      "люби": 4998,
      "▁разгово": 4999,
      "писы": 5000,
      "▁говоря": 5001,
      "▁распро": 5002,
      "▁первые": 5003,
      "▁вернулся": 5004,
      "▁сделали": 5005,
      "▁Петь": 5006,
      "▁помнишь": 5007,
      "▁Скоро": 5008,
      "▁пытается": 5009,
      "▁задницу": 5010,
      "▁ужас": 5011,
      "▁Странно": 5012,
      "▁здоровье": 5013,
      "▁Медведев": 5014,
      "▁Любовь": 5015,
      "▁янва": 5016,
      "Со": 5017,
      "ера": 5018,
      "▁днев": 5019,
      "над": 5020,
      "дала": 5021,
      "дина": 5022,
      "▁прось": 5023,
      "▁отра": 5024,
      "▁Кита": 5025,
      "лябин": 5026,
      "▁сокра": 5027,
      "зации": 5028,
      "▁Например": 5029,
      "хает": 5030,
      "▁Неко": 5031,
      "ленные": 5032,
      "▁информа": 5033,
      "▁парню": 5034,
      "▁Люблю": 5035,
      "▁взяла": 5036,
      "▁языка": 5037,
      "▁тысячи": 5038,
      "▁лени": 5039,
      "▁сверху": 5040,
      "вский": 5041,
      "вшей": 5042,
      "▁прит": 5043,
      "▁входит": 5044,
      "рез": 5045,
      "логу": 5046,
      "дании": 5047,
      "станов": 5048,
      "нятно": 5049,
      "цио": 5050,
      "▁видите": 5051,
      "▁шля": 5052,
      "пель": 5053,
      "ктору": 5054,
      "жусь": 5055,
      "▁будущее": 5056,
      "▁трубку": 5057,
      "▁Больше": 5058,
      "▁шампан": 5059,
      "альных": 5060,
      "▁груди": 5061,
      "▁жалко": 5062,
      "▁юмо": 5063,
      "▁борщ": 5064,
      "▁Ладно": 5065,
      "▁единственный": 5066,
      "▁глядя": 5067,
      "▁хрено": 5068,
      "▁старости": 5069,
      "▁статисти": 5070,
      "▁стер": 5071,
      "▁Кри": 5072,
      "▁сери": 5073,
      "▁ваго": 5074,
      "▁сплю": 5075,
      "▁рук": 5076,
      "▁рулем": 5077,
      "▁Неужели": 5078,
      "зии": 5079,
      "▁сим": 5080,
      "щают": 5081,
      "▁гар": 5082,
      "▁твое": 5083,
      "▁спорти": 5084,
      "вайся": 5085,
      "▁площа": 5086,
      "▁услови": 5087,
      "▁рынке": 5088,
      "▁играет": 5089,
      "▁умею": 5090,
      "▁заняться": 5091,
      "▁армию": 5092,
      "▁слышу": 5093,
      "▁ресторан": 5094,
      "▁Пьяный": 5095,
      "фер": 5096,
      "шет": 5097,
      "носит": 5098,
      "▁кома": 5099,
      "▁Авто": 5100,
      "▁Попро": 5101,
      "гия": 5102,
      "жима": 5103,
      "▁стару": 5104,
      "▁виду": 5105,
      "▁Мол": 5106,
      "▁распо": 5107,
      "▁делаю": 5108,
      "▁сложно": 5109,
      "читать": 5110,
      "▁лай": 5111,
      "▁свадьбе": 5112,
      "▁существо": 5113,
      "▁чиновников": 5114,
      "▁професси": 5115,
      "▁охот": 5116,
      "▁везде": 5117,
      "▁подозре": 5118,
      "лимпиа": 5119,
      "министра": 5120,
      "▁повезло": 5121,
      "Так": 5122,
      "гут": 5123,
      "гнали": 5124,
      "ие": 5125,
      "щь": 5126,
      "яться": 5127,
      "роб": 5128,
      "▁оку": 5129,
      "▁ито": 5130,
      "▁направ": 5131,
      "рица": 5132,
      "▁зале": 5133,
      "▁кровь": 5134,
      "сей": 5135,
      "▁моря": 5136,
      "▁таком": 5137,
      "▁вось": 5138,
      "чам": 5139,
      "▁тещу": 5140,
      "▁общем": 5141,
      "жим": 5142,
      "мены": 5143,
      "▁друж": 5144,
      "▁Ги": 5145,
      "зой": 5146,
      "▁интелли": 5147,
      "▁Самая": 5148,
      "▁вторая": 5149,
      "▁бросить": 5150,
      "вайтесь": 5151,
      "▁назвать": 5152,
      "▁собирается": 5153,
      "▁выходные": 5154,
      "▁власть": 5155,
      "▁убий": 5156,
      "▁игры": 5157,
      "Мужик": 5158,
      "▁двига": 5159,
      "▁Слышь": 5160,
      "▁оконча": 5161,
      "▁ипоте": 5162,
      "лика": 5163,
      "▁бле": 5164,
      "▁чему": 5165,
      "▁дека": 5166,
      "пили": 5167,
      "жается": 5168,
      "▁Наде": 5169,
      "▁подс": 5170,
      "ходы": 5171,
      "▁баре": 5172,
      "▁первое": 5173,
      "▁публи": 5174,
      "▁лома": 5175,
      "▁вернуть": 5176,
      "▁женщинам": 5177,
      "▁магазина": 5178,
      "▁любимая": 5179,
      "▁алка": 5180,
      "▁Це": 5181,
      "порщик": 5182,
      "▁показать": 5183,
      "рикмах": 5184,
      "▁супермар": 5185,
      "▁факт": 5186,
      "▁Некоторы": 5187,
      "Вот": 5188,
      "кома": 5189,
      "▁мнение": 5190,
      "▁опу": 5191,
      "▁прожи": 5192,
      "жела": 5193,
      "▁Пору": 5194,
      "стили": 5195,
      "жишь": 5196,
      "▁перево": 5197,
      "ктов": 5198,
      "▁женат": 5199,
      "▁пусты": 5200,
      "метров": 5201,
      "▁перио": 5202,
      "▁Теле": 5203,
      "▁учиться": 5204,
      "▁последние": 5205,
      "▁похож": 5206,
      "▁желания": 5207,
      "▁Ци": 5208,
      "▁истории": 5209,
      "▁государство": 5210,
      "▁повторя": 5211,
      "▁таблетки": 5212,
      "▁изнасило": 5213,
      "дке": 5214,
      "зет": 5215,
      "ист": 5216,
      "яет": 5217,
      "▁I": 5218,
      "▁впервые": 5219,
      "дах": 5220,
      "▁кошку": 5221,
      "ходе": 5222,
      "▁товарищ": 5223,
      "▁добра": 5224,
      "▁моим": 5225,
      "▁вор": 5226,
      "ческую": 5227,
      "зает": 5228,
      "сона": 5229,
      "▁Ученые": 5230,
      "▁сай": 5231,
      "▁сантех": 5232,
      "▁Ваши": 5233,
      "▁полгода": 5234,
      "▁печа": 5235,
      "▁Сам": 5236,
      "▁Сол": 5237,
      "▁собак": 5238,
      "▁понимает": 5239,
      "▁посмотри": 5240,
      "▁медсе": 5241,
      "▁никаких": 5242,
      "▁выходить": 5243,
      "▁201": 5244,
      "▁гео": 5245,
      "ндида": 5246,
      "▁предложил": 5247,
      "▁неболь": 5248,
      "▁дождь": 5249,
      "▁бухгал": 5250,
      "▁Герма": 5251,
      "▁c": 5252,
      "▁срок": 5253,
      "▁забира": 5254,
      "▁коле": 5255,
      "▁анали": 5256,
      "▁еб": 5257,
      "▁энер": 5258,
      "▁оттуда": 5259,
      "пок": 5260,
      "няют": 5261,
      "▁Наш": 5262,
      "▁белье": 5263,
      "▁Моня": 5264,
      "лены": 5265,
      "ставьте": 5266,
      "пыты": 5267,
      "▁молоко": 5268,
      "▁Милая": 5269,
      "▁пойдем": 5270,
      "▁самым": 5271,
      "▁приносит": 5272,
      "▁пельмени": 5273,
      "▁баксов": 5274,
      "Ро": 5275,
      "▁пона": 5276,
      "▁задержа": 5277,
      "лево": 5278,
      "▁аэро": 5279,
      "мана": 5280,
      "дился": 5281,
      "мож": 5282,
      "▁Кла": 5283,
      "▁сочи": 5284,
      "▁Ос": 5285,
      "▁Пол": 5286,
      "туи": 5287,
      "▁головы": 5288,
      "никах": 5289,
      "альные": 5290,
      "▁подарить": 5291,
      "ходишь": 5292,
      "▁красивой": 5293,
      "полне": 5294,
      "▁свидание": 5295,
      "▁мяг": 5296,
      "▁вашем": 5297,
      "▁съел": 5298,
      "▁хими": 5299,
      "▁улыб": 5300,
      "▁обществен": 5301,
      "▁зеркало": 5302,
      "▁память": 5303,
      "кке": 5304,
      "рд": 5305,
      "▁сут": 5306,
      "▁очки": 5307,
      "▁иначе": 5308,
      "▁нашу": 5309,
      "ниц": 5310,
      "▁задума": 5311,
      "▁Нуж": 5312,
      "дес": 5313,
      "▁дольше": 5314,
      "▁Афри": 5315,
      "мин": 5316,
      "▁носить": 5317,
      "▁депре": 5318,
      "▁Помо": 5319,
      "▁ваше": 5320,
      "▁разби": 5321,
      "▁патри": 5322,
      "▁рекомен": 5323,
      "▁жел": 5324,
      "верх": 5325,
      "▁Запа": 5326,
      "▁Пришел": 5327,
      "▁Боже": 5328,
      "▁Всегда": 5329,
      "▁лам": 5330,
      "▁ласко": 5331,
      "▁поможет": 5332,
      "▁попросил": 5333,
      "▁Иванович": 5334,
      "▁книги": 5335,
      "▁телевизору": 5336,
      "▁слышали": 5337,
      "▁существует": 5338,
      "▁минуты": 5339,
      "теллек": 5340,
      "▁пациент": 5341,
      "▁медицин": 5342,
      "▁предпочита": 5343,
      "▁древ": 5344,
      "▁кг": 5345,
      "▁ждать": 5346,
      "▁Пра": 5347,
      "дева": 5348,
      "▁выки": 5349,
      "▁вызывает": 5350,
      "▁прошел": 5351,
      "вин": 5352,
      "шеб": 5353,
      "▁приго": 5354,
      "▁прине": 5355,
      "▁Тво": 5356,
      "▁ваших": 5357,
      "жик": 5358,
      "▁рожда": 5359,
      "▁Моро": 5360,
      "чках": 5361,
      "▁сука": 5362,
      "следо": 5363,
      "▁шести": 5364,
      "▁бабушки": 5365,
      "▁запах": 5366,
      "▁выпуск": 5367,
      "▁появился": 5368,
      "▁семьи": 5369,
      "▁удовольствие": 5370,
      "▁совесть": 5371,
      "▁употреб": 5372,
      "▁Спраши": 5373,
      "Бо": 5374,
      "жной": 5375,
      "шень": 5376,
      "ьер": 5377,
      "▁влюб": 5378,
      "итин": 5379,
      "▁непло": 5380,
      "дав": 5381,
      "▁кори": 5382,
      "▁выво": 5383,
      "кура": 5384,
      "моему": 5385,
      "▁Мин": 5386,
      "▁приз": 5387,
      "▁гвоз": 5388,
      "▁Чи": 5389,
      "▁фон": 5390,
      "▁бесс": 5391,
      "▁балко": 5392,
      "▁посет": 5393,
      "▁другая": 5394,
      "мых": 5395,
      "▁душа": 5396,
      "▁суд": 5397,
      "▁делал": 5398,
      "▁возьми": 5399,
      "▁Владимирович": 5400,
      "▁тяжело": 5401,
      "▁беспоко": 5402,
      "▁мысль": 5403,
      "▁нефть": 5404,
      "нему": 5405,
      "щить": 5406,
      "лили": 5407,
      "руга": 5408,
      "▁ам": 5409,
      "▁еды": 5410,
      "▁яй": 5411,
      "▁прогу": 5412,
      "дое": 5413,
      "чарова": 5414,
      "▁приоб": 5415,
      "шина": 5416,
      "мера": 5417,
      "бая": 5418,
      "▁бабка": 5419,
      "▁больной": 5420,
      "ительные": 5421,
      "▁фиг": 5422,
      "анта": 5423,
      "▁свидете": 5424,
      "▁полиции": 5425,
      "▁Судь": 5426,
      "▁название": 5427,
      "▁геро": 5428,
      "▁волос": 5429,
      "▁растут": 5430,
      "▁математи": 5431,
      "▁холодильнике": 5432,
      "▁Правильно": 5433,
      "on": 5434,
      "вные": 5435,
      "зит": 5436,
      "плы": 5437,
      "тку": 5438,
      "точку": 5439,
      "▁твор": 5440,
      "ватив": 5441,
      "▁неправи": 5442,
      "▁уха": 5443,
      "наль": 5444,
      "емый": 5445,
      "▁засу": 5446,
      "▁ракет": 5447,
      "▁Сдела": 5448,
      "▁отвер": 5449,
      "▁приходят": 5450,
      "▁приеме": 5451,
      "▁собе": 5452,
      "▁генера": 5453,
      "стан": 5454,
      "▁мамой": 5455,
      "▁папу": 5456,
      "▁бата": 5457,
      "▁Гру": 5458,
      "▁штра": 5459,
      "▁гара": 5460,
      "▁ФС": 5461,
      "▁классе": 5462,
      "▁играют": 5463,
      "▁учени": 5464,
      "▁месяцев": 5465,
      "▁всеми": 5466,
      "▁пенсии": 5467,
      "▁девствен": 5468,
      "▁дядя": 5469,
      "▁некоторых": 5470,
      "▁болезнь": 5471,
      "▁резко": 5472,
      "▁понедельник": 5473,
      "▁практически": 5474,
      "нную": 5475,
      "▁вете": 5476,
      "▁сго": 5477,
      "▁оте": 5478,
      "▁трое": 5479,
      "▁забе": 5480,
      "▁кно": 5481,
      "тал": 5482,
      "▁эпи": 5483,
      "гады": 5484,
      "▁тео": 5485,
      "▁тещи": 5486,
      "▁дама": 5487,
      "▁стан": 5488,
      "мыш": 5489,
      "вном": 5490,
      "▁Дедушка": 5491,
      "▁слушать": 5492,
      "▁цело": 5493,
      "▁любимый": 5494,
      "▁объявление": 5495,
      "ведливо": 5496,
      "▁Сергей": 5497,
      "▁использу": 5498,
      "▁вовсе": 5499,
      "▁клуб": 5500,
      "▁супруже": 5501,
      "кви": 5502,
      "▁цы": 5503,
      "▁вза": 5504,
      "▁мерт": 5505,
      "▁дро": 5506,
      "▁нака": 5507,
      "▁наход": 5508,
      "лию": 5509,
      "▁уб": 5510,
      "▁угодно": 5511,
      "дан": 5512,
      "▁жерт": 5513,
      "зация": 5514,
      "▁марта": 5515,
      "▁развод": 5516,
      "▁папы": 5517,
      "▁Бар": 5518,
      "▁Ком": 5519,
      "чном": 5520,
      "шой": 5521,
      "▁страну": 5522,
      "филь": 5523,
      "▁14": 5524,
      "▁помощи": 5525,
      "▁считается": 5526,
      "▁шубу": 5527,
      "▁выборах": 5528,
      "▁деревне": 5529,
      "▁универ": 5530,
      "йо": 5531,
      "чо": 5532,
      "▁посту": 5533,
      "▁наказа": 5534,
      "▁умо": 5535,
      "▁чтоб": 5536,
      "▁завя": 5537,
      "▁Вз": 5538,
      "▁аль": 5539,
      "▁Кро": 5540,
      "почку": 5541,
      "▁Оба": 5542,
      "▁Дай": 5543,
      "▁вести": 5544,
      "▁вещь": 5545,
      "▁кушать": 5546,
      "▁сильнее": 5547,
      "▁столи": 5548,
      "▁пути": 5549,
      "мети": 5550,
      "▁темпера": 5551,
      "▁спирт": 5552,
      "▁комплек": 5553,
      "▁сможет": 5554,
      "▁берут": 5555,
      "▁требует": 5556,
      "▁бесплат": 5557,
      "▁принципе": 5558,
      "ритан": 5559,
      "▁незнако": 5560,
      "бре": 5561,
      "кнуть": 5562,
      "роны": 5563,
      "▁митин": 5564,
      "▁опро": 5565,
      "▁улуч": 5566,
      "▁завод": 5567,
      "▁аку": 5568,
      "▁кате": 5569,
      "▁провести": 5570,
      "▁Дмит": 5571,
      "▁хокке": 5572,
      "▁важно": 5573,
      "▁Уважаем": 5574,
      "жая": 5575,
      "▁куро": 5576,
      "мене": 5577,
      "зил": 5578,
      "▁можем": 5579,
      "▁сил": 5580,
      "чками": 5581,
      "ковь": 5582,
      "▁каждым": 5583,
      "▁парке": 5584,
      "▁чувства": 5585,
      "▁террори": 5586,
      "▁подумать": 5587,
      "▁устано": 5588,
      "▁жопе": 5589,
      "▁автомобиля": 5590,
      "▁родила": 5591,
      "▁разговаривать": 5592,
      "▁пользо": 5593,
      "▁депутаты": 5594,
      "▁обнару": 5595,
      "снилось": 5596,
      "сюда": 5597,
      "▁впереди": 5598,
      "▁памят": 5599,
      "▁Профессор": 5600,
      "le": 5601,
      "ана": 5602,
      "▁шел": 5603,
      "лочку": 5604,
      "▁ков": 5605,
      "▁провод": 5606,
      "мон": 5607,
      "дон": 5608,
      "▁дедушка": 5609,
      "▁Поро": 5610,
      "няется": 5611,
      "▁разбира": 5612,
      "▁реа": 5613,
      "▁желу": 5614,
      "▁Вопрос": 5615,
      "▁пивом": 5616,
      "ительство": 5617,
      "▁Пари": 5618,
      "брали": 5619,
      "▁пласти": 5620,
      "▁думала": 5621,
      "жены": 5622,
      "▁Согла": 5623,
      "▁вторую": 5624,
      "ответ": 5625,
      "▁убил": 5626,
      "▁цвета": 5627,
      "▁требуется": 5628,
      "▁внимательно": 5629,
      "▁чиновники": 5630,
      "▁обещал": 5631,
      "▁лифте": 5632,
      "▁качестве": 5633,
      "▁прошлом": 5634,
      "▁отсутствие": 5635,
      "▁француз": 5636,
      "чите": 5637,
      "▁вред": 5638,
      "▁поси": 5639,
      "▁убить": 5640,
      "лька": 5641,
      "▁заказы": 5642,
      "▁отка": 5643,
      "▁Кру": 5644,
      "вид": 5645,
      "виси": 5646,
      "▁теа": 5647,
      "мешь": 5648,
      "▁размер": 5649,
      "▁папе": 5650,
      "▁которому": 5651,
      "мыс": 5652,
      "сках": 5653,
      "ленной": 5654,
      "▁интеллек": 5655,
      "▁плани": 5656,
      "▁начальника": 5657,
      "▁спал": 5658,
      "▁Купи": 5659,
      "▁карты": 5660,
      "▁мозги": 5661,
      "▁поводу": 5662,
      "▁популяр": 5663,
      "▁резино": 5664,
      "▁поговорить": 5665,
      "▁грамм": 5666,
      "пь": 5667,
      "сной": 5668,
      "торое": 5669,
      "▁почи": 5670,
      "▁огур": 5671,
      "▁уша": 5672,
      "лев": 5673,
      "▁Вст": 5674,
      "▁едят": 5675,
      "▁Их": 5676,
      "▁подряд": 5677,
      "туре": 5678,
      "▁знала": 5679,
      "▁больнице": 5680,
      "▁Хм": 5681,
      "▁тупо": 5682,
      "▁скажет": 5683,
      "▁образом": 5684,
      "▁спишь": 5685,
      "▁ответствен": 5686,
      "▁маленькие": 5687,
      "ведения": 5688,
      "▁картошку": 5689,
      "▁состоянии": 5690,
      "▁некоторые": 5691,
      "▁санкции": 5692,
      "▁ремонт": 5693,
      "▁февраля": 5694,
      "▁Поручик": 5695,
      "Через": 5696,
      "▁оставля": 5697,
      "▁исти": 5698,
      "▁некраси": 5699,
      "▁зря": 5700,
      "▁Вся": 5701,
      "▁кандида": 5702,
      "▁причина": 5703,
      "щика": 5704,
      "▁бое": 5705,
      "▁разных": 5706,
      "▁палец": 5707,
      "▁Нам": 5708,
      "▁поддер": 5709,
      "▁веж": 5710,
      "▁Глу": 5711,
      "▁стоять": 5712,
      "рета": 5713,
      "▁Валу": 5714,
      "ительная": 5715,
      "▁диван": 5716,
      "▁23": 5717,
      "▁Никто": 5718,
      "▁новость": 5719,
      "▁помните": 5720,
      "▁никакой": 5721,
      "▁терри": 5722,
      "▁языке": 5723,
      "▁солнце": 5724,
      "▁поставил": 5725,
      "рачивается": 5726,
      "▁внеш": 5727,
      "▁медведь": 5728,
      "▁ощущение": 5729,
      "скольку": 5730,
      "▁секунд": 5731,
      "▁смарт": 5732,
      "▁пообеща": 5733,
      "▁Начальник": 5734,
      "Се": 5735,
      "ква": 5736,
      "мно": 5737,
      "шлы": 5738,
      "▁лен": 5739,
      "▁сходить": 5740,
      "рался": 5741,
      "▁пов": 5742,
      "▁попыт": 5743,
      "вании": 5744,
      "▁Пла": 5745,
      "неш": 5746,
      "▁ясно": 5747,
      "▁япон": 5748,
      "тером": 5749,
      "▁Мер": 5750,
      "▁Крем": 5751,
      "гаю": 5752,
      "▁боятся": 5753,
      "▁буха": 5754,
      "▁прем": 5755,
      "▁хран": 5756,
      "ствуют": 5757,
      "рити": 5758,
      "▁крови": 5759,
      "ционер": 5760,
      "▁становятся": 5761,
      "▁снизу": 5762,
      "▁угро": 5763,
      "▁Фима": 5764,
      "Вовочка": 5765,
      "▁музыка": 5766,
      "▁опреде": 5767,
      "▁учительница": 5768,
      "▁спортс": 5769,
      "▁исчез": 5770,
      "▁января": 5771,
      "▁пома": 5772,
      "▁джен": 5773,
      "▁око": 5774,
      "▁остро": 5775,
      "▁оправ": 5776,
      "датель": 5777,
      "▁Всем": 5778,
      "▁карь": 5779,
      "▁пробо": 5780,
      "тился": 5781,
      "вела": 5782,
      "чак": 5783,
      "шила": 5784,
      "▁делятся": 5785,
      "жаться": 5786,
      "▁редко": 5787,
      "▁банке": 5788,
      "▁Этот": 5789,
      "▁работаешь": 5790,
      "▁трудо": 5791,
      "▁целу": 5792,
      "писать": 5793,
      "▁красиво": 5794,
      "▁экс": 5795,
      "▁российский": 5796,
      "▁забыла": 5797,
      "▁фильма": 5798,
      "▁свадьбу": 5799,
      "▁слабо": 5800,
      "▁адво": 5801,
      "▁возьму": 5802,
      "▁половина": 5803,
      "▁директор": 5804,
      "▁шкаф": 5805,
      "▁письмо": 5806,
      "▁кольцо": 5807,
      "Го": 5808,
      "То": 5809,
      "кля": 5810,
      "пля": 5811,
      "▁лень": 5812,
      "тором": 5813,
      "▁осно": 5814,
      "▁иска": 5815,
      "▁идешь": 5816,
      "▁нарисо": 5817,
      "ватит": 5818,
      "▁кошки": 5819,
      "▁отме": 5820,
      "▁Китай": 5821,
      "чествен": 5822,
      "стье": 5823,
      "▁женский": 5824,
      "▁Евре": 5825,
      "бан": 5826,
      "▁жили": 5827,
      "▁хорошей": 5828,
      "▁путь": 5829,
      "▁дипло": 5830,
      "▁любите": 5831,
      "▁дороже": 5832,
      "▁молодая": 5833,
      "чены": 5834,
      "▁Вели": 5835,
      "▁умеешь": 5836,
      "▁похожа": 5837,
      "▁никакого": 5838,
      "▁правительства": 5839,
      "▁музыку": 5840,
      "▁дешевле": 5841,
      "▁безопасности": 5842,
      "▁большинство": 5843,
      "▁олигар": 5844,
      "▁катего": 5845,
      "Из": 5846,
      "вити": 5847,
      "йка": 5848,
      "росла": 5849,
      "рика": 5850,
      "ныч": 5851,
      "▁ждут": 5852,
      "▁ехать": 5853,
      "▁домо": 5854,
      "вился": 5855,
      "▁сот": 5856,
      "итера": 5857,
      "▁Похоже": 5858,
      "щил": 5859,
      "▁маски": 5860,
      "▁разбу": 5861,
      "стила": 5862,
      "▁рем": 5863,
      "▁подня": 5864,
      "▁безу": 5865,
      "дыду": 5866,
      "▁рога": 5867,
      "▁Вова": 5868,
      "сывать": 5869,
      "▁остается": 5870,
      "▁цве": 5871,
      "▁поняли": 5872,
      "▁Петя": 5873,
      "▁пьян": 5874,
      "▁500": 5875,
      "▁замужем": 5876,
      "▁алкоголя": 5877,
      "▁разговаривает": 5878,
      "▁десяти": 5879,
      "▁результате": 5880,
      "▁конфет": 5881,
      "▁презервативы": 5882,
      "▁очередной": 5883,
      "▁бензин": 5884,
      "▁парашю": 5885,
      "▁Порошенко": 5886,
      "жением": 5887,
      "зды": 5888,
      "рпи": 5889,
      "тль": 5890,
      "▁вверх": 5891,
      "▁ово": 5892,
      "▁наду": 5893,
      "▁бло": 5894,
      "▁аре": 5895,
      "▁прошу": 5896,
      "тило": 5897,
      "▁Ай": 5898,
      "вее": 5899,
      "▁табли": 5900,
      "▁Одно": 5901,
      "бель": 5902,
      "вушка": 5903,
      "▁разли": 5904,
      "▁давать": 5905,
      "гии": 5906,
      "▁Ух": 5907,
      "▁прежде": 5908,
      "▁предыду": 5909,
      "▁руба": 5910,
      "▁сижу": 5911,
      "▁сидел": 5912,
      "стег": 5913,
      "▁полный": 5914,
      "чета": 5915,
      "интере": 5916,
      "▁получилось": 5917,
      "▁водкой": 5918,
      "ссер": 5919,
      "▁граб": 5920,
      "▁соседей": 5921,
      "▁однако": 5922,
      "▁испыты": 5923,
      "▁спросили": 5924,
      "▁евреи": 5925,
      "▁еврея": 5926,
      "▁берегу": 5927,
      "ческим": 5928,
      "▁вечери": 5929,
      "▁перестал": 5930,
      "▁лицом": 5931,
      "▁аптеке": 5932,
      "▁заканчивается": 5933,
      "▁Плохо": 5934,
      "▁напоминает": 5935,
      "▁Гражда": 5936,
      "▁Петька": 5937,
      "нится": 5938,
      "пя": 5939,
      "▁завер": 5940,
      "▁ке": 5941,
      "▁моему": 5942,
      "порт": 5943,
      "муд": 5944,
      "▁изо": 5945,
      "▁мужской": 5946,
      "▁вина": 5947,
      "▁бана": 5948,
      "гуляр": 5949,
      "▁Кот": 5950,
      "▁душу": 5951,
      "лейбу": 5952,
      "▁Тебя": 5953,
      "▁понимать": 5954,
      "ительное": 5955,
      "▁продать": 5956,
      "▁пойму": 5957,
      "▁спине": 5958,
      "▁список": 5959,
      "▁узнала": 5960,
      "довлет": 5961,
      "▁страшная": 5962,
      "▁российские": 5963,
      "▁био": 5964,
      "▁Челябин": 5965,
      "▁назвали": 5966,
      "▁Был": 5967,
      "▁выраст": 5968,
      "▁ошибки": 5969,
      "▁отпуска": 5970,
      "▁кухню": 5971,
      "▁ближе": 5972,
      "▁хозяин": 5973,
      "▁ограни": 5974,
      "▁успоко": 5975,
      "▁Некоторые": 5976,
      "Са": 5977,
      "дные": 5978,
      "ллю": 5979,
      "ссы": 5980,
      "кали": 5981,
      "▁погу": 5982,
      "рился": 5983,
      "▁засыпа": 5984,
      "▁жду": 5985,
      "▁Пя": 5986,
      "сел": 5987,
      "▁просты": 5988,
      "▁Кры": 5989,
      "▁ночам": 5990,
      "жек": 5991,
      "щики": 5992,
      "▁также": 5993,
      "▁жил": 5994,
      "хаться": 5995,
      "▁Мадам": 5996,
      "шками": 5997,
      "▁большим": 5998,
      "▁дважды": 5999,
      "▁газо": 6000,
      "ждает": 6001,
      "▁врачи": 6002,
      "▁обеспе": 6003,
      "▁Таки": 6004,
      "▁второго": 6005,
      "▁смеш": 6006,
      "▁освобо": 6007,
      "▁российской": 6008,
      "▁скре": 6009,
      "▁волшеб": 6010,
      "вшийся": 6011,
      "▁ездить": 6012,
      "▁показывают": 6013,
      "▁Ивановна": 6014,
      "▁солдат": 6015,
      "▁кошелек": 6016,
      "Теперь": 6017,
      "▁будильник": 6018,
      "▁подруге": 6019,
      "жник": 6020,
      "изо": 6021,
      "ял": 6022,
      "ялся": 6023,
      "▁вниз": 6024,
      "▁постав": 6025,
      "▁пойти": 6026,
      "нись": 6027,
      "▁законо": 6028,
      "див": 6029,
      "▁выстре": 6030,
      "▁мона": 6031,
      "▁Американ": 6032,
      "▁Кли": 6033,
      "▁тела": 6034,
      "пов": 6035,
      "▁Поч": 6036,
      "бей": 6037,
      "▁бок": 6038,
      "▁разно": 6039,
      "▁низ": 6040,
      "сад": 6041,
      "▁дайте": 6042,
      "▁дачу": 6043,
      "▁сволочь": 6044,
      "▁Здесь": 6045,
      "▁знак": 6046,
      "скажите": 6047,
      "▁дур": 6048,
      "▁Ват": 6049,
      "▁Пара": 6050,
      "▁стрем": 6051,
      "▁спосо": 6052,
      "ствую": 6053,
      "▁Разве": 6054,
      "▁холодно": 6055,
      "▁глазах": 6056,
      "▁спросила": 6057,
      "▁Москву": 6058,
      "▁слад": 6059,
      "▁бумаги": 6060,
      "▁возможность": 6061,
      "▁пациента": 6062,
      "▁киноте": 6063,
      "▁снег": 6064,
      "ловину": 6065,
      "▁поймал": 6066,
      "▁коньяк": 6067,
      "▁исключительно": 6068,
      "▁Собчак": 6069,
      "▁воскресень": 6070,
      "вного": 6071,
      "елен": 6072,
      "жется": 6073,
      "кете": 6074,
      "▁C": 6075,
      "▁поте": 6076,
      "▁почув": 6077,
      "ревно": 6078,
      "рики": 6079,
      "▁Слыша": 6080,
      "▁Дя": 6081,
      "▁Многие": 6082,
      "пози": 6083,
      "▁Обы": 6084,
      "▁Опыт": 6085,
      "стон": 6086,
      "шай": 6087,
      "бах": 6088,
      "▁Зо": 6089,
      "▁спут": 6090,
      "▁перепута": 6091,
      "▁суро": 6092,
      "суди": 6093,
      "▁Хол": 6094,
      "▁стене": 6095,
      "▁Больной": 6096,
      "ченный": 6097,
      "ительного": 6098,
      "▁объяв": 6099,
      "▁свинь": 6100,
      "▁пенсионе": 6101,
      "▁скром": 6102,
      "▁выходят": 6103,
      "▁тянет": 6104,
      "▁написать": 6105,
      "▁готовит": 6106,
      "▁минуту": 6107,
      "▁буква": 6108,
      "▁охра": 6109,
      "▁специали": 6110,
      "▁похудеть": 6111,
      "▁космонав": 6112,
      "▁транспо": 6113,
      "▁профессиона": 6114,
      "дру": 6115,
      "ллейбу": 6116,
      "нению": 6117,
      "оте": 6118,
      "ртом": 6119,
      "хнуть": 6120,
      "чком": 6121,
      "▁вполне": 6122,
      "▁отор": 6123,
      "стры": 6124,
      "лот": 6125,
      "нера": 6126,
      "деб": 6127,
      "▁эро": 6128,
      "▁выно": 6129,
      "▁выпа": 6130,
      "тин": 6131,
      "тила": 6132,
      "▁Анато": 6133,
      "▁приро": 6134,
      "▁сезо": 6135,
      "▁парикмах": 6136,
      "▁Рже": 6137,
      "▁Яша": 6138,
      "▁Благо": 6139,
      "туры": 6140,
      "▁желез": 6141,
      "летку": 6142,
      "▁лест": 6143,
      "▁пиро": 6144,
      "ительной": 6145,
      "▁сексе": 6146,
      "▁полиция": 6147,
      "▁покупает": 6148,
      "▁оказался": 6149,
      "▁скучно": 6150,
      "▁подъезде": 6151,
      "▁сигареты": 6152,
      "▁просыпается": 6153,
      "▁кормить": 6154,
      "▁услышать": 6155,
      "▁продукты": 6156,
      "▁состоит": 6157,
      "▁собесе": 6158,
      "pе": 6159,
      "Один": 6160,
      "Прода": 6161,
      "нду": 6162,
      "▁млад": 6163,
      "маты": 6164,
      "▁товари": 6165,
      "дий": 6166,
      "дио": 6167,
      "▁вырос": 6168,
      "курен": 6169,
      "▁москов": 6170,
      "тесь": 6171,
      "▁Анг": 6172,
      "▁прико": 6173,
      "▁принять": 6174,
      "▁приехал": 6175,
      "нусь": 6176,
      "чивать": 6177,
      "пая": 6178,
      "циент": 6179,
      "▁Ря": 6180,
      "▁беско": 6181,
      "зия": 6182,
      "▁сидишь": 6183,
      "вету": 6184,
      "▁Май": 6185,
      "▁распла": 6186,
      "▁слона": 6187,
      "▁Хозя": 6188,
      "▁получает": 6189,
      "▁открыть": 6190,
      "▁похожи": 6191,
      "▁волк": 6192,
      "▁202": 6193,
      "▁самых": 6194,
      "▁клиен": 6195,
      "▁запрети": 6196,
      "▁презерватив": 6197,
      "▁90": 6198,
      "▁танцу": 6199,
      "▁медведя": 6200,
      "▁Америке": 6201,
      "▁особо": 6202,
      "▁фамилия": 6203,
      "▁Ленин": 6204,
      "▁Степа": 6205,
      "Та": 6206,
      "жке": 6207,
      "ился": 6208,
      "▁поги": 6209,
      "▁исте": 6210,
      "▁ува": 6211,
      "▁ужи": 6212,
      "▁корова": 6213,
      "хоро": 6214,
      "▁ел": 6215,
      "▁топо": 6216,
      "▁выпил": 6217,
      "телось": 6218,
      "нув": 6219,
      "зах": 6220,
      "▁бой": 6221,
      "▁речь": 6222,
      "бую": 6223,
      "▁Гля": 6224,
      "▁делали": 6225,
      "фиг": 6226,
      "▁работал": 6227,
      "▁чудо": 6228,
      "тельства": 6229,
      "▁фору": 6230,
      "▁грузин": 6231,
      "▁мечты": 6232,
      "▁купили": 6233,
      "▁большое": 6234,
      "▁внимания": 6235,
      "▁здоровья": 6236,
      "▁внеза": 6237,
      "▁Трампа": 6238,
      "▁Наташа": 6239,
      "▁паспорт": 6240,
      "▁лягу": 6241,
      "▁оптими": 6242,
      "▁Президент": 6243,
      "▁кладбище": 6244,
      "▁Николай": 6245,
      "▁интеллигент": 6246,
      "▁ФСБ": 6247,
      "нде": 6248,
      "цени": 6249,
      "стная": 6250,
      "▁защи": 6251,
      "▁яи": 6252,
      "куро": 6253,
      "▁мото": 6254,
      "▁прод": 6255,
      "боту": 6256,
      "шими": 6257,
      "зан": 6258,
      "▁мам": 6259,
      "▁мастер": 6260,
      "мед": 6261,
      "▁разговор": 6262,
      "▁никуда": 6263,
      "сам": 6264,
      "▁Уви": 6265,
      "▁менять": 6266,
      "▁белые": 6267,
      "туру": 6268,
      "мену": 6269,
      "▁Нельзя": 6270,
      "▁Могу": 6271,
      "▁Доченька": 6272,
      "▁больницу": 6273,
      "▁интим": 6274,
      "▁первая": 6275,
      "▁лопа": 6276,
      "енерал": 6277,
      "▁лучшие": 6278,
      "▁твоих": 6279,
      "▁труси": 6280,
      "▁лучшее": 6281,
      "прия": 6282,
      "▁взры": 6283,
      "▁понимают": 6284,
      "▁шеп": 6285,
      "▁Петро": 6286,
      "▁учителя": 6287,
      "▁Решил": 6288,
      "▁российского": 6289,
      "▁метров": 6290,
      "▁бутылка": 6291,
      "▁морду": 6292,
      "▁80": 6293,
      "▁девочку": 6294,
      "▁стекло": 6295,
      "▁состояние": 6296,
      "▁половину": 6297,
      "▁фотографии": 6298,
      "▁хрена": 6299,
      "▁Новости": 6300,
      "▁характер": 6301,
      "сторожно": 6302,
      "вни": 6303,
      "рена": 6304,
      "рала": 6305,
      "▁дем": 6306,
      "стрю": 6307,
      "▁воспо": 6308,
      "▁горит": 6309,
      "ляться": 6310,
      "муще": 6311,
      "▁Наши": 6312,
      "▁преми": 6313,
      "▁стака": 6314,
      "▁банка": 6315,
      "▁столом": 6316,
      "▁положить": 6317,
      "▁удар": 6318,
      "▁подоро": 6319,
      "▁Послед": 6320,
      "▁совме": 6321,
      "▁проснулся": 6322,
      "▁мозга": 6323,
      "▁60": 6324,
      "▁операции": 6325,
      "▁карман": 6326,
      "▁кармане": 6327,
      "▁принимать": 6328,
      "▁молодости": 6329,
      "гноз": 6330,
      "▁оружие": 6331,
      "▁финансо": 6332,
      "▁Нужно": 6333,
      "довлетвор": 6334,
      "пке": 6335,
      "▁сно": 6336,
      "стр": 6337,
      "▁надеть": 6338,
      "лай": 6339,
      "народ": 6340,
      "воро": 6341,
      "кинь": 6342,
      "▁запу": 6343,
      "▁загляды": 6344,
      "▁конь": 6345,
      "сексу": 6346,
      "▁Свя": 6347,
      "▁выбор": 6348,
      "▁выбро": 6349,
      "▁мони": 6350,
      "▁пробе": 6351,
      "▁тарел": 6352,
      "▁водой": 6353,
      "▁прили": 6354,
      "нувшись": 6355,
      "чис": 6356,
      "щиков": 6357,
      "▁мадам": 6358,
      "▁вариан": 6359,
      "▁Ему": 6360,
      "▁Бере": 6361,
      "▁знали": 6362,
      "льность": 6363,
      "▁мело": 6364,
      "▁стату": 6365,
      "▁шлю": 6366,
      "▁Роди": 6367,
      "▁Жа": 6368,
      "▁Ваня": 6369,
      "▁инспе": 6370,
      "▁детьми": 6371,
      "▁филосо": 6372,
      "▁мусо": 6373,
      "▁имею": 6374,
      "▁мяса": 6375,
      "▁главный": 6376,
      "▁животное": 6377,
      "▁телефона": 6378,
      "ступать": 6379,
      "▁студент": 6380,
      "▁слышит": 6381,
      "▁пьешь": 6382,
      "▁появились": 6383,
      "▁форму": 6384,
      "▁беременна": 6385,
      "▁килограмм": 6386,
      "▁садится": 6387,
      "▁маршрутке": 6388,
      "▁останавливает": 6389,
      "тюшка": 6390,
      "▁навстречу": 6391,
      "do": 6392,
      "нужден": 6393,
      "рту": 6394,
      "цент": 6395,
      "читься": 6396,
      "▁ся": 6397,
      "енти": 6398,
      "▁ожида": 6399,
      "▁бить": 6400,
      "лант": 6401,
      "риф": 6402,
      "▁рак": 6403,
      "▁выдер": 6404,
      "▁вышли": 6405,
      "▁присут": 6406,
      "чиков": 6407,
      "▁ноут": 6408,
      "▁курит": 6409,
      "▁ставить": 6410,
      "▁души": 6411,
      "ленных": 6412,
      "▁странно": 6413,
      "▁Деда": 6414,
      "▁каждую": 6415,
      "▁Хотите": 6416,
      "▁диско": 6417,
      "▁спаса": 6418,
      "▁шашлы": 6419,
      "▁умень": 6420,
      "▁граду": 6421,
      "ствии": 6422,
      "▁немно": 6423,
      "▁появляется": 6424,
      "▁этажа": 6425,
      "летает": 6426,
      "▁пальцем": 6427,
      "▁наркотики": 6428,
      "▁администра": 6429,
      "▁циф": 6430,
      "▁угол": 6431,
      "▁появилась": 6432,
      "▁хлеба": 6433,
      "▁поцело": 6434,
      "▁морожено": 6435,
      "▁россияне": 6436,
      "▁сутки": 6437,
      "▁Ватсон": 6438,
      "ани": 6439,
      "дная": 6440,
      "кция": 6441,
      "мить": 6442,
      "сите": 6443,
      "тится": 6444,
      "эт": 6445,
      "▁ссо": 6446,
      "рали": 6447,
      "▁повод": 6448,
      "▁есте": 6449,
      "▁сор": 6450,
      "дует": 6451,
      "стам": 6452,
      "стами": 6453,
      "▁малы": 6454,
      "▁Утро": 6455,
      "▁Единствен": 6456,
      "▁мешает": 6457,
      "▁переи": 6458,
      "▁вида": 6459,
      "▁видят": 6460,
      "ретен": 6461,
      "▁раскры": 6462,
      "▁лоб": 6463,
      "дители": 6464,
      "рованный": 6465,
      "еной": 6466,
      "▁пойдет": 6467,
      "▁Алкого": 6468,
      "▁встал": 6469,
      "▁выборов": 6470,
      "▁принято": 6471,
      "ступила": 6472,
      "▁систем": 6473,
      "▁менее": 6474,
      "▁народу": 6475,
      "▁G": 6476,
      "▁поля": 6477,
      "▁наж": 6478,
      "ваешься": 6479,
      "ванием": 6480,
      "▁заст": 6481,
      "▁апре": 6482,
      "▁торо": 6483,
      "▁отказы": 6484,
      "ляции": 6485,
      "▁прибы": 6486,
      "▁прибли": 6487,
      "▁соси": 6488,
      "▁изу": 6489,
      "▁избав": 6490,
      "шается": 6491,
      "▁разда": 6492,
      "▁фанта": 6493,
      "▁силы": 6494,
      "▁столо": 6495,
      "▁чая": 6496,
      "дности": 6497,
      "▁Сарочка": 6498,
      "▁мудро": 6499,
      "▁Мимо": 6500,
      "▁начинаешь": 6501,
      "▁держать": 6502,
      "▁квартира": 6503,
      "▁испуга": 6504,
      "Под": 6505,
      "▁похоже": 6506,
      "▁пятницу": 6507,
      "▁троллейбу": 6508,
      "▁съесть": 6509,
      "▁радостно": 6510,
      "▁вокза": 6511,
      "▁зависит": 6512,
      "▁определить": 6513,
      "▁старше": 6514,
      "▁представляешь": 6515,
      "▁ситуации": 6516,
      "▁подозр": 6517,
      "▁романти": 6518,
      "▁Судья": 6519,
      "муж": 6520,
      "тк": 6521,
      "ющая": 6522,
      "▁A": 6523,
      "коль": 6524,
      "▁пола": 6525,
      "▁побы": 6526,
      "ректор": 6527,
      "▁СМ": 6528,
      "▁дове": 6529,
      "▁собы": 6530,
      "шишь": 6531,
      "▁Тем": 6532,
      "стал": 6533,
      "▁Пора": 6534,
      "▁манья": 6535,
      "▁женской": 6536,
      "била": 6537,
      "казалось": 6538,
      "▁хак": 6539,
      "▁Дочка": 6540,
      "▁чемо": 6541,
      "ственная": 6542,
      "▁предмет": 6543,
      "▁думали": 6544,
      "▁Фу": 6545,
      "▁Теща": 6546,
      "▁собакой": 6547,
      "▁класса": 6548,
      "▁бабушке": 6549,
      "▁шоу": 6550,
      "▁толстая": 6551,
      "▁Прекра": 6552,
      "▁рассказать": 6553,
      "▁пользова": 6554,
      "▁Диа": 6555,
      "▁некоторое": 6556,
      "▁снимает": 6557,
      "▁начнут": 6558,
      "▁примерно": 6559,
      "▁порядок": 6560,
      "▁основном": 6561,
      "▁познакомиться": 6562,
      "Кон": 6563,
      "зку": 6564,
      "оти": 6565,
      "шнего": 6566,
      "▁вере": 6567,
      "▁поду": 6568,
      "▁бит": 6569,
      "ними": 6570,
      "▁зана": 6571,
      "▁засе": 6572,
      "▁авари": 6573,
      "▁торт": 6574,
      "▁Сне": 6575,
      "▁дому": 6576,
      "▁доченька": 6577,
      "▁процен": 6578,
      "▁восто": 6579,
      "ляли": 6580,
      "▁Пошел": 6581,
      "▁хожу": 6582,
      "▁больного": 6583,
      "циально": 6584,
      "▁даль": 6585,
      "▁реги": 6586,
      "▁рекор": 6587,
      "▁подготов": 6588,
      "▁расстраи": 6589,
      "▁плачет": 6590,
      "▁сыр": 6591,
      "▁верю": 6592,
      "▁обрат": 6593,
      "▁открыл": 6594,
      "▁отлично": 6595,
      "▁Буду": 6596,
      "▁умеют": 6597,
      "▁туалета": 6598,
      "ведение": 6599,
      "▁пытался": 6600,
      "▁трени": 6601,
      "▁найдется": 6602,
      "▁обиде": 6603,
      "▁возвраща": 6604,
      "▁землю": 6605,
      "▁лошади": 6606,
      "▁посовето": 6607,
      "▁аптеку": 6608,
      "▁серьезно": 6609,
      "▁выиграл": 6610,
      "▁довольно": 6611,
      "▁мотоци": 6612,
      "ДД": 6613,
      "вную": 6614,
      "гнал": 6615,
      "литься": 6616,
      "щено": 6617,
      "▁сходи": 6618,
      "▁поб": 6619,
      "▁ими": 6620,
      "ласс": 6621,
      "рист": 6622,
      "▁забот": 6623,
      "▁кастрю": 6624,
      "▁това": 6625,
      "▁ядер": 6626,
      "▁моги": 6627,
      "▁Дет": 6628,
      "▁состав": 6629,
      "▁сорок": 6630,
      "чия": 6631,
      "пает": 6632,
      "рыз": 6633,
      "▁Поли": 6634,
      "▁Иде": 6635,
      "▁папой": 6636,
      "▁обща": 6637,
      "▁саду": 6638,
      "▁подчи": 6639,
      "▁бежит": 6640,
      "▁Золо": 6641,
      "▁база": 6642,
      "▁сыном": 6643,
      "▁детском": 6644,
      "▁помогите": 6645,
      "▁число": 6646,
      "▁корми": 6647,
      "▁Реб": 6648,
      "▁одежду": 6649,
      "▁морде": 6650,
      "▁умереть": 6651,
      "ложил": 6652,
      "▁девчон": 6653,
      "▁упаков": 6654,
      "▁директора": 6655,
      "▁понравилось": 6656,
      "▁компьютера": 6657,
      "▁помидо": 6658,
      "▁Понимаешь": 6659,
      "подаватель": 6660,
      "кса": 6661,
      "ьем": 6662,
      "▁поигра": 6663,
      "▁дре": 6664,
      "лаг": 6665,
      "▁уй": 6666,
      "▁залез": 6667,
      "▁доби": 6668,
      "довать": 6669,
      "докс": 6670,
      "▁соли": 6671,
      "▁Тур": 6672,
      "▁женского": 6673,
      "▁боти": 6674,
      "сой": 6675,
      "▁пау": 6676,
      "санд": 6677,
      "▁рели": 6678,
      "▁предо": 6679,
      "▁сильный": 6680,
      "▁Лет": 6681,
      "▁Жаль": 6682,
      "▁институ": 6683,
      "▁спрашиваю": 6684,
      "▁концов": 6685,
      "▁полной": 6686,
      "▁правой": 6687,
      "▁Соба": 6688,
      "▁умная": 6689,
      "▁брак": 6690,
      "▁Сижу": 6691,
      "▁отличаются": 6692,
      "▁встречает": 6693,
      "▁украли": 6694,
      "▁убивает": 6695,
      "▁офисе": 6696,
      "летел": 6697,
      "▁ошиба": 6698,
      "▁красный": 6699,
      "▁наполовину": 6700,
      "▁каждое": 6701,
      "▁поезд": 6702,
      "▁анекдот": 6703,
      "▁красоты": 6704,
      "▁журнали": 6705,
      "▁зоопарке": 6706,
      "▁впечатление": 6707,
      "пен": 6708,
      "▁йо": 6709,
      "▁сен": 6710,
      "▁ссы": 6711,
      "колог": 6712,
      "▁полю": 6713,
      "▁завести": 6714,
      "лял": 6715,
      "чером": 6716,
      "▁Побе": 6717,
      "▁сере": 6718,
      "▁извра": 6719,
      "▁буль": 6720,
      "▁решить": 6721,
      "▁мето": 6722,
      "цах": 6723,
      "▁ровно": 6724,
      "▁бассе": 6725,
      "▁милая": 6726,
      "▁Шо": 6727,
      "▁Секрет": 6728,
      "▁черная": 6729,
      "▁красивый": 6730,
      "▁подоб": 6731,
      "▁300": 6732,
      "▁посмотрите": 6733,
      "▁попробо": 6734,
      "▁Украину": 6735,
      "▁Москва": 6736,
      "логов": 6737,
      "▁оргазм": 6738,
      "здрав": 6739,
      "▁торго": 6740,
      "▁создал": 6741,
      "▁выглядеть": 6742,
      "▁кухни": 6743,
      "▁ближай": 6744,
      "▁высоко": 6745,
      "▁участи": 6746,
      "▁70": 6747,
      "▁купю": 6748,
      "лимпий": 6749,
      "▁коррупцией": 6750,
      "▁окружа": 6751,
      "▁черепа": 6752,
      "▁учеб": 6753,
      "Ми": 6754,
      "вная": 6755,
      "жден": 6756,
      "клу": 6757,
      "▁вдо": 6758,
      "▁съем": 6759,
      "роваться": 6760,
      "▁мере": 6761,
      "▁поет": 6762,
      "▁ост": 6763,
      "▁удовлетвор": 6764,
      "▁звер": 6765,
      "▁Слу": 6766,
      "▁Спо": 6767,
      "▁пропу": 6768,
      "▁Крым": 6769,
      "вига": 6770,
      "▁соответ": 6771,
      "чивает": 6772,
      "▁быст": 6773,
      "▁театр": 6774,
      "сия": 6775,
      "▁избира": 6776,
      "▁ниж": 6777,
      "▁Наша": 6778,
      "▁живешь": 6779,
      "зина": 6780,
      "▁Гре": 6781,
      "▁шер": 6782,
      "▁Лон": 6783,
      "▁Доб": 6784,
      "▁расши": 6785,
      "▁Точно": 6786,
      "▁туф": 6787,
      "▁останови": 6788,
      "▁гаранти": 6789,
      "▁верх": 6790,
      "▁твоем": 6791,
      "▁труда": 6792,
      "▁кирпи": 6793,
      "▁имени": 6794,
      "▁форма": 6795,
      "принима": 6796,
      "▁мужику": 6797,
      "▁Рекла": 6798,
      "▁Ребята": 6799,
      "▁родителям": 6800,
      "▁соседка": 6801,
      "▁рассматри": 6802,
      "▁пальто": 6803,
      "▁Дура": 6804,
      "▁войну": 6805,
      "▁штука": 6806,
      "▁Студент": 6807,
      "▁стрипти": 6808,
      "▁порядо": 6809,
      "▁дерьмо": 6810,
      "▁использовать": 6811,
      "▁джентль": 6812,
      "ец": 6813,
      "жкой": 6814,
      "жного": 6815,
      "кнул": 6816,
      "мпу": 6817,
      "пред": 6818,
      "▁сму": 6819,
      "▁уз": 6820,
      "▁учат": 6821,
      "рис": 6822,
      "▁замер": 6823,
      "▁зашел": 6824,
      "▁Пря": 6825,
      "▁Вну": 6826,
      "▁авиа": 6827,
      "▁прожить": 6828,
      "телю": 6829,
      "▁Много": 6830,
      "вишь": 6831,
      "▁причем": 6832,
      "▁соц": 6833,
      "пала": 6834,
      "ческом": 6835,
      "▁Ого": 6836,
      "▁мас": 6837,
      "▁развити": 6838,
      "▁регуляр": 6839,
      "▁вероят": 6840,
      "▁ЗА": 6841,
      "▁куку": 6842,
      "▁лежать": 6843,
      "▁хер": 6844,
      "▁Новая": 6845,
      "▁Хватит": 6846,
      "▁17": 6847,
      "▁пуска": 6848,
      "▁пунк": 6849,
      "▁планет": 6850,
      "▁оставил": 6851,
      "▁остальное": 6852,
      "▁самолета": 6853,
      "фора": 6854,
      "▁чукча": 6855,
      "▁скан": 6856,
      "▁спорта": 6857,
      "вшим": 6858,
      "▁жизнью": 6859,
      "▁семе": 6860,
      "▁обеда": 6861,
      "▁Знаю": 6862,
      "блиоте": 6863,
      "▁занимается": 6864,
      "▁смогу": 6865,
      "▁тысячу": 6866,
      "▁Было": 6867,
      "▁заметку": 6868,
      "▁уроки": 6869,
      "▁рису": 6870,
      "▁многих": 6871,
      "▁осозна": 6872,
      "▁водителя": 6873,
      "▁воздух": 6874,
      "▁изменяет": 6875,
      "▁уровень": 6876,
      "▁лекарство": 6877,
      "▁Моисе": 6878,
      "▁костюм": 6879,
      "▁церковь": 6880,
      "▁рюм": 6881,
      "▁командировки": 6882,
      "▁кризис": 6883,
      "▁посыла": 6884,
      "▁юмора": 6885,
      "▁итоге": 6886,
      "▁ноутбу": 6887,
      "▁дискоте": 6888,
      "Ку": 6889,
      "Ни": 6890,
      "джи": 6891,
      "лению": 6892,
      "пень": 6893,
      "чнее": 6894,
      "▁сэ": 6895,
      "▁сре": 6896,
      "кови": 6897,
      "каи": 6898,
      "▁постра": 6899,
      "▁трет": 6900,
      "▁наступ": 6901,
      "▁бьют": 6902,
      "▁чь": 6903,
      "▁уми": 6904,
      "▁ждешь": 6905,
      "лера": 6906,
      "▁пройти": 6907,
      "тий": 6908,
      "парат": 6909,
      "щина": 6910,
      "▁бутер": 6911,
      "▁даст": 6912,
      "жант": 6913,
      "▁Чита": 6914,
      "▁веду": 6915,
      "▁ведет": 6916,
      "▁лице": 6917,
      "▁ГИ": 6918,
      "▁нету": 6919,
      "▁Ху": 6920,
      "▁Тоже": 6921,
      "▁пута": 6922,
      "▁пузы": 6923,
      "▁вампи": 6924,
      "енец": 6925,
      "▁получа": 6926,
      "▁молоде": 6927,
      "ванный": 6928,
      "▁держит": 6929,
      "▁рубля": 6930,
      "▁глупы": 6931,
      "стями": 6932,
      "▁Бывает": 6933,
      "▁депутатов": 6934,
      "▁добрый": 6935,
      "▁неудоб": 6936,
      "▁грип": 6937,
      "▁минимум": 6938,
      "▁кабинете": 6939,
      "▁любого": 6940,
      "▁огонь": 6941,
      "▁Российские": 6942,
      "▁размера": 6943,
      "демии": 6944,
      "▁Пожалуйста": 6945,
      "▁Александ": 6946,
      "▁неплохо": 6947,
      "▁Встрети": 6948,
      "гета": 6949,
      "диться": 6950,
      "ору": 6951,
      "тся": 6952,
      "▁пут": 6953,
      "▁сц": 6954,
      "▁пош": 6955,
      "▁одол": 6956,
      "▁небе": 6957,
      "▁жут": 6958,
      "▁жаль": 6959,
      "▁отры": 6960,
      "чив": 6961,
      "▁теще": 6962,
      "▁носят": 6963,
      "▁Оби": 6964,
      "▁Олимпиа": 6965,
      "циа": 6966,
      "▁Бро": 6967,
      "▁белый": 6968,
      "▁Зи": 6969,
      "▁рост": 6970,
      "▁спя": 6971,
      "казала": 6972,
      "▁Водитель": 6973,
      "▁Дон": 6974,
      "нимание": 6975,
      "▁Же": 6976,
      "▁контра": 6977,
      "▁остался": 6978,
      "▁песни": 6979,
      "▁спас": 6980,
      "▁Пушки": 6981,
      "▁положение": 6982,
      "▁образ": 6983,
      "▁годами": 6984,
      "▁рубль": 6985,
      "▁хваста": 6986,
      "▁занимаешься": 6987,
      "▁Украин": 6988,
      "▁Беседуют": 6989,
      "▁пытаются": 6990,
      "▁оказалась": 6991,
      "▁литера": 6992,
      "▁операцию": 6993,
      "▁реклама": 6994,
      "▁независи": 6995,
      "▁остановке": 6996,
      "▁области": 6997,
      "▁экзамене": 6998,
      "▁унитаз": 6999,
      "▁ЗАГ": 7000,
      "Бу": 7001,
      "Голо": 7002,
      "Мы": 7003,
      "вью": 7004,
      "жных": 7005,
      "хран": 7006,
      "▁P": 7007,
      "▁сбы": 7008,
      "рас": 7009,
      "▁остав": 7010,
      "▁тему": 7011,
      "▁невы": 7012,
      "настоя": 7013,
      "рук": 7014,
      "▁Вин": 7015,
      "▁Всю": 7016,
      "▁провел": 7017,
      "тиков": 7018,
      "▁гостях": 7019,
      "▁прика": 7020,
      "▁привя": 7021,
      "▁Тре": 7022,
      "шал": 7023,
      "▁будь": 7024,
      "▁даче": 7025,
      "жаются": 7026,
      "▁ребята": 7027,
      "▁Ее": 7028,
      "▁Бра": 7029,
      "жили": 7030,
      "лети": 7031,
      "▁Гей": 7032,
      "▁Вол": 7033,
      "скаки": 7034,
      "▁однок": 7035,
      "▁11": 7036,
      "▁голосом": 7037,
      "▁Програм": 7038,
      "▁сыгра": 7039,
      "▁остальных": 7040,
      "▁Отлично": 7041,
      "▁цели": 7042,
      "▁второе": 7043,
      "▁новостей": 7044,
      "▁шеф": 7045,
      "▁губы": 7046,
      "▁акти": 7047,
      "▁арбу": 7048,
      "▁успеш": 7049,
      "▁имеют": 7050,
      "▁священ": 7051,
      "▁книга": 7052,
      "▁курса": 7053,
      "▁пятый": 7054,
      "▁телевизора": 7055,
      "▁действия": 7056,
      "▁Молодая": 7057,
      "▁косми": 7058,
      "▁газету": 7059,
      "▁собственно": 7060,
      "▁голуб": 7061,
      "▁изобра": 7062,
      "▁уничто": 7063,
      "русски": 7064,
      "▁анекдоты": 7065,
      "▁произошло": 7066,
      "▁Сосед": 7067,
      "▁шанс": 7068,
      "▁отдохнуть": 7069,
      "▁сахар": 7070,
      "▁ГИБ": 7071,
      "ws": 7072,
      "Жен": 7073,
      "вных": 7074,
      "жена": 7075,
      "нтов": 7076,
      "юз": 7077,
      "▁S": 7078,
      "▁пету": 7079,
      "раться": 7080,
      "▁пости": 7081,
      "▁покры": 7082,
      "▁обой": 7083,
      "▁насколько": 7084,
      "▁зме": 7085,
      "▁крити": 7086,
      "дино": 7087,
      "▁гомо": 7088,
      "▁гостей": 7089,
      "▁присла": 7090,
      "▁Обо": 7091,
      "▁массо": 7092,
      "▁макси": 7093,
      "шаю": 7094,
      "бал": 7095,
      "гули": 7096,
      "▁стола": 7097,
      "▁Запом": 7098,
      "ительных": 7099,
      "▁верить": 7100,
      "▁Само": 7101,
      "рюпин": 7102,
      "▁шаг": 7103,
      "▁утрен": 7104,
      "▁подарки": 7105,
      "▁спину": 7106,
      "▁узнали": 7107,
      "▁обои": 7108,
      "▁маленьким": 7109,
      "▁испыта": 7110,
      "▁компли": 7111,
      "▁осень": 7112,
      "▁попросила": 7113,
      "лушайте": 7114,
      "▁увидев": 7115,
      "стям": 7116,
      "▁Однако": 7117,
      "▁спец": 7118,
      "▁курсе": 7119,
      "▁официан": 7120,
      "▁Первая": 7121,
      "▁газете": 7122,
      "▁двоих": 7123,
      "▁презервативов": 7124,
      "▁летать": 7125,
      "▁похороны": 7126,
      "▁салат": 7127,
      "▁стену": 7128,
      "▁Win": 7129,
      "▁Холмс": 7130,
      "▁переимено": 7131,
      "Ва": 7132,
      "Ве": 7133,
      "здно": 7134,
      "крой": 7135,
      "мян": 7136,
      "спита": 7137,
      "▁сня": 7138,
      "▁сети": 7139,
      "▁наве": 7140,
      "лив": 7141,
      "▁неви": 7142,
      "▁указа": 7143,
      "▁заряд": 7144,
      "▁коми": 7145,
      "▁Пси": 7146,
      "▁ау": 7147,
      "▁Спи": 7148,
      "▁выступ": 7149,
      "▁вынужден": 7150,
      "▁отмет": 7151,
      "▁Кстати": 7152,
      "▁тест": 7153,
      "▁девя": 7154,
      "▁ниже": 7155,
      "▁кусо": 7156,
      "▁кусок": 7157,
      "▁превы": 7158,
      "дых": 7159,
      "▁переспа": 7160,
      "▁Коло": 7161,
      "▁Дочь": 7162,
      "▁большую": 7163,
      "ленная": 7164,
      "чую": 7165,
      "▁хорошую": 7166,
      "▁лотере": 7167,
      "дитесь": 7168,
      "▁остались": 7169,
      "▁тридцать": 7170,
      "▁связа": 7171,
      "▁Между": 7172,
      "▁соглас": 7173,
      "▁история": 7174,
      "▁выпуска": 7175,
      "▁упала": 7176,
      "▁Возвра": 7177,
      "▁интернета": 7178,
      "▁подъезда": 7179,
      "▁болезни": 7180,
      "▁заказ": 7181,
      "Когда": 7182,
      "Ответ": 7183,
      "▁Серега": 7184,
      "▁парашют": 7185,
      "▁зрения": 7186,
      "▁сохра": 7187,
      "▁гинеколо": 7188,
      "▁отношений": 7189,
      "▁Дмитрий": 7190,
      "▁Еврей": 7191,
      "судимый": 7192,
      "▁Ржевский": 7193,
      "вна": 7194,
      "вите": 7195,
      "жная": 7196,
      "ису": 7197,
      "пси": 7198,
      "уби": 7199,
      "стка": 7200,
      "▁ию": 7201,
      "лича": 7202,
      "лился": 7203,
      "▁учен": 7204,
      "▁колен": 7205,
      "▁Второй": 7206,
      "мас": 7207,
      "▁ях": 7208,
      "▁Сло": 7209,
      "▁прохо": 7210,
      "▁прошла": 7211,
      "бора": 7212,
      "дость": 7213,
      "▁содержа": 7214,
      "▁соревно": 7215,
      "▁Им": 7216,
      "▁Идут": 7217,
      "▁избе": 7218,
      "▁Нас": 7219,
      "▁мел": 7220,
      "хами": 7221,
      "зови": 7222,
      "▁Роза": 7223,
      "▁Норма": 7224,
      "▁полная": 7225,
      "▁каждом": 7226,
      "▁строго": 7227,
      "▁скажешь": 7228,
      "тельная": 7229,
      "▁ладо": 7230,
      "ворил": 7231,
      "▁начинаю": 7232,
      "▁Бай": 7233,
      "полнен": 7234,
      "▁пылесо": 7235,
      "▁встрече": 7236,
      "▁отвечать": 7237,
      "▁завтрак": 7238,
      "▁читал": 7239,
      "▁роддо": 7240,
      "▁Директор": 7241,
      "▁погода": 7242,
      "▁Чув": 7243,
      "▁Чукча": 7244,
      "▁ужасно": 7245,
      "▁Абрамо": 7246,
      "▁удовольствием": 7247,
      "▁сказки": 7248,
      "▁лежат": 7249,
      "▁брюнет": 7250,
      "▁айфон": 7251,
      "▁виноват": 7252,
      "▁образования": 7253,
      "▁Русский": 7254,
      "▁субботу": 7255,
      "▁корпорати": 7256,
      "▁пистолет": 7257,
      "▁путеше": 7258,
      "▁пользоваться": 7259,
      "▁воскресенье": 7260,
      "▁однокласс": 7261,
      "▁ГИБДД": 7262,
      "er": 7263,
      "Ба": 7264,
      "где": 7265,
      "зить": 7266,
      "кта": 7267,
      "хнул": 7268,
      "щении": 7269,
      "эта": 7270,
      "▁плит": 7271,
      "▁мэ": 7272,
      "▁налоги": 7273,
      "▁непре": 7274,
      "▁уйти": 7275,
      "▁ящик": 7276,
      "▁выде": 7277,
      "можен": 7278,
      "чих": 7279,
      "▁делом": 7280,
      "▁измер": 7281,
      "выря": 7282,
      "▁пан": 7283,
      "гина": 7284,
      "▁виру": 7285,
      "▁висит": 7286,
      "▁Долго": 7287,
      "▁Катя": 7288,
      "суль": 7289,
      "▁16": 7290,
      "ственной": 7291,
      "▁голод": 7292,
      "▁смотрите": 7293,
      "▁пеше": 7294,
      "▁Голо": 7295,
      "рован": 7296,
      "ченные": 7297,
      "приз": 7298,
      "▁поздрав": 7299,
      "▁улицы": 7300,
      "▁такими": 7301,
      "▁встречаются": 7302,
      "▁забыть": 7303,
      "▁жопы": 7304,
      "▁выражение": 7305,
      "▁четырех": 7306,
      "▁зима": 7307,
      "▁зиму": 7308,
      "▁смогли": 7309,
      "▁буквы": 7310,
      "▁готова": 7311,
      "▁милиции": 7312,
      "▁Медведева": 7313,
      "▁Одессе": 7314,
      "▁попробуй": 7315,
      "▁попробуйте": 7316,
      "▁руковод": 7317,
      "▁тараканы": 7318,
      "▁ребенком": 7319,
      "▁предлагает": 7320,
      "▁рецепт": 7321,
      "▁Германии": 7322,
      "дена": 7323,
      "жко": 7324,
      "кци": 7325,
      "лите": 7326,
      "смо": 7327,
      "чков": 7328,
      "шенька": 7329,
      "▁погла": 7330,
      "▁уте": 7331,
      "▁кое": 7332,
      "▁коту": 7333,
      "▁аж": 7334,
      "▁еле": 7335,
      "нешься": 7336,
      "▁моск": 7337,
      "▁прого": 7338,
      "телем": 7339,
      "▁татуи": 7340,
      "▁отре": 7341,
      "▁отрав": 7342,
      "▁воде": 7343,
      "▁Оказалось": 7344,
      "▁Покупа": 7345,
      "▁сестра": 7346,
      "▁Иду": 7347,
      "▁бухать": 7348,
      "▁разум": 7349,
      "сал": 7350,
      "▁санти": 7351,
      "▁Зелен": 7352,
      "летний": 7353,
      "▁роско": 7354,
      "▁Лена": 7355,
      "▁суда": 7356,
      "▁хорошим": 7357,
      "▁представить": 7358,
      "метно": 7359,
      "▁остаться": 7360,
      "▁песо": 7361,
      "планет": 7362,
      "▁автомати": 7363,
      "▁получать": 7364,
      "▁след": 7365,
      "▁умнее": 7366,
      "▁пойдешь": 7367,
      "▁губер": 7368,
      "▁гулять": 7369,
      "▁экспе": 7370,
      "▁достал": 7371,
      "▁имел": 7372,
      "▁закончился": 7373,
      "▁встать": 7374,
      "возь": 7375,
      "▁потерять": 7376,
      "▁показал": 7377,
      "▁опазды": 7378,
      "▁чужой": 7379,
      "лагаю": 7380,
      "▁результат": 7381,
      "▁форме": 7382,
      "ндии": 7383,
      "▁фразы": 7384,
      "креп": 7385,
      "▁журна": 7386,
      "▁трамва": 7387,
      "▁сохран": 7388,
      "▁хвост": 7389,
      "▁похмелья": 7390,
      "▁Ночью": 7391,
      "▁неправильно": 7392,
      "▁Уважаемые": 7393,
      "▁установили": 7394,
      "▁избавиться": 7395,
      "гро": 7396,
      "рете": 7397,
      "риться": 7398,
      "рочно": 7399,
      "▁поки": 7400,
      "▁подой": 7401,
      "▁дик": 7402,
      "стной": 7403,
      "▁нано": 7404,
      "ванию": 7405,
      "▁уметь": 7406,
      "▁злой": 7407,
      "▁зажи": 7408,
      "▁еже": 7409,
      "▁топ": 7410,
      "▁эмо": 7411,
      "▁эконом": 7412,
      "▁выйдет": 7413,
      "боль": 7414,
      "▁соста": 7415,
      "почки": 7416,
      "няка": 7417,
      "▁изменить": 7418,
      "▁парт": 7419,
      "▁белом": 7420,
      "▁старая": 7421,
      "казали": 7422,
      "▁сила": 7423,
      "▁левой": 7424,
      "▁Дома": 7425,
      "▁суде": 7426,
      "▁расстре": 7427,
      "▁перво": 7428,
      "▁перено": 7429,
      "▁перчат": 7430,
      "▁консер": 7431,
      "фика": 7432,
      "▁тупой": 7433,
      "▁Хотя": 7434,
      "▁сделаю": 7435,
      "тельные": 7436,
      "▁Фа": 7437,
      "▁женщинами": 7438,
      "▁грустный": 7439,
      "енности": 7440,
      "▁квадра": 7441,
      "▁мужчинам": 7442,
      "▁колго": 7443,
      "▁дураков": 7444,
      "▁хватило": 7445,
      "▁одес": 7446,
      "▁забыли": 7447,
      "▁терп": 7448,
      "▁свадьба": 7449,
      "▁цену": 7450,
      "▁студента": 7451,
      "▁историю": 7452,
      "▁опас": 7453,
      "▁привычке": 7454,
      "▁шкафу": 7455,
      "▁Марья": 7456,
      "▁успокаи": 7457,
      "▁встретил": 7458,
      "▁необходимо": 7459,
      "Девушка": 7460,
      "▁приятеля": 7461,
      "▁заработать": 7462,
      "▁карантина": 7463,
      "▁Счастье": 7464,
      "▁задум": 7465,
      "▁Попробу": 7466,
      "▁коридо": 7467,
      "▁ветерина": 7468,
      "▁кинотеа": 7469,
      "▁эроти": 7470,
      "dows": 7471,
      "Второй": 7472,
      "лений": 7473,
      "мби": 7474,
      "фы": 7475,
      "торов": 7476,
      "толого": 7477,
      "▁покор": 7478,
      "▁напротив": 7479,
      "низм": 7480,
      "▁запро": 7481,
      "▁застре": 7482,
      "▁заправ": 7483,
      "▁клоу": 7484,
      "руется": 7485,
      "▁Вста": 7486,
      "неса": 7487,
      "сегда": 7488,
      "▁Сви": 7489,
      "▁выру": 7490,
      "▁выходи": 7491,
      "▁доказать": 7492,
      "▁мощ": 7493,
      "▁талант": 7494,
      "▁Кре": 7495,
      "▁сото": 7496,
      "поле": 7497,
      "▁жест": 7498,
      "▁старые": 7499,
      "▁вирус": 7500,
      "▁Эк": 7501,
      "▁Какую": 7502,
      "▁детский": 7503,
      "▁вернулась": 7504,
      "▁труп": 7505,
      "▁пожалуй": 7506,
      "▁подошел": 7507,
      "▁отличие": 7508,
      "▁Хороший": 7509,
      "▁занимаются": 7510,
      "▁прям": 7511,
      "▁найдет": 7512,
      "▁девять": 7513,
      "▁благодар": 7514,
      "▁экономики": 7515,
      "▁углу": 7516,
      "▁здорово": 7517,
      "▁посадить": 7518,
      "▁вспомнить": 7519,
      "▁третьего": 7520,
      "▁поменять": 7521,
      "гнать": 7522,
      "Голос": 7523,
      "настоящему": 7524,
      "Сы": 7525,
      "ллер": 7526,
      "хло": 7527,
      "▁нрави": 7528,
      "▁склады": 7529,
      "стные": 7530,
      "▁награ": 7531,
      "▁налево": 7532,
      "валось": 7533,
      "▁усы": 7534,
      "▁зрите": 7535,
      "дами": 7536,
      "▁едут": 7537,
      "▁яр": 7538,
      "▁выпла": 7539,
      "▁просят": 7540,
      "▁проститу": 7541,
      "▁отдать": 7542,
      "▁откро": 7543,
      "▁отсюда": 7544,
      "▁бывший": 7545,
      "сии": 7546,
      "сист": 7547,
      "зай": 7548,
      "▁маг": 7549,
      "▁села": 7550,
      "▁букет": 7551,
      "▁обру": 7552,
      "▁Бан": 7553,
      "ментов": 7554,
      "▁Водка": 7555,
      "ровки": 7556,
      "▁сумо": 7557,
      "образ": 7558,
      "▁Хотел": 7559,
      "▁детство": 7560,
      "▁песси": 7561,
      "▁будущем": 7562,
      "▁верят": 7563,
      "тельство": 7564,
      "▁молока": 7565,
      "врат": 7566,
      "▁зоо": 7567,
      "▁продавать": 7568,
      "▁считаю": 7569,
      "▁любовница": 7570,
      "▁свинья": 7571,
      "▁испорти": 7572,
      "▁достает": 7573,
      "▁полицию": 7574,
      "▁языком": 7575,
      "▁позвонить": 7576,
      "▁временем": 7577,
      "графии": 7578,
      "▁Лучший": 7579,
      "▁возможности": 7580,
      "▁Возможно": 7581,
      "▁непонят": 7582,
      "▁конфеты": 7583,
      "▁звучит": 7584,
      "▁обезьяны": 7585,
      "▁ветер": 7586,
      "▁Шеф": 7587,
      "▁запретить": 7588,
      "▁плохие": 7589,
      "▁платят": 7590,
      "▁хирур": 7591,
      "▁пациенту": 7592,
      "▁яйцо": 7593,
      "нальд": 7594,
      "▁Слышал": 7595,
      "бке": 7596,
      "вь": 7597,
      "гнуть": 7598,
      "мем": 7599,
      "твер": 7600,
      "уго": 7601,
      "чений": 7602,
      "юме": 7603,
      "ющего": 7604,
      "▁съез": 7605,
      "комат": 7606,
      "рон": 7607,
      "ново": 7608,
      "▁наступает": 7609,
      "▁бьет": 7610,
      "рие": 7611,
      "▁засо": 7612,
      "▁записа": 7613,
      "▁защит": 7614,
      "нышко": 7615,
      "▁крем": 7616,
      "▁ат": 7617,
      "▁касси": 7618,
      "▁рад": 7619,
      "▁точки": 7620,
      "▁доволь": 7621,
      "вере": 7622,
      "▁Тер": 7623,
      "▁деви": 7624,
      "▁деби": 7625,
      "▁разви": 7626,
      "бых": 7627,
      "▁бегать": 7628,
      "▁курт": 7629,
      "бура": 7630,
      "зили": 7631,
      "▁мышь": 7632,
      "▁возника": 7633,
      "▁сково": 7634,
      "▁скотина": 7635,
      "▁полтора": 7636,
      "▁муль": 7637,
      "▁твоим": 7638,
      "▁сделает": 7639,
      "▁парнем": 7640,
      "▁утю": 7641,
      "▁удается": 7642,
      "▁отличить": 7643,
      "▁Весь": 7644,
      "▁страшного": 7645,
      "▁одежды": 7646,
      "▁евреев": 7647,
      "▁скле": 7648,
      "▁проигра": 7649,
      "▁средства": 7650,
      "▁позволить": 7651,
      "▁позволяет": 7652,
      "▁игро": 7653,
      "▁горло": 7654,
      "▁цирк": 7655,
      "▁Европе": 7656,
      "▁охран": 7657,
      "▁коронавирус": 7658,
      "держивает": 7659,
      "▁колбасу": 7660,
      "▁поднимает": 7661,
      "▁построить": 7662,
      "▁документы": 7663,
      "▁концер": 7664,
      "▁мороженое": 7665,
      "▁Windows": 7666,
      "Бе": 7667,
      "Ме": 7668,
      "вень": 7669,
      "дной": 7670,
      "жер": 7671,
      "рене": 7672,
      "▁щ": 7673,
      "▁сдал": 7674,
      "тона": 7675,
      "▁оке": 7676,
      "▁опы": 7677,
      "▁намер": 7678,
      "лаз": 7679,
      "▁умуд": 7680,
      "лочки": 7681,
      "▁заменить": 7682,
      "▁каба": 7683,
      "▁доступ": 7684,
      "вина": 7685,
      "▁приезжа": 7686,
      "▁созна": 7687,
      "пали": 7688,
      "бери": 7689,
      "▁бог": 7690,
      "▁перепи": 7691,
      "зывать": 7692,
      "ссий": 7693,
      "▁видом": 7694,
      "▁банки": 7695,
      "▁Кому": 7696,
      "▁хро": 7697,
      "▁расстро": 7698,
      "▁лучшая": 7699,
      "▁вернуться": 7700,
      "▁Сов": 7701,
      "▁положил": 7702,
      "▁парни": 7703,
      "альную": 7704,
      "арде": 7705,
      "ллиан": 7706,
      "▁клавиа": 7707,
      "▁красивых": 7708,
      "▁держите": 7709,
      "▁звонить": 7710,
      "▁исправ": 7711,
      "▁дурака": 7712,
      "▁успешно": 7713,
      "▁вставать": 7714,
      "трез": 7715,
      "▁Первое": 7716,
      "▁принце": 7717,
      "▁мечтает": 7718,
      "▁погоды": 7719,
      "▁отдыхать": 7720,
      "▁Правительство": 7721,
      "резать": 7722,
      "▁искрен": 7723,
      "▁надоело": 7724,
      "▁взятки": 7725,
      "▁эффектив": 7726,
      "▁анге": 7727,
      "▁Китае": 7728,
      "▁сериа": 7729,
      "▁Диалог": 7730,
      "Тот": 7731,
      "змом": 7732,
      "ологи": 7733,
      "плом": 7734,
      "рные": 7735,
      "рения": 7736,
      "служ": 7737,
      "чными": 7738,
      "яют": 7739,
      "▁M": 7740,
      "▁петь": 7741,
      "▁сном": 7742,
      "коле": 7743,
      "▁пожела": 7744,
      "▁трой": 7745,
      "▁наста": 7746,
      "▁натура": 7747,
      "▁уехал": 7748,
      "▁зон": 7749,
      "▁Пенси": 7750,
      "хот": 7751,
      "▁каш": 7752,
      "▁ран": 7753,
      "деся": 7754,
      "чался": 7755,
      "▁приклю": 7756,
      "чиком": 7757,
      "▁ТВ": 7758,
      "▁гим": 7759,
      "▁Полу": 7760,
      "▁Подож": 7761,
      "▁Узна": 7762,
      "▁любую": 7763,
      "▁сайте": 7764,
      "▁револю": 7765,
      "▁Давно": 7766,
      "▁Бил": 7767,
      "ссию": 7768,
      "сывает": 7769,
      "▁Хи": 7770,
      "ступить": 7771,
      "▁прапорщик": 7772,
      "▁самолете": 7773,
      "▁диете": 7774,
      "дях": 7775,
      "▁трусах": 7776,
      "▁русском": 7777,
      "▁маленькой": 7778,
      "▁дураки": 7779,
      "полн": 7780,
      "▁Бело": 7781,
      "▁молчит": 7782,
      "▁накор": 7783,
      "▁фильмы": 7784,
      "▁аппет": 7785,
      "▁автомобили": 7786,
      "▁родилась": 7787,
      "▁производите": 7788,
      "▁сообщение": 7789,
      "▁радость": 7790,
      "▁мечтал": 7791,
      "▁рисо": 7792,
      "▁стесня": 7793,
      "▁туалетной": 7794,
      "▁депутат": 7795,
      "▁рекламу": 7796,
      "▁профессор": 7797,
      "▁стоял": 7798,
      "▁Интернете": 7799,
      "▁Америку": 7800,
      "▁куплю": 7801,
      "Доктор": 7802,
      "▁военкома": 7803,
      "▁ищут": 7804,
      "▁сказку": 7805,
      "▁гороско": 7806,
      "▁Земля": 7807,
      "▁логика": 7808,
      "▁поцелу": 7809,
      "▁Думаю": 7810,
      "▁тюрьме": 7811,
      "▁айфо": 7812,
      "▁нынеш": 7813,
      "▁пароль": 7814,
      "▁джинсы": 7815,
      "▁центре": 7816,
      "▁Благодаря": 7817,
      "▁внезапно": 7818,
      "▁трамвае": 7819,
      "Кто": 7820,
      "рной": 7821,
      "рного": 7822,
      "▁претен": 7823,
      "кала": 7824,
      "▁попыта": 7825,
      "▁дне": 7826,
      "▁ока": 7827,
      "▁оцен": 7828,
      "вами": 7829,
      "ланд": 7830,
      "▁учит": 7831,
      "вот": 7832,
      "кия": 7833,
      "лел": 7834,
      "▁Взя": 7835,
      "▁Нем": 7836,
      "▁агре": 7837,
      "▁камер": 7838,
      "▁Спе": 7839,
      "▁прокуро": 7840,
      "тира": 7841,
      "▁привлека": 7842,
      "сился": 7843,
      "честву": 7844,
      "▁Тя": 7845,
      "▁вакци": 7846,
      "▁Иису": 7847,
      "▁пачку": 7848,
      "▁сау": 7849,
      "▁реали": 7850,
      "тыми": 7851,
      "▁весы": 7852,
      "▁вибра": 7853,
      "▁Закон": 7854,
      "первых": 7855,
      "▁стран": 7856,
      "▁полков": 7857,
      "▁Прос": 7858,
      "▁Просыпа": 7859,
      "▁Самые": 7860,
      "нутся": 7861,
      "▁грустно": 7862,
      "▁трево": 7863,
      "▁Секс": 7864,
      "▁школь": 7865,
      "▁соседу": 7866,
      "▁короче": 7867,
      "▁свидании": 7868,
      "▁Будь": 7869,
      "▁страшный": 7870,
      "▁устал": 7871,
      "▁найден": 7872,
      "▁американцы": 7873,
      "смотря": 7874,
      "▁поставили": 7875,
      "▁земля": 7876,
      "▁Рабинови": 7877,
      "▁любом": 7878,
      "▁танце": 7879,
      "▁отношениях": 7880,
      "▁готовы": 7881,
      "▁огромный": 7882,
      "▁группа": 7883,
      "такте": 7884,
      "▁Циля": 7885,
      "дное": 7886,
      "ишься": 7887,
      "йт": 7888,
      "сное": 7889,
      "тят": 7890,
      "▁i": 7891,
      "▁еру": 7892,
      "▁вру": 7893,
      "енная": 7894,
      "▁покра": 7895,
      "▁офор": 7896,
      "годи": 7897,
      "▁нечем": 7898,
      "▁нелов": 7899,
      "▁уважа": 7900,
      "▁здра": 7901,
      "дай": 7902,
      "▁заба": 7903,
      "дию": 7904,
      "дило": 7905,
      "▁дое": 7906,
      "вейца": 7907,
      "зав": 7908,
      "луши": 7909,
      "▁сель": 7910,
      "▁пап": 7911,
      "пинг": 7912,
      "▁дав": 7913,
      "▁самую": 7914,
      "▁Еги": 7915,
      "▁подтвер": 7916,
      "▁беда": 7917,
      "▁купе": 7918,
      "цара": 7919,
      "▁руж": 7920,
      "щание": 7921,
      "▁пиц": 7922,
      "▁стены": 7923,
      "▁трудом": 7924,
      "фель": 7925,
      "▁уснуть": 7926,
      "▁Шу": 7927,
      "альным": 7928,
      "ждать": 7929,
      "▁фона": 7930,
      "▁спиной": 7931,
      "▁колени": 7932,
      "▁холостя": 7933,
      "▁играли": 7934,
      "▁техно": 7935,
      "▁Вечером": 7936,
      "▁библиоте": 7937,
      "берите": 7938,
      "▁пятьдесят": 7939,
      "▁днях": 7940,
      "▁удивля": 7941,
      "▁наркоман": 7942,
      "▁смысла": 7943,
      "▁девочек": 7944,
      "▁хули": 7945,
      "▁идея": 7946,
      "▁благодаря": 7947,
      "▁совету": 7948,
      "▁государства": 7949,
      "▁местах": 7950,
      "▁изобрели": 7951,
      "▁начнет": 7952,
      "▁показывать": 7953,
      "▁превращается": 7954,
      "▁предложили": 7955,
      "ступили": 7956,
      "▁взгляд": 7957,
      "▁лекарства": 7958,
      "▁образование": 7959,
      "▁Навального": 7960,
      "▁статистике": 7961,
      "▁Твоя": 7962,
      "следования": 7963,
      "▁отечествен": 7964,
      "▁апреля": 7965,
      "масшед": 7966,
      "▁задумчиво": 7967,
      "Пу": 7968,
      "дром": 7969,
      "евич": 7970,
      "зю": 7971,
      "чта": 7972,
      "шни": 7973,
      "енные": 7974,
      "▁попо": 7975,
      "▁потреб": 7976,
      "▁одет": 7977,
      "▁накры": 7978,
      "▁наступил": 7979,
      "лица": 7980,
      "▁чей": 7981,
      "▁ука": 7982,
      "▁уволь": 7983,
      "▁уходят": 7984,
      "▁зят": 7985,
      "рились": 7986,
      "▁задумы": 7987,
      "▁прочитал": 7988,
      "▁таре": 7989,
      "▁воров": 7990,
      "ляются": 7991,
      "гала": 7992,
      "чее": 7993,
      "▁Иго": 7994,
      "шат": 7995,
      "▁развести": 7996,
      "▁размно": 7997,
      "▁обли": 7998,
      "▁подво": 7999
    },
    "merges": [
      [
        "▁",
        "п"
      ],
      [
        "▁",
        "н"
      ],
      [
        "▁",
        "в"
      ],
      [
        "▁",
        "с"
      ],
      [
        "т",
        "о"
      ],
      [
        "р",
        "а"
      ],
      [
        "е",
        "т"
      ],
      [
        "к",
        "о"
      ],
      [
        "е",
        "н"
      ],
      [
        "р",
        "о"
      ],
      [
        "к",
        "а"
      ],
      [
        "▁",
        "м"
      ],
      [
        "▁п",
        "о"
      ],
      [
        "▁",
        "д"
      ],
      [
        "▁",
        "о"
      ],
      [
        "н",
        "о"
      ],
      [
        "с",
        "т"
      ],
      [
        "▁",
        "и"
      ],
      [
        "и",
        "т"
      ],
      [
        "г",
        "о"
      ],
      [
        "▁",
        "т"
      ],
      [
        "▁н",
        "а"
      ],
      [
        "л",
        "и"
      ],
      [
        "▁",
        "б"
      ],
      [
        "в",
        "а"
      ],
      [
        "▁",
        "ч"
      ],
      [
        "▁н",
        "е"
      ],
      [
        "р",
        "е"
      ],
      [
        "л",
        "а"
      ],
      [
        "▁",
        "у"
      ],
      [
        "л",
        "о"
      ],
      [
        "▁",
        "з"
      ],
      [
        "н",
        "а"
      ],
      [
        "л",
        "ь"
      ],
      [
        "в",
        "о"
      ],
      [
        "н",
        "и"
      ],
      [
        "р",
        "и"
      ],
      [
        "с",
        "я"
      ],
      [
        "д",
        "а"
      ],
      [
        "т",
        "ь"
      ],
      [
        "к",
        "и"
      ],
      [
        "е",
        "р"
      ],
      [
        "е",
        "м"
      ],
      [
        "▁ч",
        "то"
      ],
      [
        "▁з",
        "а"
      ],
      [
        "н",
        "ы"
      ],
      [
        "▁",
        "ко"
      ],
      [
        "▁",
        "к"
      ],
      [
        "▁",
        "ж"
      ],
      [
        "р",
        "у"
      ],
      [
        "▁",
        "П"
      ],
      [
        "л",
        "е"
      ],
      [
        "▁",
        "В"
      ],
      [
        "▁",
        "Н"
      ],
      [
        "х",
        "о"
      ],
      [
        "▁",
        "а"
      ],
      [
        "▁",
        "е"
      ],
      [
        "н",
        "е"
      ],
      [
        "▁",
        "ка"
      ],
      [
        "м",
        "а"
      ],
      [
        "т",
        "а"
      ],
      [
        "▁",
        "ра"
      ],
      [
        "д",
        "е"
      ],
      [
        "▁",
        "то"
      ],
      [
        "▁",
        "э"
      ],
      [
        "д",
        "и"
      ],
      [
        "с",
        "е"
      ],
      [
        "▁",
        "я"
      ],
      [
        "▁",
        "С"
      ],
      [
        "▁в",
        "ы"
      ],
      [
        "▁д",
        "о"
      ],
      [
        "к",
        "у"
      ],
      [
        "▁м",
        "о"
      ],
      [
        "▁п",
        "ро"
      ],
      [
        "т",
        "и"
      ],
      [
        "м",
        "о"
      ],
      [
        "▁",
        "Д"
      ],
      [
        "т",
        "е"
      ],
      [
        "б",
        "о"
      ],
      [
        "▁",
        "А"
      ],
      [
        "с",
        "ь"
      ],
      [
        "ит",
        "ь"
      ],
      [
        "д",
        "о"
      ],
      [
        "м",
        "и"
      ],
      [
        "в",
        "е"
      ],
      [
        "▁т",
        "а"
      ],
      [
        "▁о",
        "т"
      ],
      [
        "▁",
        "М"
      ],
      [
        "▁в",
        "о"
      ],
      [
        "▁",
        "го"
      ],
      [
        "▁",
        "К"
      ],
      [
        "у",
        "ж"
      ],
      [
        "в",
        "и"
      ],
      [
        "ч",
        "а"
      ],
      [
        "л",
        "я"
      ],
      [
        "г",
        "а"
      ],
      [
        "ш",
        "е"
      ],
      [
        "▁п",
        "ри"
      ],
      [
        "▁с",
        "о"
      ],
      [
        "н",
        "у"
      ],
      [
        "ч",
        "и"
      ],
      [
        "▁э",
        "то"
      ],
      [
        "▁б",
        "ы"
      ],
      [
        "▁т",
        "е"
      ],
      [
        "ен",
        "и"
      ],
      [
        "ш",
        "ь"
      ],
      [
        "с",
        "и"
      ],
      [
        "д",
        "у"
      ],
      [
        "ш",
        "и"
      ],
      [
        "▁н",
        "о"
      ],
      [
        "п",
        "а"
      ],
      [
        "ю",
        "т"
      ],
      [
        "ч",
        "е"
      ],
      [
        "з",
        "а"
      ],
      [
        "л",
        "ю"
      ],
      [
        "г",
        "да"
      ],
      [
        "ит",
        "е"
      ],
      [
        "▁",
        "Т"
      ],
      [
        "л",
        "у"
      ],
      [
        "▁",
        "г"
      ],
      [
        "ст",
        "а"
      ],
      [
        "п",
        "о"
      ],
      [
        "▁д",
        "е"
      ],
      [
        "р",
        "ы"
      ],
      [
        "▁",
        "О"
      ],
      [
        "▁в",
        "се"
      ],
      [
        "ж",
        "е"
      ],
      [
        "▁т",
        "ы"
      ],
      [
        "▁П",
        "о"
      ],
      [
        "ен",
        "ь"
      ],
      [
        "▁",
        "хо"
      ],
      [
        "▁ка",
        "к"
      ],
      [
        "с",
        "то"
      ],
      [
        "щ",
        "и"
      ],
      [
        "▁м",
        "а"
      ],
      [
        "б",
        "е"
      ],
      [
        "н",
        "я"
      ],
      [
        "ст",
        "ь"
      ],
      [
        "▁с",
        "е"
      ],
      [
        "в",
        "у"
      ],
      [
        "▁в",
        "а"
      ],
      [
        "м",
        "у"
      ],
      [
        "▁ж",
        "ен"
      ],
      [
        "ет",
        "ся"
      ],
      [
        "щ",
        "е"
      ],
      [
        "▁",
        "И"
      ],
      [
        "е",
        "ре"
      ],
      [
        "▁и",
        "з"
      ],
      [
        "▁б",
        "о"
      ],
      [
        "м",
        "е"
      ],
      [
        "в",
        "ы"
      ],
      [
        "с",
        "о"
      ],
      [
        "ен",
        "я"
      ],
      [
        "ш",
        "а"
      ],
      [
        "ц",
        "и"
      ],
      [
        "▁б",
        "у"
      ],
      [
        "ны",
        "й"
      ],
      [
        "с",
        "ли"
      ],
      [
        "▁ра",
        "з"
      ],
      [
        "б",
        "ы"
      ],
      [
        "ко",
        "й"
      ],
      [
        "б",
        "и"
      ],
      [
        "ем",
        "у"
      ],
      [
        "▁н",
        "и"
      ],
      [
        "ль",
        "ко"
      ],
      [
        "▁п",
        "а"
      ],
      [
        "п",
        "и"
      ],
      [
        "с",
        "а"
      ],
      [
        "с",
        "ки"
      ],
      [
        "▁",
        "Р"
      ],
      [
        "▁м",
        "уж"
      ],
      [
        "▁д",
        "а"
      ],
      [
        "▁",
        "Я"
      ],
      [
        "г",
        "и"
      ],
      [
        "▁",
        "У"
      ],
      [
        "я",
        "т"
      ],
      [
        "▁м",
        "еня"
      ],
      [
        "к",
        "е"
      ],
      [
        "ж",
        "а"
      ],
      [
        "но",
        "й"
      ],
      [
        "▁о",
        "б"
      ],
      [
        "ст",
        "и"
      ],
      [
        "▁",
        "лю"
      ],
      [
        "▁",
        "Ч"
      ],
      [
        "▁с",
        "а"
      ],
      [
        "ет",
        "е"
      ],
      [
        "▁",
        "ре"
      ],
      [
        "▁Д",
        "а"
      ],
      [
        "▁Н",
        "а"
      ],
      [
        "▁",
        "Е"
      ],
      [
        "▁по",
        "д"
      ],
      [
        "б",
        "а"
      ],
      [
        "б",
        "я"
      ],
      [
        "во",
        "р"
      ],
      [
        "▁",
        "Б"
      ],
      [
        "▁",
        "ф"
      ],
      [
        "т",
        "ы"
      ],
      [
        "▁с",
        "во"
      ],
      [
        "ж",
        "и"
      ],
      [
        "а",
        "к"
      ],
      [
        "▁б",
        "е"
      ],
      [
        "л",
        "ы"
      ],
      [
        "ва",
        "ть"
      ],
      [
        "т",
        "у"
      ],
      [
        "▁ж",
        "е"
      ],
      [
        "▁в",
        "е"
      ],
      [
        "хо",
        "д"
      ],
      [
        "▁та",
        "к"
      ],
      [
        "▁",
        "З"
      ],
      [
        "▁к",
        "у"
      ],
      [
        "▁з",
        "на"
      ],
      [
        "ль",
        "но"
      ],
      [
        "▁п",
        "ре"
      ],
      [
        "▁ко",
        "гда"
      ],
      [
        "л",
        "ся"
      ],
      [
        "е",
        "й"
      ],
      [
        "д",
        "ет"
      ],
      [
        "▁ч",
        "е"
      ],
      [
        "▁м",
        "не"
      ],
      [
        "▁м",
        "е"
      ],
      [
        "▁о",
        "н"
      ],
      [
        "е",
        "шь"
      ],
      [
        "у",
        "т"
      ],
      [
        "▁с",
        "та"
      ],
      [
        "ва",
        "ет"
      ],
      [
        "ц",
        "а"
      ],
      [
        "б",
        "у"
      ],
      [
        "д",
        "ы"
      ],
      [
        "ны",
        "е"
      ],
      [
        "л",
        "ет"
      ],
      [
        "с",
        "ко"
      ],
      [
        "▁ж",
        "и"
      ],
      [
        "р",
        "я"
      ],
      [
        "▁",
        "ро"
      ],
      [
        "▁с",
        "п"
      ],
      [
        "на",
        "я"
      ],
      [
        "▁",
        "ру"
      ],
      [
        "но",
        "го"
      ],
      [
        "▁п",
        "ере"
      ],
      [
        "т",
        "ра"
      ],
      [
        "▁",
        "ли"
      ],
      [
        "х",
        "а"
      ],
      [
        "д",
        "ь"
      ],
      [
        "з",
        "ы"
      ],
      [
        "в",
        "ер"
      ],
      [
        "с",
        "си"
      ],
      [
        "м",
        "ен"
      ],
      [
        "▁в",
        "и"
      ],
      [
        "▁Н",
        "е"
      ],
      [
        "з",
        "и"
      ],
      [
        "▁б",
        "а"
      ],
      [
        "ит",
        "а"
      ],
      [
        "▁мо",
        "ж"
      ],
      [
        "▁по",
        "с"
      ],
      [
        "▁го",
        "вор"
      ],
      [
        "▁д",
        "ру"
      ],
      [
        "г",
        "у"
      ],
      [
        "▁",
        "Г"
      ],
      [
        "ц",
        "е"
      ],
      [
        "▁ко",
        "то"
      ],
      [
        "ч",
        "ему"
      ],
      [
        "ка",
        "за"
      ],
      [
        "▁В",
        "о"
      ],
      [
        "▁К",
        "о"
      ],
      [
        "▁м",
        "и"
      ],
      [
        "ра",
        "в"
      ],
      [
        "▁то",
        "лько"
      ],
      [
        "ени",
        "е"
      ],
      [
        "▁Н",
        "у"
      ],
      [
        "▁с",
        "и"
      ],
      [
        "н",
        "ь"
      ],
      [
        "м",
        "ы"
      ],
      [
        "▁",
        "ш"
      ],
      [
        "▁е",
        "го"
      ],
      [
        "з",
        "о"
      ],
      [
        "▁те",
        "бя"
      ],
      [
        "▁ра",
        "бо"
      ],
      [
        "▁с",
        "то"
      ],
      [
        "ч",
        "но"
      ],
      [
        "с",
        "ка"
      ],
      [
        "▁М",
        "о"
      ],
      [
        "щ",
        "а"
      ],
      [
        "▁Е",
        "сли"
      ],
      [
        "▁",
        "Э"
      ],
      [
        "▁",
        "Л"
      ],
      [
        "ени",
        "я"
      ],
      [
        "▁у",
        "же"
      ],
      [
        "▁жен",
        "щи"
      ],
      [
        "▁о",
        "д"
      ],
      [
        "в",
        "ет"
      ],
      [
        "▁д",
        "у"
      ],
      [
        "▁",
        "ле"
      ],
      [
        "▁М",
        "а"
      ],
      [
        "▁",
        "х"
      ],
      [
        "ш",
        "ка"
      ],
      [
        "ло",
        "ве"
      ],
      [
        "▁Д",
        "о"
      ],
      [
        "▁е",
        "ще"
      ],
      [
        "ди",
        "н"
      ],
      [
        "▁Ч",
        "то"
      ],
      [
        "п",
        "у"
      ],
      [
        "п",
        "е"
      ],
      [
        "то",
        "м"
      ],
      [
        "▁бо",
        "ль"
      ],
      [
        "▁что",
        "бы"
      ],
      [
        "ны",
        "х"
      ],
      [
        "ни",
        "ма"
      ],
      [
        "к",
        "то"
      ],
      [
        "▁п",
        "и"
      ],
      [
        "▁м",
        "ы"
      ],
      [
        "мо",
        "т"
      ],
      [
        "▁е",
        "сли"
      ],
      [
        "ро",
        "в"
      ],
      [
        "▁д",
        "ля"
      ],
      [
        "ко",
        "м"
      ],
      [
        "▁Р",
        "о"
      ],
      [
        "ро",
        "м"
      ],
      [
        "г",
        "ра"
      ],
      [
        "р",
        "ет"
      ],
      [
        "ч",
        "ка"
      ],
      [
        "▁ва",
        "с"
      ],
      [
        "ход",
        "ит"
      ],
      [
        "▁о",
        "на"
      ],
      [
        "но",
        "е"
      ],
      [
        "▁",
        "Ж"
      ],
      [
        "ст",
        "во"
      ],
      [
        "▁н",
        "ет"
      ],
      [
        "л",
        "ен"
      ],
      [
        "но",
        "в"
      ],
      [
        "▁е",
        "сть"
      ],
      [
        "▁Н",
        "о"
      ],
      [
        "▁д",
        "ень"
      ],
      [
        "▁Т",
        "ы"
      ],
      [
        "▁В",
        "ы"
      ],
      [
        "ре",
        "м"
      ],
      [
        "▁че",
        "лове"
      ],
      [
        "▁З",
        "а"
      ],
      [
        "с",
        "ы"
      ],
      [
        "ни",
        "к"
      ],
      [
        "п",
        "ро"
      ],
      [
        "▁с",
        "у"
      ],
      [
        "ть",
        "ся"
      ],
      [
        "▁К",
        "ак"
      ],
      [
        "ко",
        "в"
      ],
      [
        "п",
        "ер"
      ],
      [
        "й",
        "те"
      ],
      [
        "▁говор",
        "ит"
      ],
      [
        "▁до",
        "л"
      ],
      [
        "▁",
        "Х"
      ],
      [
        "▁ч",
        "а"
      ],
      [
        "ч",
        "у"
      ],
      [
        "▁К",
        "а"
      ],
      [
        "▁Э",
        "то"
      ],
      [
        "▁ра",
        "с"
      ],
      [
        "ла",
        "сь"
      ],
      [
        "к",
        "ра"
      ],
      [
        "с",
        "у"
      ],
      [
        "▁Н",
        "ет"
      ],
      [
        "▁ч",
        "ем"
      ],
      [
        "ва",
        "ют"
      ],
      [
        "ли",
        "сь"
      ],
      [
        "▁В",
        "а"
      ],
      [
        "▁де",
        "ла"
      ],
      [
        "ч",
        "ень"
      ],
      [
        "▁жи",
        "з"
      ],
      [
        "▁те",
        "бе"
      ],
      [
        "ен",
        "а"
      ],
      [
        "во",
        "й"
      ],
      [
        "го",
        "д"
      ],
      [
        "▁к",
        "то"
      ],
      [
        "ст",
        "в"
      ],
      [
        "ит",
        "ся"
      ],
      [
        "то",
        "му"
      ],
      [
        "з",
        "на"
      ],
      [
        "▁пос",
        "ле"
      ],
      [
        "з",
        "у"
      ],
      [
        "о",
        "б"
      ],
      [
        "ни",
        "е"
      ],
      [
        "ш",
        "о"
      ],
      [
        "ло",
        "сь"
      ],
      [
        "ра",
        "ши"
      ],
      [
        "▁на",
        "с"
      ],
      [
        "▁и",
        "н"
      ],
      [
        "▁е",
        "е"
      ],
      [
        "чи",
        "на"
      ],
      [
        "о",
        "н"
      ],
      [
        "ны",
        "м"
      ],
      [
        "▁де",
        "ву"
      ],
      [
        "▁Ро",
        "сси"
      ],
      [
        "▁во",
        "з"
      ],
      [
        "▁кото",
        "ры"
      ],
      [
        "вы",
        "й"
      ],
      [
        "в",
        "но"
      ],
      [
        "ь",
        "я"
      ],
      [
        "м",
        "ер"
      ],
      [
        "лу",
        "ч"
      ],
      [
        "ите",
        "ль"
      ],
      [
        "▁о",
        "ни"
      ],
      [
        "▁с",
        "тра"
      ],
      [
        "▁п",
        "ер"
      ],
      [
        "▁сп",
        "раши"
      ],
      [
        "ски",
        "й"
      ],
      [
        "▁хо",
        "ро"
      ],
      [
        "ч",
        "ь"
      ],
      [
        "▁по",
        "чему"
      ],
      [
        "▁П",
        "ри"
      ],
      [
        "з",
        "я"
      ],
      [
        "▁бу",
        "дет"
      ],
      [
        "ка",
        "я"
      ],
      [
        "▁и",
        "ли"
      ],
      [
        "▁ко",
        "н"
      ],
      [
        "▁Т",
        "о"
      ],
      [
        "▁в",
        "рем"
      ],
      [
        "▁",
        "лет"
      ],
      [
        "▁мож",
        "но"
      ],
      [
        "ну",
        "ю"
      ],
      [
        "с",
        "по"
      ],
      [
        "ют",
        "ся"
      ],
      [
        "ф",
        "и"
      ],
      [
        "т",
        "ер"
      ],
      [
        "д",
        "ен"
      ],
      [
        "▁с",
        "каза"
      ],
      [
        "ста",
        "в"
      ],
      [
        "ч",
        "ит"
      ],
      [
        "ст",
        "у"
      ],
      [
        "ст",
        "е"
      ],
      [
        "▁к",
        "ра"
      ],
      [
        "▁т",
        "у"
      ],
      [
        "▁с",
        "ло"
      ],
      [
        "▁",
        "1"
      ],
      [
        "де",
        "ла"
      ],
      [
        "ж",
        "у"
      ],
      [
        "но",
        "м"
      ],
      [
        "год",
        "ня"
      ],
      [
        "▁и",
        "х"
      ],
      [
        "ить",
        "ся"
      ],
      [
        "▁д",
        "ва"
      ],
      [
        "▁на",
        "до"
      ],
      [
        "▁бе",
        "з"
      ],
      [
        "ше",
        "л"
      ],
      [
        "то",
        "в"
      ],
      [
        "▁Р",
        "а"
      ],
      [
        "▁бы",
        "ло"
      ],
      [
        "▁П",
        "а"
      ],
      [
        "че",
        "ра"
      ],
      [
        "д",
        "ит"
      ],
      [
        "▁с",
        "ко"
      ],
      [
        "ств",
        "ен"
      ],
      [
        "▁про",
        "сто"
      ],
      [
        "ва",
        "л"
      ],
      [
        "▁та",
        "м"
      ],
      [
        "▁пре",
        "д"
      ],
      [
        "б",
        "ра"
      ],
      [
        "н",
        "ет"
      ],
      [
        "к",
        "ры"
      ],
      [
        "▁М",
        "уж"
      ],
      [
        "▁Д",
        "е"
      ],
      [
        "пер",
        "ь"
      ],
      [
        "▁по",
        "л"
      ],
      [
        "▁жен",
        "а"
      ],
      [
        "▁п",
        "ра"
      ],
      [
        "ц",
        "ы"
      ],
      [
        "▁п",
        "у"
      ],
      [
        "▁п",
        "ла"
      ],
      [
        "кто",
        "р"
      ],
      [
        "▁ва",
        "м"
      ],
      [
        "▁о",
        "чень"
      ],
      [
        "▁го",
        "ло"
      ],
      [
        "д",
        "но"
      ],
      [
        "▁во",
        "т"
      ],
      [
        "▁П",
        "ро"
      ],
      [
        "ци",
        "и"
      ],
      [
        "▁врем",
        "я"
      ],
      [
        "ни",
        "я"
      ],
      [
        "▁ко",
        "м"
      ],
      [
        "▁По",
        "чему"
      ],
      [
        "ки",
        "е"
      ],
      [
        "▁",
        "ло"
      ],
      [
        "я",
        "ть"
      ],
      [
        "▁ка",
        "ж"
      ],
      [
        "▁н",
        "уж"
      ],
      [
        "мо",
        "й"
      ],
      [
        "ва",
        "я"
      ],
      [
        "▁Х",
        "о"
      ],
      [
        "▁ду",
        "ма"
      ],
      [
        "и",
        "к"
      ],
      [
        "▁г",
        "ла"
      ],
      [
        "▁г",
        "де"
      ],
      [
        "ко",
        "е"
      ],
      [
        "ра",
        "н"
      ],
      [
        "▁боль",
        "ше"
      ],
      [
        "▁бы",
        "л"
      ],
      [
        "д",
        "ите"
      ],
      [
        "ен",
        "е"
      ],
      [
        "▁мож",
        "ет"
      ],
      [
        "ро",
        "й"
      ],
      [
        "м",
        "ет"
      ],
      [
        "че",
        "го"
      ],
      [
        "сто",
        "я"
      ],
      [
        "в",
        "то"
      ],
      [
        "п",
        "ы"
      ],
      [
        "▁с",
        "мот"
      ],
      [
        "▁с",
        "ы"
      ],
      [
        "▁о",
        "ста"
      ],
      [
        "ж",
        "но"
      ],
      [
        "ст",
        "ре"
      ],
      [
        "с",
        "к"
      ],
      [
        "ле",
        "й"
      ],
      [
        "е",
        "з"
      ],
      [
        "▁спраши",
        "вает"
      ],
      [
        "▁с",
        "т"
      ],
      [
        "▁Ко",
        "гда"
      ],
      [
        "ни",
        "ка"
      ],
      [
        "▁",
        "луч"
      ],
      [
        "▁с",
        "лу"
      ],
      [
        "▁д",
        "ет"
      ],
      [
        "▁са",
        "мо"
      ],
      [
        "▁п",
        "е"
      ],
      [
        "▁бу",
        "ду"
      ],
      [
        "п",
        "ла"
      ],
      [
        "ч",
        "ем"
      ],
      [
        "го",
        "й"
      ],
      [
        "▁Т",
        "ак"
      ],
      [
        "▁в",
        "с"
      ],
      [
        "ко",
        "го"
      ],
      [
        "бо",
        "й"
      ],
      [
        "▁ф",
        "и"
      ],
      [
        "ж",
        "ен"
      ],
      [
        "▁Росси",
        "и"
      ],
      [
        "▁д",
        "и"
      ],
      [
        "▁се",
        "к"
      ],
      [
        "▁",
        "ему"
      ],
      [
        "ц",
        "у"
      ],
      [
        "ш",
        "у"
      ],
      [
        "ва",
        "ли"
      ],
      [
        "▁лю",
        "б"
      ],
      [
        "▁",
        "га"
      ],
      [
        "▁о",
        "дин"
      ],
      [
        "ва",
        "ется"
      ],
      [
        "▁Во",
        "т"
      ],
      [
        "▁се",
        "бе"
      ],
      [
        "▁се",
        "бя"
      ],
      [
        "▁сво",
        "и"
      ],
      [
        "ст",
        "ро"
      ],
      [
        "ски",
        "е"
      ],
      [
        "▁те",
        "ле"
      ],
      [
        "ш",
        "ки"
      ],
      [
        "▁рабо",
        "та"
      ],
      [
        "▁до",
        "ро"
      ],
      [
        "▁в",
        "ер"
      ],
      [
        "▁С",
        "а"
      ],
      [
        "д",
        "я"
      ],
      [
        "ю",
        "щи"
      ],
      [
        "р",
        "ти"
      ],
      [
        "▁м",
        "у"
      ],
      [
        "би",
        "ра"
      ],
      [
        "ф",
        "о"
      ],
      [
        "с",
        "но"
      ],
      [
        "▁",
        "ц"
      ],
      [
        "ре",
        "д"
      ],
      [
        "▁т",
        "во"
      ],
      [
        "▁",
        "2"
      ],
      [
        "▁ч",
        "у"
      ],
      [
        "с",
        "кой"
      ],
      [
        "▁С",
        "о"
      ],
      [
        "▁челове",
        "к"
      ],
      [
        "▁с",
        "ка"
      ],
      [
        "ча",
        "с"
      ],
      [
        "▁с",
        "дела"
      ],
      [
        "▁с",
        "по"
      ],
      [
        "▁муж",
        "чи"
      ],
      [
        "де",
        "л"
      ],
      [
        "▁по",
        "ка"
      ],
      [
        "▁бы",
        "ть"
      ],
      [
        "не",
        "е"
      ],
      [
        "▁по",
        "том"
      ],
      [
        "р",
        "т"
      ],
      [
        "ч",
        "ита"
      ],
      [
        "ст",
        "ва"
      ],
      [
        "▁т",
        "ру"
      ],
      [
        "▁не",
        "го"
      ],
      [
        "ва",
        "й"
      ],
      [
        "ч",
        "ет"
      ],
      [
        "ф",
        "е"
      ],
      [
        "ст",
        "ву"
      ],
      [
        "но",
        "к"
      ],
      [
        "▁да",
        "же"
      ],
      [
        "▁все",
        "гда"
      ],
      [
        "е",
        "го"
      ],
      [
        "▁се",
        "годня"
      ],
      [
        "▁Г",
        "о"
      ],
      [
        "л",
        "ем"
      ],
      [
        "▁Б",
        "о"
      ],
      [
        "ва",
        "ри"
      ],
      [
        "вы",
        "е"
      ],
      [
        "х",
        "и"
      ],
      [
        "ч",
        "ку"
      ],
      [
        "г",
        "ла"
      ],
      [
        "и",
        "н"
      ],
      [
        "▁жиз",
        "ни"
      ],
      [
        "те",
        "ль"
      ],
      [
        "ст",
        "ы"
      ],
      [
        "▁п",
        "ло"
      ],
      [
        "▁В",
        "се"
      ],
      [
        "н",
        "ю"
      ],
      [
        "ъ",
        "я"
      ],
      [
        "▁а",
        "вто"
      ],
      [
        "▁",
        "Ф"
      ],
      [
        "▁т",
        "ри"
      ],
      [
        "▁по",
        "лу"
      ],
      [
        "▁у",
        "с"
      ],
      [
        "▁Н",
        "и"
      ],
      [
        "р",
        "ь"
      ],
      [
        "ч",
        "ки"
      ],
      [
        "с",
        "ле"
      ],
      [
        "▁т",
        "ем"
      ],
      [
        "ско",
        "го"
      ],
      [
        "к",
        "ла"
      ],
      [
        "▁Т",
        "е"
      ],
      [
        "▁на",
        "ча"
      ],
      [
        "до",
        "м"
      ],
      [
        "▁",
        "ла"
      ],
      [
        "▁с",
        "па"
      ],
      [
        "▁П",
        "у"
      ],
      [
        "ро",
        "ва"
      ],
      [
        "и",
        "з"
      ],
      [
        "▁луч",
        "ше"
      ],
      [
        "ен",
        "о"
      ],
      [
        "с",
        "ку"
      ],
      [
        "▁то",
        "го"
      ],
      [
        "▁те",
        "перь"
      ],
      [
        "р",
        "ю"
      ],
      [
        "▁",
        "ки"
      ],
      [
        "ци",
        "я"
      ],
      [
        "р",
        "ма"
      ],
      [
        "в",
        "я"
      ],
      [
        "ру",
        "г"
      ],
      [
        "▁до",
        "ма"
      ],
      [
        "чи",
        "к"
      ],
      [
        "▁женщи",
        "на"
      ],
      [
        "▁по",
        "ло"
      ],
      [
        "▁мо",
        "ло"
      ],
      [
        "ду",
        "ма"
      ],
      [
        "▁И",
        "з"
      ],
      [
        "те",
        "ре"
      ],
      [
        "ере",
        "з"
      ],
      [
        "▁об",
        "ра"
      ],
      [
        "▁д",
        "ве"
      ],
      [
        "во",
        "чка"
      ],
      [
        "▁",
        "Ш"
      ],
      [
        "в",
        "ши"
      ],
      [
        "▁О",
        "н"
      ],
      [
        "бу",
        "дь"
      ],
      [
        "▁та",
        "кой"
      ],
      [
        "п",
        "ре"
      ],
      [
        "▁то",
        "же"
      ],
      [
        "▁по",
        "ня"
      ],
      [
        "д",
        "ер"
      ],
      [
        "л",
        "ень"
      ],
      [
        "▁и",
        "м"
      ],
      [
        "▁О",
        "т"
      ],
      [
        "р",
        "ит"
      ],
      [
        "де",
        "й"
      ],
      [
        "ше",
        "й"
      ],
      [
        "▁день",
        "ги"
      ],
      [
        "▁па",
        "р"
      ],
      [
        "ю",
        "сь"
      ],
      [
        "не",
        "й"
      ],
      [
        "▁",
        "ша"
      ],
      [
        "а",
        "ль"
      ],
      [
        "▁с",
        "ле"
      ],
      [
        "ко",
        "н"
      ],
      [
        "▁че",
        "го"
      ],
      [
        "ко",
        "гда"
      ],
      [
        "ро",
        "д"
      ],
      [
        "▁жиз",
        "нь"
      ],
      [
        "▁у",
        "т"
      ],
      [
        "л",
        "ение"
      ],
      [
        "ж",
        "да"
      ],
      [
        "▁ни",
        "чего"
      ],
      [
        "во",
        "д"
      ],
      [
        "ни",
        "будь"
      ],
      [
        "▁ма",
        "ши"
      ],
      [
        "▁лю",
        "ди"
      ],
      [
        "▁по",
        "мо"
      ],
      [
        "ну",
        "т"
      ],
      [
        "т",
        "я"
      ],
      [
        "ски",
[...]
