{
  "version": "1.0",
  "truncation": null,
  "padding": null,
  "added_tokens": [
    {
      "id": 0,
      "content": "[PAD]",
      "single_word": false,
      "lstrip": false,
      "rstrip": false,
      "normalized": false,
      "special": true
    },
    {
      "id": 1,
      "content": "[UNK]",
      "single_word": false,
      "lstrip": false,
      "rstrip": false,
      "normalized": false,
      "special": true
    },
    {
      "id": 2,
      "content": "[BOS]",
      "single_word": false,
      "lstrip": false,
      "rstrip": false,
      "normalized": false,
      "special": true
    },
    {
      "id": 3,
      "content": "[EOS]",
      "single_word": false,
      "lstrip": false,
      "rstrip": false,
      "normalized": false,
      "special": true
    }
  ],
  "normalizer": null,
  "pre_tokenizer": {
    "type": "Sequence",
    "pretokenizers": [
      {
        "type": "Metaspace",
        "replacement": "▁",
        "prepend_scheme": "always",
        "split": true
      },
      {
        "type": "Punctuation",
        "behavior": "Isolated"
      }
    ]
  },
  "post_processor": null,
  "decoder": {
    "type": "Metaspace",
    "replacement": "▁",
    "prepend_scheme": "always",
    "split": true
  },
  "model": {
    "type": "BPE",
    "dropout": null,
    "unk_token": "[UNK]",
    "continuing_subword_prefix": null,
    "end_of_word_suffix": null,
    "fuse_unk": false,
    "byte_fallback": false,
    "ignore_merges": false,
    "vocab": {
      "[PAD]": 0,
      "[UNK]": 1,
      "[BOS]": 2,
      "[EOS]": 3,
      "\t": 4,
      "!": 5,
      "\"": 6,
      "#": 7,
      "%": 8,
      "&": 9,
      "'": 10,
      "(": 11,
      ")": 12,
      ",": 13,
      "-": 14,
      ".": 15,
      "/": 16,
      "0": 17,
      "1": 18,
      "2": 19,
      "3": 20,
      "4": 21,
      "5": 22,
      "6": 23,
      "7": 24,
      "8": 25,
      "9": 26,
      ":": 27,
      ";": 28,
      "?": 29,
      "@": 30,
      "A": 31,
      "B": 32,
      "C": 33,
      "D": 34,
      "E": 35,
      "F": 36,
      "G": 37,
      "H": 38,
      "I": 39,
      "J": 40,
      "K": 41,
      "L": 42,
      "M": 43,
      "N": 44,
      "O": 45,
      "P": 46,
      "Q": 47,
      "R": 48,
      "S": 49,
      "T": 50,
      "U": 51,
      "V": 52,
      "W": 53,
      "X": 54,
      "Y": 55,
      "Z": 56,
      "_": 57,
      "a": 58,
      "b": 59,
      "c": 60,
      "d": 61,
      "e": 62,
      "f": 63,
      "g": 64,
      "h": 65,
      "i": 66,
      "j": 67,
      "k": 68,
      "l": 69,
      "m": 70,
      "n": 71,
      "o": 72,
      "p": 73,
      "q": 74,
      "r": 75,
      "s": 76,
      "t": 77,
      "u": 78,
      "v": 79,
      "w": 80,
      "x": 81,
      "y": 82,
      "z": 83,
      " ": 84,
      "Ä": 85,
      "Ö": 86,
      "Ü": 87,
      "ß": 88,
      "à": 89,
      "ä": 90,
      "è": 91,
      "é": 92,
      "ñ": 93,
      "ö": 94,
      "ü": 95,
      "–": 96,
      "‘": 97,
      "’": 98,
      "“": 99,
      "”": 100,
      "„": 101,
      "▁": 102,
      "in": 103,
      "en": 104,
      "er": 105,
      "ein": 106,
      "▁ein": 107,
      "ch": 108,
      "au": 109,
      "an": 110,
      "▁E": 111,
      "em": 112,
      "un": 113,
      "▁s": 114,
      "▁Ein": 115,
      "ei": 116,
      "▁M": 117,
      "▁d": 118,
      "it": 119,
      "▁einem": 120,
      "el": 121,
      "▁S": 122,
      "▁in": 123,
      "und": 124,
      "▁m": 125,
      "▁F": 126,
      "▁au": 127,
      "ge": 128,
      "▁mit": 129,
      "ar": 130,
      "▁auf": 131,
      "▁und": 132,
      "▁H": 133,
      "ann": 134,
      "ie": 135,
      "te": 136,
      "▁Mann": 137,
      "▁B": 138,
      "▁b": 139,
      "sch": 140,
      "on": 141,
      "st": 142,
      "rau": 143,
      "hr": 144,
      "▁v": 145,
      "▁K": 146,
      "▁einer": 147,
      "wei": 148,
      "▁i": 149,
      "▁Eine": 150,
      "ter": 151,
      "ten": 152,
      "▁G": 153,
      "as": 154,
      "or": 155,
      "▁h": 156,
      "al": 157,
      "▁Frau": 158,
      "tr": 159,
      "es": 160,
      "ck": 161,
      "▁P": 162,
      "and": 163,
      "gen": 164,
      "▁der": 165,
      "▁Z": 166,
      "▁z": 167,
      "ich": 168,
      "▁sch": 169,
      "ro": 170,
      "iel": 171,
      "▁Mä": 172,
      "▁g": 173,
      "▁eine": 174,
      "▁T": 175,
      "▁k": 176,
      "piel": 177,
      "▁die": 178,
      "am": 179,
      "▁ge": 180,
      "▁einen": 181,
      "▁W": 182,
      "▁w": 183,
      "de": 184,
      "▁an": 185,
      "ht": 186,
      "gt": 187,
      "ben": 188,
      "▁f": 189,
      "▁J": 190,
      "▁l": 191,
      "▁Zwei": 192,
      "chen": 193,
      "▁Sch": 194,
      "▁D": 195,
      "▁im": 196,
      "▁zu": 197,
      "ind": 198,
      "itz": 199,
      "▁ste": 200,
      "ne": 201,
      "ers": 202,
      "ber": 203,
      "▁R": 204,
      "▁L": 205,
      "hen": 206,
      "ung": 207,
      "rei": 208,
      "ft": 209,
      "ach": 210,
      "ier": 211,
      "▁A": 212,
      "▁sitz": 213,
      "▁vor": 214,
      "et": 215,
      "all": 216,
      "▁bl": 217,
      "▁kl": 218,
      "ner": 219,
      "ßen": 220,
      "▁Str": 221,
      "um": 222,
      "nen": 223,
      "at": 224,
      "▁von": 225,
      "unge": 226,
      "▁sich": 227,
      "ur": 228,
      "ähr": 229,
      "▁spiel": 230,
      "▁klein": 231,
      "schen": 232,
      "äl": 233,
      "ad": 234,
      "dchen": 235,
      "▁Mädchen": 236,
      "▁dem": 237,
      "pp": 238,
      "lei": 239,
      "il": 240,
      "▁schw": 241,
      "▁ro": 242,
      "▁Hund": 243,
      "ut": 244,
      "▁Gr": 245,
      "▁Kind": 246,
      "ße": 247,
      "arz": 248,
      "erson": 249,
      "ol": 250,
      "▁Person": 251,
      "▁wei": 252,
      "eu": 253,
      "sen": 254,
      "den": 255,
      "nner": 256,
      "ot": 257,
      "▁Männer": 258,
      "ahr": 259,
      "▁St": 260,
      "▁Ge": 261,
      "▁schwarz": 262,
      "▁steht": 263,
      "bei": 264,
      "▁Stra": 265,
      "ir": 266,
      "ppe": 267,
      "pr": 268,
      "▁den": 269,
      "▁blau": 270,
      "▁tr": 271,
      "▁sein": 272,
      "▁sitzt": 273,
      "end": 274,
      "ander": 275,
      "▁j": 276,
      "isch": 277,
      "über": 278,
      "▁Junge": 279,
      "fen": 280,
      "ass": 281,
      "men": 282,
      "▁Men": 283,
      "ger": 284,
      "än": 285,
      "le": 286,
      "uppe": 287,
      "▁bei": 288,
      "ält": 289,
      "ik": 290,
      "▁über": 291,
      "äu": 292,
      "▁Straße": 293,
      "▁be": 294,
      "ährend": 295,
      "▁während": 296,
      "▁r": 297,
      "▁O": 298,
      "▁Menschen": 299,
      "▁Gruppe": 300,
      "ball": 301,
      "der": 302,
      "rü": 303,
      "▁hält": 304,
      "emd": 305,
      "▁ihr": 306,
      "▁spielt": 307,
      "unter": 308,
      "se": 309,
      "▁V": 310,
      "tet": 311,
      "▁aus": 312,
      "▁Hemd": 313,
      "▁spr": 314,
      "cke": 315,
      "▁Personen": 316,
      "▁ne": 317,
      "▁n": 318,
      "ang": 319,
      "acht": 320,
      "ent": 321,
      "ür": 322,
      "▁das": 323,
      "inter": 324,
      "▁um": 325,
      "ehr": 326,
      "leid": 327,
      "pf": 328,
      "▁ander": 329,
      "aar": 330,
      "eil": 331,
      "▁eines": 332,
      "▁Wass": 333,
      "be": 334,
      "▁neben": 335,
      "ingt": 336,
      "▁N": 337,
      "im": 338,
      "urch": 339,
      "▁Kinder": 340,
      "▁Frauen": 341,
      "re": 342,
      "▁Wasser": 343,
      "▁stehen": 344,
      "▁blauen": 345,
      "▁am": 346,
      "▁durch": 347,
      "ell": 348,
      "▁gro": 349,
      "▁ist": 350,
      "is": 351,
      "rad": 352,
      "ägt": 353,
      "▁roten": 354,
      "▁weißen": 355,
      "▁sitzen": 356,
      "eg": 357,
      "▁Drei": 358,
      "hn": 359,
      "la": 360,
      "▁spielen": 361,
      "he": 362,
      "▁ent": 363,
      "lich": 364,
      "arben": 365,
      "▁p": 366,
      "ab": 367,
      "▁ver": 368,
      "ährt": 369,
      "us": 370,
      "iert": 371,
      "gr": 372,
      "▁Hand": 373,
      "fer": 374,
      "▁geht": 375,
      "icht": 376,
      "▁trägt": 377,
      "elt": 378,
      "bo": 379,
      "▁fährt": 380,
      "af": 381,
      "kt": 382,
      "▁Fahr": 383,
      "▁grü": 384,
      "teil": 385,
      "ckt": 386,
      "▁gel": 387,
      "eln": 388,
      "▁Leu": 389,
      "cken": 390,
      "▁brau": 391,
      "▁Kleid": 392,
      "▁unter": 393,
      "▁schau": 394,
      "▁Bo": 395,
      "▁Ober": 396,
      "▁kleines": 397,
      "imm": 398,
      "os": 399,
      "▁macht": 400,
      "ug": 401,
      "▁entl": 402,
      "och": 403,
      "▁springt": 404,
      "▁entlang": 405,
      "▁zwei": 406,
      "anz": 407,
      "enn": 408,
      "igen": 409,
      "arbei": 410,
      "▁junge": 411,
      "▁kleiner": 412,
      "▁schwarzen": 413,
      "agen": 414,
      "ungen": 415,
      "▁weiß": 416,
      "äch": 417,
      "▁C": 418,
      "pieler": 419,
      "uch": 420,
      "ehrer": 421,
      "▁Leute": 422,
      "▁Ko": 423,
      "auf": 424,
      "ler": 425,
      "▁Ho": 426,
      "▁Ar": 427,
      "uß": 428,
      "▁gehen": 429,
      "klei": 430,
      "▁U": 431,
      "▁Fel": 432,
      "ischen": 433,
      "est": 434,
      "ril": 435,
      "ange": 436,
      "▁her": 437,
      "▁Bl": 438,
      "gel": 439,
      "kleide": 440,
      "bäu": 441,
      "älter": 442,
      "om": 443,
      "ig": 444,
      "ige": 445,
      "▁sie": 446,
      "▁Fahrrad": 447,
      "alten": 448,
      "ern": 449,
      "▁et": 450,
      "▁Sk": 451,
      "was": 452,
      "hl": 453,
      "▁Oberteil": 454,
      "▁Fuß": 455,
      "irt": 456,
      "▁etwas": 457,
      "fahr": 458,
      "▁älter": 459,
      "▁wir": 460,
      "▁t": 461,
      "ehrere": 462,
      "▁Ball": 463,
      "▁seinem": 464,
      "farben": 465,
      "hirt": 466,
      "▁lie": 467,
      "eit": 468,
      "ul": 469,
      "▁hin": 470,
      "▁großen": 471,
      "uft": 472,
      "acke": 473,
      "nee": 474,
      "ieren": 475,
      "grund": 476,
      "▁Gebäu": 477,
      "rille": 478,
      "▁gekleide": 479,
      "▁Spiel": 480,
      "ark": 481,
      "▁Hinter": 482,
      "zeu": 483,
      "▁or": 484,
      "▁Frei": 485,
      "▁vers": 486,
      "bt": 487,
      "▁er": 488,
      "▁Bau": 489,
      "▁Kam": 490,
      "ort": 491,
      "ild": 492,
      "▁Luft": 493,
      "boar": 494,
      "äuft": 495,
      "bl": 496,
      "sam": 497,
      "▁grünen": 498,
      "▁Mehrere": 499,
      "▁Strand": 500,
      "▁st": 501,
      "▁o": 502,
      "▁Tr": 503,
      "era": 504,
      "▁Der": 505,
      "weg": 506,
      "▁läuft": 507,
      "▁al": 508,
      "aufen": 509,
      "▁sind": 510,
      "▁läch": 511,
      "zen": 512,
      "ate": 513,
      "ör": 514,
      "▁für": 515,
      "▁Hintergrund": 516,
      "▁Bas": 517,
      "▁Jungen": 518,
      "▁da": 519,
      "▁hinter": 520,
      "▁nach": 521,
      "ze": 522,
      "▁hat": 523,
      "▁arbei": 524,
      "▁Jacke": 525,
      "▁Freien": 526,
      "▁Die": 527,
      "▁anderen": 528,
      "spieler": 529,
      "oto": 530,
      "▁Kleidung": 531,
      "ster": 532,
      "unger": 533,
      "▁schaut": 534,
      "ant": 535,
      "ett": 536,
      "▁Kopf": 537,
      "zeug": 538,
      "det": 539,
      "▁Schw": 540,
      "▁vorbei": 541,
      "▁junger": 542,
      "▁Sp": 543,
      "▁hoch": 544,
      "äft": 545,
      "▁Schnee": 546,
      "ag": 547,
      "▁Tisch": 548,
      "üt": 549,
      "ank": 550,
      "▁Haar": 551,
      "lat": 552,
      "▁I": 553,
      "ün": 554,
      "schau": 555,
      "aus": 556,
      "▁Fl": 557,
      "Shirt": 558,
      "ow": 559,
      "achen": 560,
      "▁Son": 561,
      "▁An": 562,
      "menge": 563,
      "▁andere": 564,
      "angen": 565,
      "▁gelben": 566,
      "ühr": 567,
      "▁rot": 568,
      "▁Nä": 569,
      "itar": 570,
      "fon": 571,
      "sche": 572,
      "ans": 573,
      "▁Kl": 574,
      "▁Bü": 575,
      "▁Gebäude": 576,
      "▁ih": 577,
      "board": 578,
      "hne": 579,
      "▁Hut": 580,
      "umen": 581,
      "▁orange": 582,
      "unk": 583,
      "▁Fußball": 584,
      "ennen": 585,
      "stü": 586,
      "ack": 587,
      "▁wird": 588,
      "ap": 589,
      "ing": 590,
      "fahrer": 591,
      "▁Gras": 592,
      "▁Nähe": 593,
      "ele": 594,
      "iat": 595,
      "iger": 596,
      "▁beim": 597,
      "amm": 598,
      "▁Au": 599,
      "▁kleine": 600,
      "▁kleinen": 601,
      "▁Stad": 602,
      "▁Hunde": 603,
      "▁Kamera": 604,
      "▁Menschenmenge": 605,
      "art": 606,
      "ahn": 607,
      "itt": 608,
      "ert": 609,
      "▁schwarzer": 610,
      "str": 611,
      "▁blon": 612,
      "utz": 613,
      "▁Geh": 614,
      "▁Park": 615,
      "ische": 616,
      "erk": 617,
      "▁ber": 618,
      "farbenen": 619,
      "▁bli": 620,
      "otor": 621,
      "▁Boden": 622,
      "alt": 623,
      "▁ros": 624,
      "etter": 625,
      "len": 626,
      "▁Gitar": 627,
      "sst": 628,
      "ock": 629,
      "ennt": 630,
      "ick": 631,
      "op": 632,
      "▁Ber": 633,
      "▁Skate": 634,
      "▁bef": 635,
      "ink": 636,
      "eig": 637,
      "▁Es": 638,
      "▁Feld": 639,
      "ion": 640,
      "är": 641,
      "▁rennt": 642,
      "▁Sonnen": 643,
      "▁Straßen": 644,
      "▁ihre": 645,
      "▁Stadt": 646,
      "ucht": 647,
      "latz": 648,
      "▁Vier": 649,
      "▁Foto": 650,
      "▁zusam": 651,
      "▁grau": 652,
      "▁le": 653,
      "ßer": 654,
      "▁ihren": 655,
      "▁pos": 656,
      "▁In": 657,
      "sten": 658,
      "einander": 659,
      "tes": 660,
      "eans": 661,
      "▁Aut": 662,
      "▁zusammen": 663,
      "steig": 664,
      "▁war": 665,
      "▁herum": 666,
      "cht": 667,
      "▁des": 668,
      "asiat": 669,
      "▁Pfer": 670,
      "▁Gitarre": 671,
      "ingen": 672,
      "▁dunk": 673,
      "▁asiat": 674,
      "▁se": 675,
      "schäft": 676,
      "ff": 677,
      "▁Motor": 678,
      "▁Dam": 679,
      "▁ab": 680,
      "▁Sand": 681,
      "ob": 682,
      "ho": 683,
      "▁Er": 684,
      "▁fahr": 685,
      "▁älterer": 686,
      "▁Jeans": 687,
      "sp": 688,
      "raußen": 689,
      "kleid": 690,
      "▁unterh": 691,
      "des": 692,
      "ss": 693,
      "eigt": 694,
      "elm": 695,
      "▁fahren": 696,
      "uck": 697,
      "▁Bühne": 698,
      "▁draußen": 699,
      "elle": 700,
      "ver": 701,
      "▁schl": 702,
      "ischer": 703,
      "▁Brille": 704,
      "olz": 705,
      "▁Skateboard": 706,
      "▁re": 707,
      "▁Gehweg": 708,
      "▁seine": 709,
      "▁Base": 710,
      "wach": 711,
      "▁gest": 712,
      "aby": 713,
      "▁Arbei": 714,
      "▁sehen": 715,
      "▁hell": 716,
      "deck": 717,
      "▁es": 718,
      "ikro": 719,
      "▁hinunter": 720,
      "achtet": 721,
      "kleidung": 722,
      "wachsen": 723,
      "▁Ges": 724,
      "▁Mikro": 725,
      "▁Gel": 726,
      "wagen": 727,
      "▁dabei": 728,
      "▁Essen": 729,
      "ade": 730,
      "▁Baby": 731,
      "▁seinen": 732,
      "dern": 733,
      "▁blickt": 734,
      "ieht": 735,
      "▁Te": 736,
      "▁Schl": 737,
      "brille": 738,
      "iz": 739,
      "▁Stu": 740,
      "▁Schwimm": 741,
      "▁Hän": 742,
      "▁braunen": 743,
      "▁weißer": 744,
      "arkt": 745,
      "▁Holz": 746,
      "▁Re": 747,
      "haar": 748,
      "▁wie": 749,
      "oll": 750,
      "▁liegt": 751,
      "aft": 752,
      "▁versucht": 753,
      "▁tanz": 754,
      "fl": 755,
      "▁lächeln": 756,
      "▁Paar": 757,
      "▁arbeitet": 758,
      "ührt": 759,
      "ät": 760,
      "uss": 761,
      "▁Bank": 762,
      "▁Baum": 763,
      "zug": 764,
      "▁laufen": 765,
      "▁tragen": 766,
      "▁Wand": 767,
      "lichen": 768,
      "nei": 769,
      "lag": 770,
      "▁als": 771,
      "▁dar": 772,
      "rä": 773,
      "▁Dame": 774,
      "▁Baseball": 775,
      "ffen": 776,
      "eich": 777,
      "▁Bür": 778,
      "▁Un": 779,
      "per": 780,
      "▁machen": 781,
      "▁schauen": 782,
      "▁lächelt": 783,
      "irm": 784,
      "▁Me": 785,
      "▁Mau": 786,
      "▁kur": 787,
      "ket": 788,
      "▁Hü": 789,
      "▁große": 790,
      "▁brauner": 791,
      "▁Bürger": 792,
      "for": 793,
      "che": 794,
      "ikot": 795,
      "▁betr": 796,
      "▁ihrem": 797,
      "usik": 798,
      "ütze": 799,
      "▁Auf": 800,
      "ll": 801,
      "▁Wal": 802,
      "▁gestrei": 803,
      "ull": 804,
      "▁orangefarbenen": 805,
      "▁Klein": 806,
      "▁ihm": 807,
      "▁versch": 808,
      "unst": 809,
      "▁Se": 810,
      "geb": 811,
      "assen": 812,
      "▁Bürgersteig": 813,
      "▁gegen": 814,
      "▁Gesicht": 815,
      "aum": 816,
      "▁arbeiten": 817,
      "▁Motorrad": 818,
      "▁kletter": 819,
      "immt": 820,
      "▁junges": 821,
      "▁Rei": 822,
      "bedeck": 823,
      "▁ältere": 824,
      "▁Bild": 825,
      "▁Rad": 826,
      "▁braun": 827,
      "▁Hose": 828,
      "ßt": 829,
      "▁zeigt": 830,
      "antel": 831,
      "▁berei": 832,
      "▁halten": 833,
      "aff": 834,
      "▁Zu": 835,
      "▁sieht": 836,
      "ak": 837,
      "platz": 838,
      "oller": 839,
      "▁spricht": 840,
      "▁unterhalten": 841,
      "lie": 842,
      "schaft": 843,
      "ikan": 844,
      "▁liest": 845,
      "sehen": 846,
      "▁grün": 847,
      "▁Boot": 848,
      "ennis": 849,
      "▁drei": 850,
      "afarben": 851,
      "elefon": 852,
      "▁Trikot": 853,
      "aur": 854,
      "▁Wald": 855,
      "▁un": 856,
      "ine": 857,
      "▁Tennis": 858,
      "▁Haaren": 859,
      "qu": 860,
      "spiel": 861,
      "indet": 862,
      "▁Sei": 863,
      "▁wer": 864,
      "▁Hosen": 865,
      "▁So": 866,
      "▁Gew": 867,
      "ri": 868,
      "▁Musik": 869,
      "ften": 870,
      "▁Sh": 871,
      "iele": 872,
      "▁Meer": 873,
      "▁Be": 874,
      "▁Stein": 875,
      "▁Helm": 876,
      "▁Kr": 877,
      "▁Kü": 878,
      "amp": 879,
      "▁Pferd": 880,
      "▁Band": 881,
      "▁zum": 882,
      "▁Sonnenbrille": 883,
      "aurant": 884,
      "aben": 885,
      "▁Kunst": 886,
      "liche": 887,
      "asch": 888,
      "▁rei": 889,
      "ketball": 890,
      "▁gekleidete": 891,
      "orts": 892,
      "▁rosa": 893,
      "▁Auto": 894,
      "ück": 895,
      "▁seiner": 896,
      "estaurant": 897,
      "gend": 898,
      "▁Tag": 899,
      "▁beob": 900,
      "▁Felsen": 901,
      "oot": 902,
      "▁sp": 903,
      "schu": 904,
      "▁Zuschau": 905,
      "▁Spr": 906,
      "euer": 907,
      "▁gelb": 908,
      "▁Arm": 909,
      "ien": 910,
      "▁Restaurant": 911,
      "arbeiter": 912,
      "▁weißem": 913,
      "▁schie": 914,
      "ängt": 915,
      "▁Berg": 916,
      "▁grauen": 917,
      "▁Gelän": 918,
      "ootball": 919,
      "mt": 920,
      "▁singt": 921,
      "▁Pf": 922,
      "▁Basketball": 923,
      "▁ihnen": 924,
      "▁Erwachsen": 925,
      "ast": 926,
      "▁blauem": 927,
      "gest": 928,
      "▁Br": 929,
      "tern": 930,
      "▁Mantel": 931,
      "mp": 932,
      "▁Mikrofon": 933,
      "brau": 934,
      "▁Eis": 935,
      "▁Fen": 936,
      "▁Football": 937,
      "ünf": 938,
      "üll": 939,
      "▁posiert": 940,
      "ahl": 941,
      "asen": 942,
      "este": 943,
      "▁darauf": 944,
      "asche": 945,
      "br": 946,
      "use": 947,
      "emand": 948,
      "ullo": 949,
      "▁Pol": 950,
      "▁klettert": 951,
      "ah": 952,
      "err": 953,
      "▁führt": 954,
      "▁Shorts": 955,
      "anzug": 956,
      "▁Spielzeug": 957,
      "▁befindet": 958,
      "mer": 959,
      "uchen": 960,
      "▁Feuer": 961,
      "asse": 962,
      "inkt": 963,
      "▁Le": 964,
      "▁Vor": 965,
      "▁dunkel": 966,
      "örper": 967,
      "aun": 968,
      "ppen": 969,
      "ecke": 970,
      "▁Fr": 971,
      "iet": 972,
      "▁Bä": 973,
      "▁ho": 974,
      "▁Blumen": 975,
      "▁Fenster": 976,
      "ullover": 977,
      "ifor": 978,
      "iv": 979,
      "zt": 980,
      "scht": 981,
      "▁Schu": 982,
      "net": 983,
      "achten": 984,
      "▁schwarzem": 985,
      "▁blauer": 986,
      "äufer": 987,
      "▁verk": 988,
      "▁wirft": 989,
      "▁Sport": 990,
      "hnt": 991,
      "ste": 992,
      "▁Das": 993,
      "▁gekleideter": 994,
      "▁sehr": 995,
      "▁versamm": 996,
      "aten": 997,
      "▁rennen": 998,
      "▁Regen": 999,
      "zu": 1000,
      "zer": 1001,
      "iese": 1002,
      "▁Bade": 1003,
      "▁Tre": 1004,
      "kind": 1005,
      "eren": 1006,
      "stand": 1007,
      "▁Raum": 1008,
      "änger": 1009,
      "▁Ver": 1010,
      "licher": 1011,
      "▁str": 1012,
      "▁Weg": 1013,
      "schl": 1014,
      "aden": 1015,
      "▁Arbeiter": 1016,
      "▁essen": 1017,
      "schw": 1018,
      "▁zuschau": 1019,
      "ill": 1020,
      "▁oder": 1021,
      "▁rotem": 1022,
      "ucks": 1023,
      "▁isst": 1024,
      "olle": 1025,
      "▁Geschäft": 1026,
      "ain": 1027,
      "▁Zeit": 1028,
      "▁Männern": 1029,
      "▁Anzug": 1030,
      "▁rosafarben": 1031,
      "unden": 1032,
      "▁Wiese": 1033,
      "▁anderer": 1034,
      "▁Kindern": 1035,
      "▁Maul": 1036,
      "ke": 1037,
      "▁gen": 1038,
      "▁Spieler": 1039,
      "▁Wei": 1040,
      "becken": 1041,
      "hon": 1042,
      "itten": 1043,
      "ess": 1044,
      "▁Pullover": 1045,
      "▁langen": 1046,
      "▁roter": 1047,
      "▁wartet": 1048,
      "bst": 1049,
      "▁bun": 1050,
      "az": 1051,
      "we": 1052,
      "▁ins": 1053,
      "schirm": 1054,
      "▁Po": 1055,
      "▁Schutz": 1056,
      "▁schwarze": 1057,
      "haarige": 1058,
      "▁Met": 1059,
      "▁Kar": 1060,
      "att": 1061,
      "▁werden": 1062,
      "▁Poliz": 1063,
      "ater": 1064,
      "▁weiße": 1065,
      "▁springen": 1066,
      "immer": 1067,
      "körper": 1068,
      "cher": 1069,
      "▁zw": 1070,
      "▁Rucks": 1071,
      "▁posieren": 1072,
      "▁gestreiften": 1073,
      "▁Schild": 1074,
      "▁Bluse": 1075,
      "▁Fluss": 1076,
      "gang": 1077,
      "ckey": 1078,
      "omp": 1079,
      "blau": 1080,
      "dr": 1081,
      "ken": 1082,
      "sk": 1083,
      "sm": 1084,
      "auft": 1085,
      "▁Sn": 1086,
      "▁bele": 1087,
      "▁As": 1088,
      "▁Stuhl": 1089,
      "her": 1090,
      "▁Buch": 1091,
      "▁Ka": 1092,
      "▁beleb": 1093,
      "zeit": 1094,
      "▁voller": 1095,
      "▁Handy": 1096,
      "▁Oberkörper": 1097,
      "▁Fünf": 1098,
      "▁viel": 1099,
      "▁bereitet": 1100,
      "▁Metall": 1101,
      "▁Sur": 1102,
      "▁Viele": 1103,
      "ellen": 1104,
      "ist": 1105,
      "iegel": 1106,
      "inden": 1107,
      "ierten": 1108,
      "euch": 1109,
      "▁überqu": 1110,
      "▁na": 1111,
      "▁Hügel": 1112,
      "▁Um": 1113,
      "▁Kleinkind": 1114,
      "fel": 1115,
      "eine": 1116,
      "▁warten": 1117,
      "▁betrachtet": 1118,
      "hä": 1119,
      "aut": 1120,
      "▁tanzen": 1121,
      "ager": 1122,
      "äger": 1123,
      "äss": 1124,
      "▁Haus": 1125,
      "▁genie": 1126,
      "▁zwischen": 1127,
      "dem": 1128,
      "▁he": 1129,
      "▁Rennen": 1130,
      "▁Al": 1131,
      "▁umge": 1132,
      "▁Bauarbeiter": 1133,
      "▁blonde": 1134,
      "wand": 1135,
      "▁Mit": 1136,
      "ieden": 1137,
      "▁kn": 1138,
      "▁flie": 1139,
      "ette": 1140,
      "▁Leuten": 1141,
      "▁schläft": 1142,
      "erikan": 1143,
      "▁Eink": 1144,
      "▁Bus": 1145,
      "▁zieht": 1146,
      "▁Stock": 1147,
      "utzt": 1148,
      "isten": 1149,
      "▁schnei": 1150,
      "▁Ro": 1151,
      "old": 1152,
      "▁oben": 1153,
      "altung": 1154,
      "spr": 1155,
      "sieht": 1156,
      "▁Mütze": 1157,
      "▁Seil": 1158,
      "alb": 1159,
      "▁Pu": 1160,
      "▁Schul": 1161,
      "ekt": 1162,
      "kel": 1163,
      "ücken": 1164,
      "▁Pap": 1165,
      "▁lil": 1166,
      "▁alter": 1167,
      "▁lehnt": 1168,
      "▁reitet": 1169,
      "▁Snow": 1170,
      "häut": 1171,
      "di": 1172,
      "ue": 1173,
      "▁Markt": 1174,
      "ation": 1175,
      "▁Händen": 1176,
      "▁miteinander": 1177,
      "▁Pro": 1178,
      "▁ange": 1179,
      "ichtung": 1180,
      "▁herunter": 1181,
      "▁beobachtet": 1182,
      "aren": 1183,
      "ellt": 1184,
      "▁Bäumen": 1185,
      "▁Rucksack": 1186,
      "kor": 1187,
      "▁paar": 1188,
      "▁dav": 1189,
      "▁tanzt": 1190,
      "og": 1191,
      "▁En": 1192,
      "▁Kon": 1193,
      "▁ihrer": 1194,
      "stüm": 1195,
      "▁Unifor": 1196,
      "bahn": 1197,
      "weißer": 1198,
      "▁Zaun": 1199,
      "▁fr": 1200,
      "graf": 1201,
      "▁Radfahrer": 1202,
      "amil": 1203,
      "fe": 1204,
      "▁ö": 1205,
      "▁män": 1206,
      "▁Fre": 1207,
      "▁schnee": 1208,
      "▁glei": 1209,
      "▁Tur": 1210,
      "▁Schn": 1211,
      "▁Ski": 1212,
      "stück": 1213,
      "aschine": 1214,
      "▁männ": 1215,
      "▁Bet": 1216,
      "▁vom": 1217,
      "▁Zug": 1218,
      "▁befinden": 1219,
      "inken": 1220,
      "▁schiebt": 1221,
      "hör": 1222,
      "stu": 1223,
      "▁haben": 1224,
      "▁gr": 1225,
      "▁Land": 1226,
      "▁Aus": 1227,
      "▁Gegen": 1228,
      "▁ru": 1229,
      "achts": 1230,
      "ärt": 1231,
      "▁Gewäss": 1232,
      "▁teil": 1233,
      "▁Hal": 1234,
      "▁kar": 1235,
      "▁frei": 1236,
      "▁Renn": 1237,
      "rücke": 1238,
      "▁Schwimmbecken": 1239,
      "▁See": 1240,
      "▁Beton": 1241,
      "▁all": 1242,
      "▁Famil": 1243,
      "ies": 1244,
      "stein": 1245,
      "▁Gl": 1246,
      "▁Rücken": 1247,
      "▁orangefarben": 1248,
      "feld": 1249,
      "▁schneebedeck": 1250,
      "Bahn": 1251,
      "▁Küche": 1252,
      "▁Zuschauer": 1253,
      "od": 1254,
      "trän": 1255,
      "esen": 1256,
      "▁gem": 1257,
      "äche": 1258,
      "▁Seite": 1259,
      "▁Einkauf": 1260,
      "▁Welle": 1261,
      "▁fest": 1262,
      "▁Instr": 1263,
      "▁Arbeit": 1264,
      "▁kurzen": 1265,
      "▁verschieden": 1266,
      "▁Sprung": 1267,
      "▁umgeben": 1268,
      "gl": 1269,
      "oh": 1270,
      "▁gef": 1271,
      "▁Schlag": 1272,
      "▁Out": 1273,
      "äd": 1274,
      "▁son": 1275,
      "▁ben": 1276,
      "▁schrei": 1277,
      "▁lang": 1278,
      "▁Graff": 1279,
      "ampe": 1280,
      "▁Fris": 1281,
      "▁Treppe": 1282,
      "igt": 1283,
      "emden": 1284,
      "▁Gem": 1285,
      "▁gera": 1286,
      "▁Schau": 1287,
      "▁telefon": 1288,
      "boarder": 1289,
      "▁spaz": 1290,
      "schuhen": 1291,
      "▁Graffit": 1292,
      "anst": 1293,
      "ied": 1294,
      "▁zur": 1295,
      "utter": 1296,
      "▁verkauft": 1297,
      "band": 1298,
      "kl": 1299,
      "▁Flag": 1300,
      "arb": 1301,
      "▁schein": 1302,
      "▁Schü": 1303,
      "ungs": 1304,
      "▁pink": 1305,
      "fit": 1306,
      "innen": 1307,
      "▁trinkt": 1308,
      "hlen": 1309,
      "▁versammelt": 1310,
      "▁Familie": 1311,
      "▁gerade": 1312,
      "par": 1313,
      "werk": 1314,
      "öpf": 1315,
      "▁mitt": 1316,
      "weißen": 1317,
      "▁kü": 1318,
      "▁Geträn": 1319,
      "▁aussehen": 1320,
      "ittel": 1321,
      "▁Papier": 1322,
      "arr": 1323,
      "isches": 1324,
      "▁Or": 1325,
      "▁Cow": 1326,
      "▁Schwarz": 1327,
      "ühren": 1328,
      "▁rosafarbenen": 1329,
      "ämp": 1330,
      "▁rau": 1331,
      "▁mitten": 1332,
      "▁ihn": 1333,
      "▁hängt": 1334,
      "▁offen": 1335,
      "▁Autos": 1336,
      "▁schneidet": 1337,
      "anstaltung": 1338,
      "lt": 1339,
      "ges": 1340,
      "arten": 1341,
      "▁Tor": 1342,
      "▁Verk": 1343,
      "iol": 1344,
      "ser": 1345,
      "yp": 1346,
      "zimmer": 1347,
      "unnen": 1348,
      "ief": 1349,
      "▁Pla": 1350,
      "▁schla": 1351,
      "▁wo": 1352,
      "boy": 1353,
      "▁telefoniert": 1354,
      "aschen": 1355,
      "tlichen": 1356,
      "▁einige": 1357,
      "eigen": 1358,
      "▁Bik": 1359,
      "stung": 1360,
      "▁kämp": 1361,
      "▁Wagen": 1362,
      "gruppe": 1363,
      "▁belebten": 1364,
      "▁sonn": 1365,
      "▁spazieren": 1366,
      "enager": 1367,
      "▁malt": 1368,
      "▁Bahn": 1369,
      "▁To": 1370,
      "▁kom": 1371,
      "▁fangen": 1372,
      "bee": 1373,
      "esten": 1374,
      "▁asiatische": 1375,
      "▁bunten": 1376,
      "ompu": 1377,
      "fro": 1378,
      "alen": 1379,
      "▁Wander": 1380,
      "▁jemand": 1381,
      "▁nimmt": 1382,
      "▁Ne": 1383,
      "ünst": 1384,
      "▁Teenager": 1385,
      "▁Reihe": 1386,
      "blauen": 1387,
      "aße": 1388,
      "ogen": 1389,
      "ßes": 1390,
      "erb": 1391,
      "▁schwimmt": 1392,
      "▁großer": 1393,
      "immel": 1394,
      "▁Gewässer": 1395,
      "▁Cowboy": 1396,
      "eten": 1397,
      "ub": 1398,
      "yball": 1399,
      "ässt": 1400,
      "teten": 1401,
      "schri": 1402,
      "▁Ger": 1403,
      "▁gu": 1404,
      "▁Roll": 1405,
      "▁rote": 1406,
      "▁denen": 1407,
      "▁freiem": 1408,
      "▁schneebedeckten": 1409,
      "▁Frisbee": 1410,
      "ust": 1411,
      "schn": 1412,
      "etz": 1413,
      "utsche": 1414,
      "ikum": 1415,
      "rüstung": 1416,
      "eller": 1417,
      "▁gekleidet": 1418,
      "▁Kopfbedeck": 1419,
      "▁Fußballspieler": 1420,
      "▁blicken": 1421,
      "▁schlägt": 1422,
      "olleyball": 1423,
      "▁vielen": 1424,
      "ädt": 1425,
      "hmen": 1426,
      "▁Mutter": 1427,
      "▁Bart": 1428,
      "▁Brücke": 1429,
      "stelle": 1430,
      "ters": 1431,
      "▁Rasen": 1432,
      "▁Compu": 1433,
      "▁hinauf": 1434,
      "▁Gebäudes": 1435,
      "blikum": 1436,
      "straße": 1437,
      "▁Hände": 1438,
      "▁sonnigen": 1439,
      "jacke": 1440,
      "zogen": 1441,
      "ügen": 1442,
      "▁Himmel": 1443,
      "▁br": 1444,
      "▁Typ": 1445,
      "▁foto": 1446,
      "▁Rock": 1447,
      "▁Ab": 1448,
      "▁fliegt": 1449,
      "▁Publikum": 1450,
      "▁fotograf": 1451,
      "fall": 1452,
      "jekt": 1453,
      "kam": 1454,
      "mann": 1455,
      "▁Shirt": 1456,
      "geschäft": 1457,
      "▁Platz": 1458,
      "▁Tasche": 1459,
      "▁lachen": 1460,
      "▁Richtung": 1461,
      "▁Fels": 1462,
      "▁Geländer": 1463,
      "▁hebt": 1464,
      "▁kämpfen": 1465,
      "ünstler": 1466,
      "ee": 1467,
      "hut": 1468,
      "▁af": 1469,
      "▁Sie": 1470,
      "▁Hoch": 1471,
      "▁Hemden": 1472,
      "atte": 1473,
      "fläche": 1474,
      "grü": 1475,
      "inger": 1476,
      "raut": 1477,
      "▁vier": 1478,
      "▁Tür": 1479,
      "▁Weste": 1480,
      "▁Kampf": 1481,
      "▁dunklen": 1482,
      "▁grünem": 1483,
      "▁Zeitung": 1484,
      "▁Schutzh": 1485,
      "kom": 1486,
      "mm": 1487,
      "wehr": 1488,
      "chs": 1489,
      "▁Herr": 1490,
      "▁hohen": 1491,
      "▁Graffiti": 1492,
      "acken": 1493,
      "rich": 1494,
      "aub": 1495,
      "▁Ju": 1496,
      "▁Schal": 1497,
      "▁Spielplatz": 1498,
      "▁Outfit": 1499,
      "fest": 1500,
      "nt": 1501,
      "pft": 1502,
      "ummer": 1503,
      "▁Augen": 1504,
      "▁Erwachsene": 1505,
      "▁Hals": 1506,
      "▁Kopfbedeckung": 1507,
      "▁Mannes": 1508,
      "▁Bier": 1509,
      "weiß": 1510,
      "▁Zig": 1511,
      "▁schm": 1512,
      "▁schn": 1513,
      "▁weißes": 1514,
      "▁liegen": 1515,
      "▁asiatischer": 1516,
      "▁Unter": 1517,
      "▁zuschauen": 1518,
      "▁mittler": 1519,
      "ling": 1520,
      "anc": 1521,
      "▁Mar": 1522,
      "▁Kan": 1523,
      "▁Schirm": 1524,
      "ument": 1525,
      "▁umar": 1526,
      "▁Hof": 1527,
      "▁Flug": 1528,
      "▁blondes": 1529,
      "haariger": 1530,
      "▁Leben": 1531,
      "▁Zigar": 1532,
      "bank": 1533,
      "▁bel": 1534,
      "▁Winter": 1535,
      "atue": 1536,
      "hose": 1537,
      "▁Pool": 1538,
      "▁davon": 1539,
      "hü": 1540,
      "markt": 1541,
      "auch": 1542,
      "▁mehrere": 1543,
      "▁hü": 1544,
      "etten": 1545,
      "▁verschnei": 1546,
      "▁bereiten": 1547,
      "▁dunkelhäut": 1548,
      "▁überqueren": 1549,
      "▁genießt": 1550,
      "▁Freund": 1551,
      "▁Glas": 1552,
      "haus": 1553,
      "▁Jemand": 1554,
      "▁Dach": 1555,
      "▁Decke": 1556,
      "▁Stück": 1557,
      "▁blaue": 1558,
      "laster": 1559,
      "▁alte": 1560,
      "▁hellbrau": 1561,
      "▁Jugend": 1562,
      "ibt": 1563,
      "park": 1564,
      "▁Klei": 1565,
      "▁schö": 1566,
      "▁lacht": 1567,
      "▁tritt": 1568,
      "anzen": 1569,
      "▁Team": 1570,
      "▁Zuschauern": 1571,
      "brett": 1572,
      "▁karierten": 1573,
      "▁Schaukel": 1574,
      "schrift": 1575,
      "▁mittleren": 1576,
      "ickt": 1577,
      "off": 1578,
      "▁Fot": 1579,
      "▁Tro": 1580,
      "▁Blick": 1581,
      "▁bereit": 1582,
      "▁repar": 1583,
      "rädern": 1584,
      "▁Mauer": 1585,
      "▁Kunststück": 1586,
      "▁Feuerwehr": 1587,
      "▁öffen": 1588,
      "▁benutzt": 1589,
      "▁Gemü": 1590,
      "bar": 1591,
      "fa": 1592,
      "anten": 1593,
      "▁bes": 1594,
      "ons": 1595,
      "▁Menge": 1596,
      "▁beg": 1597,
      "schwarz": 1598,
      "▁Alters": 1599,
      "▁Computer": 1600,
      "gänger": 1601,
      "▁alten": 1602,
      "▁einigen": 1603,
      "▁Einige": 1604,
      "▁Müll": 1605,
      "elmen": 1606,
      "▁Sold": 1607,
      "▁Ziegel": 1608,
      "▁grei": 1609,
      "amerikan": 1610,
      "▁gew": 1611,
      "▁Schür": 1612,
      "änd": 1613,
      "▁ries": 1614,
      "▁Obst": 1615,
      "▁Ch": 1616,
      "▁städt": 1617,
      "▁unterhält": 1618,
      "▁Lebensm": 1619,
      "bild": 1620,
      "ko": 1621,
      "▁Mo": 1622,
      "▁Mund": 1623,
      "▁gesch": 1624,
      "▁zusieht": 1625,
      "▁Ak": 1626,
      "▁Mensch": 1627,
      "▁Baseballspieler": 1628,
      "▁nahe": 1629,
      "stuhl": 1630,
      "▁Fotos": 1631,
      "tur": 1632,
      "▁ü": 1633,
      "els": 1634,
      "gebäu": 1635,
      "▁Kor": 1636,
      "▁Par": 1637,
      "deo": 1638,
      "▁nebeneinander": 1639,
      "▁großes": 1640,
      "▁verl": 1641,
      "iges": 1642,
      "▁Fußgänger": 1643,
      "stümen": 1644,
      "▁Sofa": 1645,
      "▁zuschaut": 1646,
      "▁Weihn": 1647,
      "▁Mitte": 1648,
      "afen": 1649,
      "pfen": 1650,
      "auer": 1651,
      "▁dr": 1652,
      "▁mehrer": 1653,
      "▁außer": 1654,
      "▁Bein": 1655,
      "▁voll": 1656,
      "▁gl": 1657,
      "deckt": 1658,
      "▁lässt": 1659,
      "▁Dr": 1660,
      "▁zusehen": 1661,
      "▁Lei": 1662,
      "▁Stü": 1663,
      "ängen": 1664,
      "▁rut": 1665,
      "▁Volleyball": 1666,
      "▁Ufer": 1667,
      "fahren": 1668,
      "sport": 1669,
      "halb": 1670,
      "me": 1671,
      "▁Her": 1672,
      "▁viol": 1673,
      "▁schüt": 1674,
      "▁farben": 1675,
      "▁nicht": 1676,
      "▁nachts": 1677,
      "▁Nacht": 1678,
      "immen": 1679,
      "▁Hockey": 1680,
      "igk": 1681,
      "▁orangen": 1682,
      "▁Sonne": 1683,
      "▁Surfer": 1684,
      "▁kniet": 1685,
      "▁lila": 1686,
      "▁Uniform": 1687,
      "▁Gegenstand": 1688,
      "kampf": 1689,
      "▁Gemüse": 1690,
      "ok": 1691,
      "oß": 1692,
      "ini": 1693,
      "ines": 1694,
      "erne": 1695,
      "ition": 1696,
      "▁hör": 1697,
      "itzt": 1698,
      "▁bew": 1699,
      "issen": 1700,
      "▁hinten": 1701,
      "▁versuchen": 1702,
      "▁Asiat": 1703,
      "▁Einkaufs": 1704,
      "▁Zigarette": 1705,
      "ka": 1706,
      "ohn": 1707,
      "▁Fisch": 1708,
      "▁Braut": 1709,
      "▁gibt": 1710,
      "▁führen": 1711,
      "▁treten": 1712,
      "▁gelber": 1713,
      "▁kurz": 1714,
      "▁unbe": 1715,
      "▁beobachten": 1716,
      "▁scheint": 1717,
      "▁mehreren": 1718,
      "aw": 1719,
      "agt": 1720,
      "kon": 1721,
      "ause": 1722,
      "gew": 1723,
      "▁Bett": 1724,
      "stik": 1725,
      "itzen": 1726,
      "▁Roller": 1727,
      "▁Cl": 1728,
      "▁Pfad": 1729,
      "egt": 1730,
      "gner": 1731,
      "rikan": 1732,
      "ud": 1733,
      "öl": 1734,
      "eichen": 1735,
      "▁Ker": 1736,
      "▁Garten": 1737,
      "▁Zelt": 1738,
      "▁fängt": 1739,
      "etzt": 1740,
      "▁Nummer": 1741,
      "▁Armen": 1742,
      "▁Trick": 1743,
      "ärm": 1744,
      "▁Flagge": 1745,
      "▁raucht": 1746,
      "▁öffentlichen": 1747,
      "▁farbenfro": 1748,
      "hund": 1749,
      "hemd": 1750,
      "zert": 1751,
      "▁pr": 1752,
      "▁de": 1753,
      "▁Ferne": 1754,
      "▁Bar": 1755,
      "▁bärt": 1756,
      "▁Part": 1757,
      "▁Läufer": 1758,
      "▁Grill": 1759,
      "▁Stange": 1760,
      "▁trinken": 1761,
      "▁jungen": 1762,
      "rück": 1763,
      "lasche": 1764,
      "▁Handt": 1765,
      "cktem": 1766,
      "spann": 1767,
      "▁Stufen": 1768,
      "▁betrachten": 1769,
      "▁Trikots": 1770,
      "▁gleich": 1771,
      "▁verschneiten": 1772,
      "▁Schürze": 1773,
      "heit": 1774,
      "▁sur": 1775,
      "eiten": 1776,
      "gehen": 1777,
      "▁weg": 1778,
      "ender": 1779,
      "▁beide": 1780,
      "▁Gehsteig": 1781,
      "hof": 1782,
      "▁stre": 1783,
      "▁Wanderer": 1784,
      "wen": 1785,
      "üst": 1786,
      "▁Eim": 1787,
      "under": 1788,
      "▁man": 1789,
      "▁viele": 1790,
      "▁De": 1791,
      "alle": 1792,
      "olgt": 1793,
      "ollen": 1794,
      "▁Geb": 1795,
      "änzer": 1796,
      "▁Art": 1797,
      "▁starr": 1798,
      "gebung": 1799,
      "▁Veranstaltung": 1800,
      "euchten": 1801,
      "akt": 1802,
      "kr": 1803,
      "öff": 1804,
      "▁einander": 1805,
      "arn": 1806,
      "iehen": 1807,
      "▁Back": 1808,
      "▁Kap": 1809,
      "tre": 1810,
      "▁Wett": 1811,
      "▁Rampe": 1812,
      "ats": 1813,
      "▁Bow": 1814,
      "▁heraus": 1815,
      "▁blonden": 1816,
      "▁reden": 1817,
      "▁Geld": 1818,
      "▁unten": 1819,
      "▁Tennisball": 1820,
      "▁Musiker": 1821,
      "▁Surf": 1822,
      "▁Snowboarder": 1823,
      "▁außerhalb": 1824,
      "Spieler": 1825,
      "mütze": 1826,
      "ogel": 1827,
      "vor": 1828,
      "▁Sa": 1829,
      "▁Mannschaft": 1830,
      "▁Tau": 1831,
      "▁Tanz": 1832,
      "atten": 1833,
      "▁weiter": 1834,
      "untergang": 1835,
      "▁ausgest": 1836,
      "▁Che": 1837,
      "▁Snowboard": 1838,
      "▁Plastik": 1839,
      "Sch": 1840,
      "ocken": 1841,
      "phon": 1842,
      "rand": 1843,
      "▁dass": 1844,
      "arf": 1845,
      "▁hil": 1846,
      "▁Telefon": 1847,
      "▁leuchten": 1848,
      "▁zurück": 1849,
      "liches": 1850,
      "▁Kostüm": 1851,
      "▁Sonnenuntergang": 1852,
      "▁Instrumen": 1853,
      "▁greift": 1854,
      "▁rutscht": 1855,
      "oten": 1856,
      "ren": 1857,
      "uster": 1858,
      "ont": 1859,
      "▁Laden": 1860,
      "ume": 1861,
      "▁rotes": 1862,
      "eugt": 1863,
      "▁Ob": 1864,
      "▁Vater": 1865,
      "pflaster": 1866,
      "▁braune": 1867,
      "▁Co": 1868,
      "▁Klassen": 1869,
      "▁Aufschrift": 1870,
      "▁Brunnen": 1871,
      "▁Asi": 1872,
      "▁Skifahrer": 1873,
      "▁Bikini": 1874,
      "▁fotografiert": 1875,
      "▁Kleidern": 1876,
      "▁Kapu": 1877,
      "▁Bowling": 1878,
      "▁hilft": 1879,
      "echen": 1880,
      "köpf": 1881,
      "unt": 1882,
      "eibe": 1883,
      "▁Swe": 1884,
      "geht": 1885,
      "▁Bei": 1886,
      "schir": 1887,
      "stell": 1888,
      "umm": 1889,
      "▁beiden": 1890,
      "▁Vogel": 1891,
      "boot": 1892,
      "▁Fahrzeug": 1893,
      "ausrüstung": 1894,
      "own": 1895,
      "▁Damen": 1896,
      "obil": 1897,
      "▁Hüten": 1898,
      "▁Basketballspieler": 1899,
      "▁Polizist": 1900,
      "▁Turn": 1901,
      "▁männliche": 1902,
      "▁Kampfsport": 1903,
      "▁bärtiger": 1904,
      "▁surft": 1905,
      "atshirt": 1906,
      "ed": 1907,
      "hnen": 1908,
      "halten": 1909,
      "jak": 1910,
      "skleidung": 1911,
      "▁Bal": 1912,
      "▁bem": 1913,
      "stre": 1914,
      "▁grüner": 1915,
      "▁Kostümen": 1916,
      "▁Haare": 1917,
      "▁Kletter": 1918,
      "▁Sechs": 1919,
      "▁werfen": 1920,
      "▁gelbem": 1921,
      "▁Polizisten": 1922,
      "▁überquert": 1923,
      "▁Schüler": 1924,
      "▁Hochzeit": 1925,
      "gebäude": 1926,
      "▁Leiter": 1927,
      "▁unbefest": 1928,
      "mauer": 1929,
      "osen": 1930,
      "▁bal": 1931,
      "▁barf": 1932,
      "▁Pass": 1933,
      "▁geb": 1934,
      "▁Schrei": 1935,
      "ftem": 1936,
      "▁Statue": 1937,
      "zentr": 1938,
      "ünger": 1939,
      "ings": 1940,
      "▁legt": 1941,
      "▁versammeln": 1942,
      "▁Kajak": 1943,
      "▁nacktem": 1944,
      "grünen": 1945,
      "▁städtischen": 1946,
      "▁Sweatshirt": 1947,
      "halle": 1948,
      "iff": 1949,
      "einsam": 1950,
      "▁einge": 1951,
      "▁Maschine": 1952,
      "▁Krei": 1953,
      "ase": 1954,
      "▁Schm": 1955,
      "▁Rand": 1956,
      "ilber": 1957,
      "▁nehmen": 1958,
      "▁pro": 1959,
      "▁gelbe": 1960,
      "▁gemeinsam": 1961,
      "▁Korb": 1962,
      "ds": 1963,
      "geln": 1964,
      "hand": 1965,
      "ip": 1966,
      "sä": 1967,
      "top": 1968,
      "▁Y": 1969,
      "eige": 1970,
      "▁Kn": 1971,
      "▁Rutsche": 1972,
      "▁Leine": 1973,
      "▁blaues": 1974,
      "▁jünger": 1975,
      "▁amerikan": 1976,
      "▁Getränk": 1977,
      "▁kommt": 1978,
      "ippe": 1979,
      "ukt": 1980,
      "▁Kat": 1981,
      "▁Waren": 1982,
      "▁Westen": 1983,
      "athon": 1984,
      "add": 1985,
      "adition": 1986,
      "ilit": 1987,
      "ilder": 1988,
      "▁tradition": 1989,
      "reck": 1990,
      "boden": 1991,
      "▁stellt": 1992,
      "▁Kopfhör": 1993,
      "▁Spiegel": 1994,
      "▁blonder": 1995,
      "otorrad": 1996,
      "form": 1997,
      "▁Reifen": 1998,
      "▁Vorder": 1999,
      "▁Regenschirm": 2000,
      "▁genießen": 2001,
      "▁lilafarben": 2002,
      "▁schreibt": 2003,
      "iefeln": 2004,
      "▁guckt": 2005,
      "▁Lebensmittel": 2006,
      "▁unbefestig": 2007,
      "öcken": 2008,
      "erle": 2009,
      "eite": 2010,
      "stän": 2011,
      "▁Tänzer": 2012,
      "▁Wellen": 2013,
      "▁Wohn": 2014,
      "▁Aben": 2015,
      "urf": 2016,
      "▁weib": 2017,
      "▁durchs": 2018,
      "ossen": 2019,
      "▁Caf": 2020,
      "blasen": 2021,
      "▁Diese": 2022,
      "▁leeren": 2023,
      "▁asiatischen": 2024,
      "▁Mikrophon": 2025,
      "▁Seifen": 2026,
      "▁Schlagzeug": 2027,
      "▁Schutzhelm": 2028,
      "▁Soldaten": 2029,
      "▁Stühlen": 2030,
      "▁Eimer": 2031,
      "mitten": 2032,
      "rennen": 2033,
      "öpfen": 2034,
      "▁ch": 2035,
      "aske": 2036,
      "▁Pfl": 2037,
      "▁ko": 2038,
      "▁lesen": 2039,
      "reht": 2040,
      "▁entspann": 2041,
      "rillen": 2042,
      "▁gekleideten": 2043,
      "▁ohne": 2044,
      "▁Anz": 2045,
      "aptop": 2046,
      "▁Pferde": 2047,
      "▁gestreiftem": 2048,
      "▁Motorradfahrer": 2049,
      "▁Geländem": 2050,
      "▁Umgebung": 2051,
      "▁Ende": 2052,
      "▁gras": 2053,
      "▁wobei": 2054,
      "▁streckt": 2055,
      "maschine": 2056,
      "nung": 2057,
      "ssen": 2058,
      "ön": 2059,
      "instr": 2060,
      "▁silber": 2061,
      "▁inmitten": 2062,
      "▁Hu": 2063,
      "▁Kaff": 2064,
      "▁ir": 2065,
      "▁Gol": 2066,
      "icher": 2067,
      "▁kaufen": 2068,
      "▁gep": 2069,
      "▁Werk": 2070,
      "▁Rot": 2071,
      "▁schwingt": 2072,
      "ischt": 2073,
      "▁sprechen": 2074,
      "pfl": 2075,
      "▁Wassers": 2076,
      "ulp": 2077,
      "ssel": 2078,
      "▁Kraw": 2079,
      "▁Erwachsenen": 2080,
      "▁Erwachsener": 2081,
      "▁Leder": 2082,
      "▁Schuhen": 2083,
      "▁Badeanzug": 2084,
      "▁Weiß": 2085,
      "▁Rodeo": 2086,
      "▁afrikan": 2087,
      "▁Marathon": 2088,
      "▁beleuch": 2089,
      "▁riesigen": 2090,
      "ilitär": 2091,
      "do": 2092,
      "verk": 2093,
      "inie": 2094,
      "oren": 2095,
      "▁dies": 2096,
      "▁Laptop": 2097,
      "ader": 2098,
      "▁Gegend": 2099,
      "▁Ohr": 2100,
      "▁anderes": 2101,
      "▁Handschuhen": 2102,
      "▁älteren": 2103,
      "▁Parkplatz": 2104,
      "▁grauem": 2105,
      "▁gegenüber": 2106,
      "▁Sohn": 2107,
      "▁Konzert": 2108,
      "▁Uniformen": 2109,
      "▁Instrument": 2110,
      "▁Parade": 2111,
      "gn": 2112,
      "nah": 2113,
      "▁singen": 2114,
      "▁fl": 2115,
      "allen": 2116,
      "euz": 2117,
      "▁nä": 2118,
      "bewachsen": 2119,
      "▁Kinderwagen": 2120,
      "egel": 2121,
      "▁Gebäuden": 2122,
      "ührung": 2123,
      "▁Bergen": 2124,
      "▁Straßenecke": 2125,
      "▁Straßenrand": 2126,
      "ätow": 2127,
      "räder": 2128,
      "▁gelbes": 2129,
      "▁Treppen": 2130,
      "skop": 2131,
      "▁pinkfarben": 2132,
      "▁offenen": 2133,
      "richter": 2134,
      "▁hört": 2135,
      "▁starrt": 2136,
      "▁balanc": 2137,
      "▁Schreibt": 2138,
      "eben": 2139,
      "gem": 2140,
      "chten": 2141,
      "▁mar": 2142,
      "▁Finger": 2143,
      "▁Kir": 2144,
      "▁ganz": 2145,
      "▁wander": 2146,
      "▁Schoß": 2147,
      "ppt": 2148,
      "▁jagt": 2149,
      "▁rein": 2150,
      "▁verkleide": 2151,
      "▁Baustelle": 2152,
      "anken": 2153,
      "▁Bereich": 2154,
      "verall": 2155,
      "▁lächelnd": 2156,
      "schuh": 2157,
      "▁Arme": 2158,
      "▁pinkfarbenen": 2159,
      "▁schlagen": 2160,
      "▁umarmt": 2161,
      "▁Party": 2162,
      "▁Backstein": 2163,
      "▁Cheerle": 2164,
      "▁Geländemotorrad": 2165,
      "bik": 2166,
      "kten": 2167,
      "üß": 2168,
      "▁Sänger": 2169,
      "▁Fern": 2170,
      "anne": 2171,
      "▁Kuchen": 2172,
      "▁Künstler": 2173,
      "▁Gro": 2174,
      "ork": 2175,
      "▁Pause": 2176,
      "rot": 2177,
      "▁Wasch": 2178,
      "▁Jacken": 2179,
      "ierte": 2180,
      "leisch": 2181,
      "▁Stand": 2182,
      "▁schwarzes": 2183,
      "asser": 2184,
      "▁bekom": 2185,
      "▁grüne": 2186,
      "▁abge": 2187,
      "▁klettern": 2188,
      "üllt": 2189,
      "▁Tour": 2190,
      "▁dunkelhäutiger": 2191,
      "▁grasbewachsen": 2192,
      "ulptur": 2193,
      "▁Krawatte": 2194,
      "co": 2195,
      "farb": 2196,
      "glie": 2197,
      "mä": 2198,
      "srichter": 2199,
      "▁ind": 2200,
      "arm": 2201,
      "▁Hö": 2202,
      "▁Tier": 2203,
      "▁gegner": 2204,
      "▁gepflaster": 2205,
      "▁wä": 2206,
      "▁link": 2207,
      "▁Schatten": 2208,
      "indern": 2209,
      "▁Lauf": 2210,
      "utzen": 2211,
      "▁bedeckt": 2212,
      "▁Vi": 2213,
      "▁Netz": 2214,
      "aften": 2215,
      "hockey": 2216,
      "üllten": 2217,
      "▁verkaufen": 2218,
      "▁orangefarbener": 2219,
      "▁Jugendlicher": 2220,
      "▁repariert": 2221,
      "▁Vordergrund": 2222,
      "▁Schreibtisch": 2223,
      "uppen": 2224,
      "▁2": 2225,
      "▁Ä": 2226,
      "▁El": 2227,
      "▁Mobil": 2228,
      "▁Sicher": 2229,
      "▁Fü": 2230,
      "▁Fell": 2231,
      "team": 2232,
      "▁Koch": 2233,
      "tritt": 2234,
      "▁Taschen": 2235,
      "▁Last": 2236,
      "urs": 2237,
      "bew": 2238,
      "iste": 2239,
      "lage": 2240,
      "▁putzt": 2241,
      "▁unters": 2242,
      "▁schauk": 2243,
      "▁Blau": 2244,
      "▁gekleidetes": 2245,
      "itarre": 2246,
      "▁hellhäut": 2247,
      "▁Schlitten": 2248,
      "▁kurzer": 2249,
      "▁gegeneinander": 2250,
      "▁Tennisspieler": 2251,
      "ive": 2252,
      "▁Schulter": 2253,
      "korb": 2254,
      "▁Schnau": 2255,
      "▁verschiedene": 2256,
      "▁glück": 2257,
      "▁Clown": 2258,
      "stellung": 2259,
      "strecke": 2260,
      "hal": 2261,
      "ient": 2262,
      "westen": 2263,
      "zä": 2264,
      "unn": 2265,
      "▁Kunden": 2266,
      "orfen": 2267,
      "▁hol": 2268,
      "▁gut": 2269,
      "▁The": 2270,
      "▁fäl": 2271,
      "atur": 2272,
      "▁Overall": 2273,
      "▁verwen": 2274,
      "▁Fahrrädern": 2275,
      "gelben": 2276,
      "▁Fahrradfahrer": 2277,
      "▁Fußballspiel": 2278,
      "▁asiatisches": 2279,
      "▁Sandalen": 2280,
      "▁Mikroskop": 2281,
      "▁Schläger": 2282,
      "▁Baumst": 2283,
      "▁angezogen": 2284,
      "iedsrichter": 2285,
      "▁jemandem": 2286,
      "▁schütt": 2287,
      "▁balanciert": 2288,
      "St": 2289,
      "ac": 2290,
      "führt": 2291,
      "hält": 2292,
      "hak": 2293,
      "ktr": 2294,
      "lan": 2295,
      "telefon": 2296,
      "weste": 2297,
      "äsche": 2298,
      "chte": 2299,
      "ankt": 2300,
      "▁setzt": 2301,
      "eim": 2302,
      "▁beugt": 2303,
      "raum": 2304,
      "ord": 2305,
      "▁ziehen": 2306,
      "amen": 2307,
      "▁winkt": 2308,
      "deon": 2309,
      "▁fei": 2310,
      "▁Schauf": 2311,
      "▁Lab": 2312,
      "ppich": 2313,
      "▁schwimmen": 2314,
      "▁Stiefeln": 2315,
      "▁verf": 2316,
      "▁Blät": 2317,
      "▁Büro": 2318,
      "▁Pferden": 2319,
      "▁Erde": 2320,
      "▁Schlauch": 2321,
      "gebiet": 2322,
      "▁Gelände": 2323,
      "▁Footballspieler": 2324,
      "ahnen": 2325,
      "schläger": 2326,
      "schlossen": 2327,
      "▁alle": 2328,
      "▁Verkehr": 2329,
      "▁Akkor": 2330,
      "▁Einkaufswagen": 2331,
      "▁chines": 2332,
      "▁Mobiltelefon": 2333,
      "hang": 2334,
      "lung": 2335,
      "luft": 2336,
      "sern": 2337,
      "ve": 2338,
      "▁Ü": 2339,
      "▁so": 2340,
      "▁dreht": 2341,
      "▁beste": 2342,
      "▁Schiedsrichter": 2343,
      "bereich": 2344,
      "atz": 2345,
      "ilfe": 2346,
      "igem": 2347,
      "▁Train": 2348,
      "▁Im": 2349,
      "▁Angel": 2350,
      "▁grünes": 2351,
      "druck": 2352,
      "▁orangefarbenem": 2353,
      "▁Felswand": 2354,
      "▁Halsband": 2355,
      "▁Flugzeug": 2356,
      "▁Weihnachts": 2357,
      "treppe": 2358,
      "▁Surfbrett": 2359,
      "▁Klassenzimmer": 2360,
      "▁Kapuzen": 2361,
      "▁irgend": 2362,
      "▁fällt": 2363,
      "▁Akkordeon": 2364,
      "Spiel": 2365,
      "aß": 2366,
      "bel": 2367,
      "fährt": 2368,
      "ift": 2369,
      "ähn": 2370,
      "▁Ste": 2371,
      "▁Fall": 2372,
      "▁Fischer": 2373,
      "▁Fleisch": 2374,
      "▁Bul": 2375,
      "▁Kla": 2376,
      "▁Zimmer": 2377,
      "▁zeigen": 2378,
      "roten": 2379,
      "▁Teil": 2380,
      "▁wunder": 2381,
      "▁fünf": 2382,
      "▁Schla": 2383,
      "pren": 2384,
      "▁ras": 2385,
      "dert": 2386,
      "ugel": 2387,
      "anzügen": 2388,
      "wegs": 2389,
      "▁rothaarige": 2390,
      "▁dessen": 2391,
      "▁Schlamm": 2392,
      "▁lächelnde": 2393,
      "▁reiten": 2394,
      "▁Badehose": 2395,
      "▁belebte": 2396,
      "▁davor": 2397,
      "▁küssen": 2398,
      "▁schmutz": 2399,
      "▁Kanu": 2400,
      "▁hellbrauner": 2401,
      "▁unbefestigten": 2402,
      "▁Golf": 2403,
      "▁Höhe": 2404,
      "▁Sicherheit": 2405,
      "anktop": 2406,
      "fr": 2407,
      "kar": 2408,
      "pä": 2409,
      "zaun": 2410,
      "eicht": 2411,
      "▁Militär": 2412,
      "schild": 2413,
      "schaften": 2414,
      "ongl": 2415,
      "aler": 2416,
      "▁Pick": 2417,
      "▁Ta": 2418,
      "▁Tanktop": 2419,
      "▁kahl": 2420,
      "▁Wind": 2421,
      "▁for": 2422,
      "▁Loch": 2423,
      "irn": 2424,
      "▁train": 2425,
      "▁seines": 2426,
      "▁aussieht": 2427,
      "ehrt": 2428,
      "▁Oberteilen": 2429,
      "fahrzeug": 2430,
      "▁erwachsen": 2431,
      "▁Innen": 2432,
      "▁redet": 2433,
      "▁braunem": 2434,
      "brunnen": 2435,
      "▁Schuhe": 2436,
      "▁leuchtend": 2437,
      "▁weibliche": 2438,
      "▁Seifenblasen": 2439,
      "nahme": 2440,
      "ffer": 2441,
      "ki": 2442,
      "land": 2443,
      "lett": 2444,
      "ru": 2445,
      "zel": 2446,
      "äm": 2447,
      "öh": 2448,
      "ückt": 2449,
      "auen": 2450,
      "▁Ecke": 2451,
      "eitet": 2452,
      "▁Beg": 2453,
      "one": 2454,
      "stad": 2455,
      "▁Toch": 2456,
      "▁Tischen": 2457,
      "▁komp": 2458,
      "▁was": 2459,
      "▁Schaufen": 2460,
      "iern": 2461,
      "urt": 2462,
      "▁bekleide": 2463,
      "▁bewe": 2464,
      "rünet": 2465,
      "▁ob": 2466,
      "▁Spaß": 2467,
      "▁Schlange": 2468,
      "▁Kranken": 2469,
      "▁Spring": 2470,
      "brauner": 2471,
      "▁verschiedenen": 2472,
      "▁küsst": 2473,
      "▁afro": 2474,
      "▁Mount": 2475,
      "▁Kreis": 2476,
      "▁Pflanzen": 2477,
      "▁Schnauze": 2478,
      "unnel": 2479,
      "haki": 2480,
      "▁Mountain": 2481,
      "du": 2482,
      "dach": 2483,
      "dien": 2484,
      "pen": 2485,
      "pro": 2486,
      "▁Ele": 2487,
      "eier": 2488,
      "▁Säu": 2489,
      "weiße": 2490,
      "▁Teich": 2491,
      "▁Wü": 2492,
      "▁Jahr": 2493,
      "▁Rück": 2494,
      "▁Stirn": 2495,
      "endes": 2496,
      "▁ausge": 2497,
      "▁Nach": 2498,
      "▁padd": 2499,
      "afel": 2500,
      "ocht": 2501,
      "▁Kopft": 2502,
      "igur": 2503,
      "fahrt": 2504,
      "▁tau": 2505,
      "▁Spielfeld": 2506,
      "▁Tramp": 2507,
      "▁Dies": 2508,
      "Shirts": 2509,
      "▁Stadion": 2510,
      "▁Skateboarder": 2511,
      "hosen": 2512,
      "▁Teppich": 2513,
      "▁Bäume": 2514,
      "▁Karate": 2515,
      "▁Schultern": 2516,
      "▁öff": 2517,
      "▁Rennstrecke": 2518,
      "▁Gerüst": 2519,
      "▁schönen": 2520,
      "▁Tromm": 2521,
      "▁geschm": 2522,
      "▁farbenfrohen": 2523,
      "köpfiger": 2524,
      "▁bemalt": 2525,
      "▁lilafarbenen": 2526,
      "▁Kaffee": 2527,
      "▁grasbewachsenen": 2528,
      "indernis": 2529,
      "▁Lastwagen": 2530,
      "▁wundersch": 2531,
      "▁Tochter": 2532,
      "▁Mountainbik": 2533,
      "by": 2534,
      "fte": 2535,
      "gelt": 2536,
      "nis": 2537,
      "▁en": 2538,
      "enkt": 2539,
      "erin": 2540,
      "▁Mitt": 2541,
      "▁Fe": 2542,
      "▁Flasche": 2543,
      "▁Haufen": 2544,
      "▁bis": 2545,
      "▁Geige": 2546,
      "cker": 2547,
      "▁Tasse": 2548,
      "▁kocht": 2549,
      "reifen": 2550,
      "urr": 2551,
      "▁Hunden": 2552,
      "prü": 2553,
      "▁jog": 2554,
      "▁entfer": 2555,
      "farbener": 2556,
      "▁Luftball": 2557,
      "zene": 2558,
      "▁Flie": 2559,
      "ansp": 2560,
      "strukt": 2561,
      "▁recht": 2562,
      "▁Kai": 2563,
      "dient": 2564,
      "▁frisch": 2565,
      "▁männlicher": 2566,
      "▁Verkauf": 2567,
      "igkeit": 2568,
      "▁Sax": 2569,
      "▁Café": 2570,
      "▁Hula": 2571,
      "▁Kirche": 2572,
      "▁Cheerleader": 2573,
      "▁gepflasterten": 2574,
      "Fahr": 2575,
      "ay": 2576,
      "bad": 2577,
      "belt": 2578,
      "kw": 2579,
      "linie": 2580,
      "pe": 2581,
      "wärt": 2582,
      "üs": 2583,
      "eifen": 2584,
      "▁Farben": 2585,
      "▁aufger": 2586,
      "▁Hindernis": 2587,
      "▁hei": 2588,
      "▁Plat": 2589,
      "▁Zä": 2590,
      "▁kon": 2591,
      "▁geschlossen": 2592,
      "▁Wein": 2593,
      "▁fels": 2594,
      "▁Lie": 2595,
      "urg": 2596,
      "olin": 2597,
      "olden": 2598,
      "▁jongl": 2599,
      "ment": 2600,
      "gerät": 2601,
      "bogen": 2602,
      "▁unterwegs": 2603,
      "ester": 2604,
      "omm": 2605,
      "▁orient": 2606,
      "ammer": 2607,
      "▁Parkbank": 2608,
      "alto": 2609,
      "▁asiatisch": 2610,
      "▁hellen": 2611,
      "▁Soft": 2612,
      "▁Meeres": 2613,
      "▁Küste": 2614,
      "▁Schuh": 2615,
      "▁Kappe": 2616,
      "▁Freunden": 2617,
      "▁Landschaft": 2618,
      "▁aussehende": 2619,
      "▁umarmen": 2620,
      "▁Freunde": 2621,
      "igkeiten": 2622,
      "kappe": 2623,
      "▁Objekt": 2624,
      "▁Balkon": 2625,
      "▁marsch": 2626,
      "▁gegnerischen": 2627,
      "▁schaukelt": 2628,
      "▁Schaufel": 2629,
      "▁afroamerikan": 2630,
      "▁oriental": 2631,
      "Qu": 2632,
      "hälter": 2633,
      "kop": 2634,
      "lauf": 2635,
      "läufer": 2636,
      "oo": 2637,
      "ool": 2638,
      "oop": 2639,
      "sh": 2640,
      "▁a": 2641,
      "▁ärm": 2642,
      "▁Mahl": 2643,
      "▁dam": 2644,
      "▁Sachen": 2645,
      "▁Hang": 2646,
      "▁Helmen": 2647,
      "test": 2648,
      "▁brünet": 2649,
      "▁Gasse": 2650,
      "▁hängen": 2651,
      "anda": 2652,
      "▁Ziel": 2653,
      "▁gie": 2654,
      "▁wein": 2655,
      "▁Stroh": 2656,
      "▁bedient": 2657,
      "licht": 2658,
      "▁Blatt": 2659,
      "▁Skater": 2660,
      "▁Dieser": 2661,
      "schaukel": 2662,
      "▁Flü": 2663,
      "▁Außen": 2664,
      "▁grauer": 2665,
      "▁Inl": 2666,
      "▁dunkler": 2667,
      "▁Schwimmbrille": 2668,
      "▁Steine": 2669,
      "▁Gegenstän": 2670,
      "▁ruh": 2671,
      "▁Flaggen": 2672,
      "▁Schutzhelmen": 2673,
      "schwarzer": 2674,
      "▁violetten": 2675,
      "▁Katze": 2676,
      "▁entspannt": 2677,
      "▁beleuchteten": 2678,
      "▁Touristen": 2679,
      "▁Kapuzenp": 2680,
      "stadt": 2681,
      "▁Trampolin": 2682,
      "▁ärmell": 2683,
      "▁damit": 2684,
      "ackt": 2685,
      "füllten": 2686,
      "uh": 2687,
      "inn": 2688,
      "inen": 2689,
      "▁Maske": 2690,
      "▁Fahnen": 2691,
      "arbe": 2692,
      "▁aufge": 2693,
      "▁Bad": 2694,
      "▁Ke": 2695,
      "tert": 2696,
      "alter": 2697,
      "▁gezogen": 2698,
      "▁wur": 2699,
      "inder": 2700,
      "berteil": 2701,
      "ierter": 2702,
      "▁Strecke": 2703,
      "ildern": 2704,
      "▁Stoff": 2705,
      "ändern": 2706,
      "▁gele": 2707,
      "▁Skiern": 2708,
      "▁hinab": 2709,
      "zeugen": 2710,
      "▁steigt": 2711,
      "örm": 2712,
      "▁Spei": 2713,
      "▁Berge": 2714,
      "▁befest": 2715,
      "▁Feldweg": 2716,
      "sperr": 2717,
      "veranstaltung": 2718,
      "flug": 2719,
      "▁Gesichts": 2720,
      "▁Seiten": 2721,
      "▁Kreuz": 2722,
      "▁Kunstwerk": 2723,
      "iform": 2724,
      "auto": 2725,
      "sprung": 2726,
      "▁Turner": 2727,
      "▁langem": 2728,
      "▁Schüssel": 2729,
      "▁New": 2730,
      "hügel": 2731,
      "▁hüpft": 2732,
      "▁Kopfhörer": 2733,
      "bewerb": 2734,
      "▁holt": 2735,
      "▁verwendet": 2736,
      "▁Bullen": 2737,
      "▁Schlaf": 2738,
      "▁Springbrunnen": 2739,
      "▁jongliert": 2740,
      "age": 2741,
      "bis": 2742,
      "del": 2743,
      "kat": 2744,
      "richtung": 2745,
      "zeigt": 2746,
      "äst": 2747,
      "äten": 2748,
      "üte": 2749,
      "üne": 2750,
      "eiß": 2751,
      "▁Sitzen": 2752,
      "▁Hot": 2753,
      "▁Bilder": 2754,
      "▁Kur": 2755,
      "▁Glei": 2756,
      "ale": 2757,
      "ros": 2758,
      "▁Terr": 2759,
      "▁kr": 2760,
      "▁kauft": 2761,
      "▁geschäft": 2762,
      "▁gesä": 2763,
      "▁Rett": 2764,
      "▁Laub": 2765,
      "umpf": 2766,
      "▁nur": 2767,
      "lagen": 2768,
      "omaten": 2769,
      "▁Klippe": 2770,
      "▁Studen": 2771,
      "▁lächelnder": 2772,
      "▁schießt": 2773,
      "▁Eishockey": 2774,
      "▁Umzug": 2775,
      "▁fliegen": 2776,
      "dio": 2777,
      "erbung": 2778,
      "kostüm": 2779,
      "▁Couch": 2780,
      "▁Abend": 2781,
      "▁links": 2782,
      "zäun": 2783,
      "▁Fallschirm": 2784,
      "▁Sicherheits": 2785,
      "▁Pickn": 2786,
      "▁Schaufenster": 2787,
      "▁rechts": 2788,
      "▁Softball": 2789,
      "Hoop": 2790,
      "baren": 2791,
      "helm": 2792,
      "mit": 2793,
      "osten": 2794,
      "seite": 2795,
      "yl": 2796,
      "inge": 2797,
      "▁einsam": 2798,
      "emon": 2799,
      "ement": 2800,
      "eister": 2801,
      "elten": 2802,
      "▁inter": 2803,
      "gegen": 2804,
      "ard": 2805,
      "ond": 2806,
      "weise": 2807,
      "ichtet": 2808,
      "rol": 2809,
      "▁gril": 2810,
      "▁golden": 2811,
      "▁Teller": 2812,
      "▁geöff": 2813,
      "▁Wurf": 2814,
      "▁Licht": 2815,
      "▁Lkw": 2816,
      "▁bläst": 2817,
      "umten": 2818,
      "▁Grim": 2819,
      "▁Geschen": 2820,
      "ürde": 2821,
      "▁verh": 2822,
      "fern": 2823,
      "teilen": 2824,
      "blas": 2825,
      "▁Bücher": 2826,
      "stücke": 2827,
      "stühlen": 2828,
      "▁berührt": 2829,
      "sstand": 2830,
      "ophon": 2831,
      "▁Straßenk": 2832,
      "▁hellblauen": 2833,
      "▁Brett": 2834,
      "▁Sportler": 2835,
      "▁heben": 2836,
      "▁Projekt": 2837,
      "▁ruht": 2838,
      "▁aussehender": 2839,
      "▁schlafen": 2840,
      "▁Cowboyhut": 2841,
      "▁fotografieren": 2842,
      "▁dunkelhäutige": 2843,
      "▁reparieren": 2844,
      "▁Instrumenten": 2845,
      "▁Asiate": 2846,
      "▁barfuß": 2847,
      "▁Anzügen": 2848,
      "▁wandert": 2849,
      "▁bekommt": 2850,
      "▁schüttelt": 2851,
      "▁verfolgt": 2852,
      "▁Wüste": 2853,
      "▁Kopftuch": 2854,
      "▁wunderschö": 2855,
      "▁grillt": 2856,
      "aht": 2857,
      "fft": 2858,
      "▁Qu": 2859,
      "chern": 2860,
      "▁Ei": 2861,
      "▁dir": 2862,
      "scheibe": 2863,
      "orn": 2864,
      "itze": 2865,
      "▁vorüber": 2866,
      "▁überfüllten": 2867,
      "▁besch": 2868,
      "▁best": 2869,
      "▁Personengruppe": 2870,
      "▁nie": 2871,
      "▁Nase": 2872,
      "iertem": 2873,
      "▁schauf": 2874,
      "aufnahme": 2875,
      "▁stein": 2876,
      "ützen": 2877,
      "apel": 2878,
      "▁Gitarri": 2879,
      "hoben": 2880,
      "▁Reiter": 2881,
      "▁braunhaarige": 2882,
      "schuhe": 2883,
      "▁hockt": 2884,
      "▁Veranda": 2885,
      "▁Beinen": 2886,
      "▁Handtasche": 2887,
      "▁Wettkampf": 2888,
      "▁Instrumente": 2889,
      "verkäufer": 2890,
      "▁reinigt": 2891,
      "▁bestehen": 2892,
      "▁geschlossenen": 2893,
      "▁Mahlzeit": 2894,
      "bus": 2895,
      "bart": 2896,
      "baum": 2897,
      "flasche": 2898,
      "führung": 2899,
      "ib": 2900,
      "ic": 2901,
      "uder": 2902,
      "äfer": 2903,
      "üm": 2904,
      "▁unge": 2905,
      "ere": 2906,
      "erfer": 2907,
      "eiben": 2908,
      "eles": 2909,
      "▁Salto": 2910,
      "▁For": 2911,
      "▁auch": 2912,
      "▁Bach": 2913,
      "▁bauen": 2914,
      "▁Kart": 2915,
      "alon": 2916,
      "ross": 2917,
      "▁gebl": 2918,
      "▁Wel": 2919,
      "▁farb": 2920,
      "▁Jo": 2921,
      "▁linken": 2922,
      "sent": 2923,
      "▁jub": 2924,
      "ürt": 2925,
      "▁umher": 2926,
      "▁Wasserfall": 2927,
      "▁amüs": 2928,
      "▁Box": 2929,
      "arbeiten": 2930,
      "▁stark": 2931,
      "▁vorbeigehen": 2932,
      "apan": 2933,
      "▁Erd": 2934,
      "eichnet": 2935,
      "gestellt": 2936,
      "smann": 2937,
      "▁Hauses": 2938,
      "glas": 2939,
      "▁gucken": 2940,
      "▁schnell": 2941,
      "▁hüb": 2942,
      "▁Asiatin": 2943,
      "▁Gebiet": 2944,
      "▁Asiaten": 2945,
      "schirr": 2946,
      "schirmen": 2947,
      "zentrum": 2948,
      "▁York": 2949,
      "▁traditioneller": 2950,
      "instrumen": 2951,
      "▁diesem": 2952,
      "▁pinkfarbenem": 2953,
      "▁Groß": 2954,
      "▁öffnet": 2955,
      "▁Zähne": 2956,
      "▁felsigen": 2957,
      "eleskop": 2958,
      "atr": 2959,
      "brillen": 2960,
      "cr": 2961,
      "ebt": 2962,
      "hafen": 2963,
      "ippen": 2964,
      "kate": 2965,
      "laden": 2966,
      "muster": 2967,
      "opren": 2968,
      "sicht": 2969,
      "tisch": 2970,
      "yboard": 2971,
      "▁e": 2972,
      "enk": 2973,
      "▁mehr": 2974,
      "▁Fest": 2975,
      "▁aufblas": 2976,
      "schlag": 2977,
      "onen": 2978,
      "▁Ki": 2979,
      "▁kann": 2980,
      "▁Wäsche": 2981,
      "▁anh": 2982,
      "bereitet": 2983,
      "etzen": 2984,
      "▁Gepä": 2985,
      "▁je": 2986,
      "▁beige": 2987,
      "▁bedeck": 2988,
      "isk": 2989,
      "▁verz": 2990,
      "▁Fahrräder": 2991,
      "▁untersch": 2992,
      "▁erkl": 2993,
      "▁steigen": 2994,
      "▁Gewehr": 2995,
      "▁Steinen": 2996,
      "▁Küchen": 2997,
      "stehen": 2998,
      "▁Geschäfts": 2999,
      "▁schneiden": 3000,
      "▁fröh": 3001,
      "▁langärm": 3002,
      "▁Getränke": 3003,
      "▁Neopren": 3004,
      "schnitten": 3005,
      "▁Winterkleidung": 3006,
      "schwarzen": 3007,
      "▁Hockeyspieler": 3008,
      "▁Kerl": 3009,
      "▁Lederjacke": 3010,
      "▁wäscht": 3011,
      "▁untersucht": 3012,
      "▁Blätter": 3013,
      "▁taucht": 3014,
      "struktion": 3015,
      "wärts": 3016,
      "▁Straßenkünstler": 3017,
      "händ": 3018,
      "mantel": 3019,
      "nes": 3020,
      "ose": 3021,
      "sel": 3022,
      "ton": 3023,
      "viert": 3024,
      "xt": 3025,
      "▁1": 3026,
      "▁pfl": 3027,
      "▁einzel": 3028,
      "▁sau": 3029,
      "▁samm": 3030,
      "▁Eingang": 3031,
      "eile": 3032,
      "eibt": 3033,
      "▁Mö": 3034,
      "▁He": 3035,
      "▁BM": 3036,
      "scher": 3037,
      "schein": 3038,
      "stag": 3039,
      "▁vollen": 3040,
      "▁Kissen": 3041,
      "▁Kuh": 3042,
      "▁Pal": 3043,
      "▁Zunge": 3044,
      "▁Tuch": 3045,
      "▁Tarn": 3046,
      "▁kickt": 3047,
      "▁getr": 3048,
      "▁wen": 3049,
      "▁Dre": 3050,
      "▁Ring": 3051,
      "▁Afro": 3052,
      "ällen": 3053,
      "▁Grün": 3054,
      "▁Gruppen": 3055,
      "änden": 3056,
      "▁beieinander": 3057,
      "▁Ol": 3058,
      "▁neu": 3059,
      "▁näch": 3060,
      "▁sitzende": 3061,
      "▁gelegt": 3062,
      "fahrern": 3063,
      "zeuge": 3064,
      "▁Kamer": 3065,
      "▁nachdem": 3066,
      "icker": 3067,
      "▁Fotogr": 3068,
      "▁Skateboardfahrer": 3069,
      "▁darunter": 3070,
      "ulli": 3071,
      "▁Kleine": 3072,
      "▁Sees": 3073,
      "braunen": 3074,
      "▁dunkelhaarige": 3075,
      "▁streich": 3076,
      "azier": 3077,
      "▁allein": 3078,
      "▁Gerät": 3079,
      "▁Sieben": 3080,
      "ance": 3081,
      "▁hellbraunen": 3082,
      "▁Teams": 3083,
      "▁übt": 3084,
      "▁Fußgängerüber": 3085,
      "▁Taucher": 3086,
      "▁weitere": 3087,
      "▁Passanten": 3088,
      "▁Baumstamm": 3089,
      "▁Jahrmarkt": 3090,
      "Fahrer": 3091,
      "▁gießt": 3092,
      "▁wurde": 3093,
      "▁Kurve": 3094,
      "▁Terrasse": 3095,
      "▁Rettungs": 3096,
      "ete": 3097,
      "hem": 3098,
      "hängen": 3099,
      "icken": 3100,
      "kü": 3101,
      "los": 3102,
      "öcke": 3103,
      "ül": 3104,
      "▁Ö": 3105,
      "itter": 3106,
      "elfen": 3107,
      "▁mö": 3108,
      "are": 3109,
      "testelle": 3110,
      "▁Brä": 3111,
      "▁Bord": 3112,
      "stoff": 3113,
      "▁höl": 3114,
      "▁helfen": 3115,
      "ichten": 3116,
      "▁ger": 3117,
      "▁gold": 3118,
      "▁Tunnel": 3119,
      "▁Teleskop": 3120,
      "▁Dunk": 3121,
      "▁Rug": 3122,
      "▁Lager": 3123,
      "▁vorn": 3124,
      "ilden": 3125,
      "utig": 3126,
      "eucht": 3127,
      "▁reg": 3128,
      "▁nassen": 3129,
      "pfel": 3130,
      "▁Nah": 3131,
      "▁hinaus": 3132,
      "▁Spielen": 3133,
      "▁hinterher": 3134,
      "ütte": 3135,
      "ickelt": 3136,
      "▁Schwimmer": 3137,
      "▁gestreif": 3138,
      "▁Becher": 3139,
      "▁Brust": 3140,
      "▁Mitglie": 3141,
      "▁Ausrüstung": 3142,
      "▁Ort": 3143,
      "▁kommen": 3144,
      "▁Rollstuhl": 3145,
      "▁bringt": 3146,
      "kommen": 3147,
      "▁geworfen": 3148,
      "▁üben": 3149,
      "▁Weihnacht": 3150,
      "▁vollführt": 3151,
      "▁Nummer ": 3152,
      "▁barfüß": 3153,
      "▁amerikanische": 3154,
      "önnen": 3155,
      "▁näh": 3156,
      "▁rasiert": 3157,
      "ansport": 3158,
      "▁konzentr": 3159,
      "▁Geschenk": 3160,
      "▁Gepäck": 3161,
      "▁unterschied": 3162,
      "▁Bräutig": 3163,
      "▁Bräutigam": 3164,
      "bes": 3165,
      "hle": 3166,
      "haufen": 3167,
      "hilfe": 3168,
      "opf": 3169,
      "tasche": 3170,
      "uckt": 3171,
      "wasser": 3172,
      "ymp": 3173,
      "▁3": 3174,
      "▁Ex": 3175,
      "▁Mod": 3176,
      "▁Matte": 3177,
      "▁dan": 3178,
      "▁Besen": 3179,
      "▁Kab": 3180,
      "▁Pl": 3181,
      "▁Per": 3182,
      "▁Mänt": 3183,
      "▁Tätow": 3184,
      "▁geben": 3185,
      "▁gezeigt": 3186,
      "▁angelt": 3187,
      "▁fert": 3188,
      "▁Schäfer": 3189,
      "▁Da": 3190,
      "bern": 3191,
      "iere": 3192,
      "▁sitzender": 3193,
      "▁weit": 3194,
      "▁Gesch": 3195,
      "▁Geschirr": 3196,
      "▁überprü": 3197,
      "▁ringen": 3198,
      "pfer": 3199,
      "▁sitzenden": 3200,
      "laschen": 3201,
      "▁Koffer": 3202,
      "▁Ur": 3203,
      "▁tief": 3204,
      "▁Träger": 3205,
      "ettern": 3206,
      "▁Fotograf": 3207,
      "▁Waldgebiet": 3208,
      "▁bunte": 3209,
      "▁Karten": 3210,
      "▁Karren": 3211,
      "▁Polizei": 3212,
      "▁Prof": 3213,
      "▁gleitet": 3214,
      "stufen": 3215,
      "▁Arbeitskleidung": 3216,
      "▁benutzen": 3217,
      "▁schreit": 3218,
      "▁bespr": 3219,
      "▁verlassen": 3220,
      "▁Drachen": 3221,
      "gewicht": 3222,
      "▁dekor": 3223,
      "aktor": 3224,
      "▁Vide": 3225,
      "▁hellhäutiger": 3226,
      "▁feiern": 3227,
      "▁Über": 3228,
      "▁paddelt": 3229,
      "▁Keyboard": 3230,
      "crem": 3231,
      "▁Neoprenanzug": 3232,
      "▁Rugby": 3233,
      "▁Tätowier": 3234,
      "bau": 3235,
      "cross": 3236,
      "förm": 3237,
      "halt": 3238,
      "kte": 3239,
      "man": 3240,
      "ote": 3241,
      "satz": 3242,
      "tform": 3243,
      "wir": 3244,
      "äcken": 3245,
      "öhn": 3246,
      "▁ele": 3247,
      "ena": 3248,
      "chter": 3249,
      "chester": 3250,
      "anger": 3251,
      "unkt": 3252,
      "▁selt": 3253,
      "▁Moto": 3254,
      "itte": 3255,
      "▁Sitz": 3256,
      "unde": 3257,
      "▁Fil": 3258,
      "▁Heu": 3259,
      "▁Ban": 3260,
      "▁Bes": 3261,
      "▁brei": 3262,
      "asst": 3263,
      "▁kehrt": 3264,
      "▁khaki": 3265,
      "▁Wild": 3266,
      "▁Jungs": 3267,
      "▁land": 3268,
      "▁Schot": 3269,
      "▁Schiff": 3270,
      "neten": 3271,
      "nehmen": 3272,
      "älde": 3273,
      "älle": 3274,
      "▁Hundes": 3275,
      "änder": 3276,
      "▁Vö": 3277,
      "▁Viol": 3278,
      "▁nack": 3279,
      "bekleidung": 3280,
      "▁Namen": 3281,
      "▁herab": 3282,
      "▁tür": 3283,
      "▁tätow": 3284,
      "ult": 3285,
      "▁Spiels": 3286,
      "▁Spazier": 3287,
      "▁blond": 3288,
      "ocks": 3289,
      "▁Berges": 3290,
      "▁lehnen": 3291,
      "▁Auftritt": 3292,
      "▁Tennisschläger": 3293,
      "▁Gewand": 3294,
      "zuf": 3295,
      "▁Schnurr": 3296,
      "▁alleine": 3297,
      "schnitt": 3298,
      "fallen": 3299,
      "mannschaft": 3300,
      "▁Flughafen": 3301,
      "▁schöne": 3302,
      "▁begut": 3303,
      "▁violett": 3304,
      "▁Handtuch": 3305,
      "▁Turnhalle": 3306,
      "gnü": 3307,
      "▁verkleidet": 3308,
      "▁glücklich": 3309,
      "▁Theke": 3310,
      "▁chinesischen": 3311,
      "▁Weihnachtsbaum": 3312,
      "▁bewegt": 3313,
      "▁Trommel": 3314,
      "▁entfernt": 3315,
      "▁Kapuzenpulli": 3316,
      "▁ärmellosen": 3317,
      "zäunten": 3318,
      "▁Jockey": 3319,
      "▁BMX": 3320,
      "▁Afroamerikan": 3321,
      "▁Nahaufnahme": 3322,
      "▁konzentriert": 3323,
      "▁Mänteln": 3324,
      "▁Schäferhund": 3325,
      "▁seltsam": 3326,
      "▁Motocross": 3327,
      "grau": 3328,
      "ippt": 3329,
      "äsern": 3330,
      "öte": 3331,
      "üten": 3332,
      "▁Sm": 3333,
      "▁Segel": 3334,
      "▁Frü": 3335,
      "▁Farbe": 3336,
      "ieben": 3337,
      "▁Brot": 3338,
      "ong": 3339,
      "stern": 3340,
      "statt": 3341,
      "▁Ketten": 3342,
      "▁Zahl": 3343,
      "▁Zement": 3344,
      "▁grä": 3345,
      "▁kalten": 3346,
      "▁geh": 3347,
      "▁Werbung": 3348,
      "▁füt": 3349,
      "▁fast": 3350,
      "▁folgt": 3351,
      "▁Jog": 3352,
      "▁lange": 3353,
      "▁lassen": 3354,
      "▁Dau": 3355,
      "▁Dor": 3356,
      "▁Rä": 3357,
      "ole": 3358,
      "▁Stapel": 3359,
      "▁jagen": 3360,
      "gerüst": 3361,
      "änken": 3362,
      "legest": 3363,
      "▁Vers": 3364,
      "▁nass": 3365,
      "▁entgegen": 3366,
      "▁Handstand": 3367,
      "▁Fahrer": 3368,
      "ospiel": 3369,
      "▁US": 3370,
      "ommen": 3371,
      "▁Skulptur": 3372,
      "▁Ballon": 3373,
      "▁Freizeit": 3374,
      "▁Fläche": 3375,
      "strand": 3376,
      "icket": 3377,
      "▁rechten": 3378,
      "▁lächelndes": 3379,
      "▁braunes": 3380,
      "ake": 3381,
      "▁schießen": 3382,
      "▁bunt": 3383,
      "▁Arbeits": 3384,
      "▁offenem": 3385,
      "▁jemanden": 3386,
      "▁Rolltreppe": 3387,
      "▁Tromp": 3388,
      "▁Soldat": 3389,
      "▁ausgestreck": 3390,
      "▁Hochzeits": 3391,
      "▁Wohnzimmer": 3392,
      "▁Angelru": 3393,
      "▁trainiert": 3394,
      "▁Saxophon": 3395,
      "▁Gegenstände": 3396,
      "▁befestigt": 3397,
      "▁geschäftigen": 3398,
      "▁Studenten": 3399,
      "▁hölzer": 3400,
      "▁Weihnachtsmann": 3401,
      "▁elektr": 3402,
      "▁gräbt": 3403,
      "legestelle": 3404,
      "aal": 3405,
      "bör": 3406,
      "glei": 3407,
      "plat": 3408,
      "rutsche": 3409,
      "seit": 3410,
      "salon": 3411,
      "usch": 3412,
      "ößer": 3413,
      "einw": 3414,
      "▁sel": 3415,
      "▁steilen": 3416,
      "▁Mon": 3417,
      "▁Figur": 3418,
      "▁Häu": 3419,
      "▁Hafen": 3420,
      "▁baut": 3421,
      "▁Gass": 3422,
      "▁Gang": 3423,
      "träger": 3424,
      "▁Pa": 3425,
      "▁Pr": 3426,
      "▁Pit": 3427,
      "▁Pär": 3428,
      "▁Zahn": 3429,
      "rock": 3430,
      "ama": 3431,
      "▁anzu": 3432,
      "▁Schaf": 3433,
      "▁Lehrer": 3434,
      "reichen": 3435,
      "utel": 3436,
      "▁Staub": 3437,
      "▁Gegner": 3438,
      "▁runden": 3439,
      "▁Oze": 3440,
      "▁ihres": 3441,
      "▁Not": 3442,
      "▁stehenden": 3443,
      "▁plan": 3444,
      "▁Hocke": 3445,
      "▁Blue": 3446,
      "hlt": 3447,
      "▁Ballons": 3448,
      "▁hinein": 3449,
      "▁statt": 3450,
      "wegung": 3451,
      "▁Spitze": 3452,
      "▁blondem": 3453,
      "ops": 3454,
      "▁Sonnenbrillen": 3455,
      "flie": 3456,
      "▁Wandbild": 3457,
      "▁Baseballkappe": 3458,
      "llt": 3459,
      "▁Kleiner": 3460,
      "geboren": 3461,
      "▁Bildschirm": 3462,
      "affel": 3463,
      "▁Behälter": 3464,
      "▁Kunststücke": 3465,
      "▁Pfütze": 3466,
      "▁Pfosten": 3467,
      "attoo": 3468,
      "▁Bushal": 3469,
      "▁Gemälde": 3470,
      "▁Orange": 3471,
      "▁Plakat": 3472,
      "▁Topf": 3473,
      "▁bringen": 3474,
      "▁Lebensmitt": 3475,
      "▁hören": 3476,
      "▁bewöl": 3477,
      "▁Knie": 3478,
      "▁kochen": 3479,
      "▁Werkzeug": 3480,
      "männer": 3481,
      "▁Eltern": 3482,
      "▁Füßen": 3483,
      "▁Labor": 3484,
      "▁irgendein": 3485,
      "▁Klav": 3486,
      "▁kahlköpfiger": 3487,
      "▁form": 3488,
      "▁komplett": 3489,
      "▁Mountainbike": 3490,
      "▁brünette": 3491,
      "▁weint": 3492,
      "▁gelehnt": 3493,
      "▁schaufelt": 3494,
      "▁mehrfarb": 3495,
      "▁streichelt": 3496,
      "▁nähert": 3497,
      "▁daneben": 3498,
      "▁Trägerhemd": 3499,
      "▁Videospiel": 3500,
      "▁Daumen": 3501,
      "▁hölzernen": 3502,
      "▁Pärchen": 3503,
      "▁Bushaltestelle": 3504,
      "ages": 3505,
      "bung": 3506,
      "dy": 3507,
      "gitarre": 3508,
      "ia": 3509,
      "kan": 3510,
      "kugel": 3511,
      "locks": 3512,
      "merk": 3513,
      "ostüm": 3514,
      "richt": 3515,
      "szene": 3516,
      "tm": 3517,
      "xen": 3518,
      "ym": 3519,
      "zeichen": 3520,
      "ausch": 3521,
      "anlage": 3522,
      "▁Mess": 3523,
      "eligen": 3524,
      "▁Su": 3525,
      "▁Fans": 3526,
      "▁Feier": 3527,
      "▁Hammer": 3528,
      "▁Hürde": 3529,
      "▁bie": 3530,
      "schm": 3531,
      "stange": 3532,
      "▁Kisten": 3533,
      "▁Gumm": 3534,
      "▁Pier": 3535,
      "▁zeichnet": 3536,
      "rok": 3537,
      "▁kau": 3538,
      "▁gespr": 3539,
      "▁We": 3540,
      "▁Jack": 3541,
      "▁lock": 3542,
      "▁länd": 3543,
      "▁Schr": 3544,
      "▁Schlei": 3545,
      "neh": 3546,
      "▁Am": 3547,
      "▁klat": 3548,
      "adlocks": 3549,
      "othe": 3550,
      "▁Stier": 3551,
      "▁beschäft": 3552,
      "▁Menschengruppe": 3553,
      "▁spritzt": 3554,
      "anze": 3555,
      "▁Balls": 3556,
      "samm": 3557,
      "▁Skatepark": 3558,
      "▁Stadtstraße": 3559,
      "▁sechs": 3560,
      "▁Motorrädern": 3561,
      "dessen": 3562,
      "haarigen": 3563,
      "▁Socken": 3564,
      "rise": 3565,
      "▁Steinmauer": 3566,
      "ampen": 3567,
      "▁Restaurants": 3568,
      "gestell": 3569,
      "netz": 3570,
      "skulptur": 3571,
      "▁Zuschauermenge": 3572,
      "▁Graffitis": 3573,
      "▁scheinen": 3574,
      "▁schlaf": 3575,
      "▁Bahnsteig": 3576,
      "weißem": 3577,
      "hüter": 3578,
      "▁Jugendliche": 3579,
      "▁bewund": 3580,
      "▁Einkaufszentrum": 3581,
      "▁Rollerbl": 3582,
      "▁Deck": 3583,
      "▁Kletterer": 3584,
      "▁jüngeren": 3585,
      "▁Kopfhörern": 3586,
      "instrument": 3587,
      "▁geparkt": 3588,
      "▁schmutzigen": 3589,
      "▁Krankenhaus": 3590,
      "▁Dieses": 3591,
      "▁joggt": 3592,
      "▁heißen": 3593,
      "▁Inlines": 3594,
      "▁Speisen": 3595,
      "▁Picknickt": 3596,
      "roller": 3597,
      "▁goldenen": 3598,
      "▁wunderschönen": 3599,
      "▁geblüm": 3600,
      "kates": 3601,
      "händler": 3602,
      "▁Dreadlocks": 3603,
      "creme": 3604,
      "▁Schnurrbart": 3605,
      "▁ausgestreckten": 3606,
      "▁Gassi": 3607,
      "▁Klavier": 3608,
      "merksam": 3609,
      "Gitarre": 3610,
      "Reifen": 3611,
      "bem": 3612,
      "eet": 3613,
      "hmaschine": 3614,
      "keit": 3615,
      "leu": 3616,
      "nem": 3617,
      "ood": 3618,
      "tüte": 3619,
      "up": 3620,
      "zern": 3621,
      "äften": 3622,
      "▁ar": 3623,
      "innt": 3624,
      "enz": 3625,
      "eir": 3626,
      "▁Man": 3627,
      "▁Mop": 3628,
      "▁disk": 3629,
      "▁Sil": 3630,
      "▁mus": 3631,
      "▁Fa": 3632,
      "▁aufs": 3633,
      "▁bo": 3634,
      "stock": 3635,
      "▁Kä": 3636,
      "▁Körper": 3637,
      "▁Kies": 3638,
      "▁Gold": 3639,
      "ask": 3640,
      "▁halb": 3641,
      "trick": 3642,
      "trakt": 3643,
      "▁Ze": 3644,
      "▁Zie": 3645,
      "▁Zeichen": 3646,
      "ichtern": 3647,
      "▁Ton": 3648,
      "▁Tab": 3649,
      "▁wa": 3650,
      "▁Schne": 3651,
      "reiche": 3652,
      "▁Strom": 3653,
      "ativ": 3654,
      "▁Mädchens": 3655,
      "▁schwach": 3656,
      "euert": 3657,
      "▁Sto": 3658,
      "▁Stab": 3659,
      "präch": 3660,
      "äng": 3661,
      "▁nah": 3662,
      "▁Na": 3663,
      "▁Nicker": 3664,
      "▁passen": 3665,
      "▁verb": 3666,
      "arbeit": 3667,
      "arbeitet": 3668,
      "▁älteres": 3669,
      "▁Hinterhof": 3670,
      "▁erl": 3671,
      "▁Bauch": 3672,
      "▁Traktor": 3673,
      "▁vorbeifährt": 3674,
      "▁hochge": 3675,
      "agieren": 3676,
      "▁Anlegestelle": 3677,
      "▁Nähmaschine": 3678,
      "▁zusammenge": 3679,
      "▁Motorroller": 3680,
      "▁Sandd": 3681,
      "▁Essens": 3682,
      "▁Rede": 3683,
      "▁Baseballspiel": 3684,
      "▁Baseballmütze": 3685,
      "affe": 3686,
      "▁Bekleidung": 3687,
      "aschinen": 3688,
      "▁Brand": 3689,
      "useum": 3690,
      "ahmen": 3691,
      "▁rosafarbenem": 3692,
      "▁Schutzbrille": 3693,
      "▁rudert": 3694,
      "▁Rennwagen": 3695,
      "▁langhaariger": 3696,
      "klam": 3697,
      "▁kümm": 3698,
      "▁Getränken": 3699,
      "arren": 3700,
      "▁Orchester": 3701,
      "▁Bahnhof": 3702,
      "▁brennen": 3703,
      "▁Typen": 3704,
      "bildschirm": 3705,
      "▁Herbst": 3706,
      "▁Geldbör": 3707,
      "Schild": 3708,
      "▁Bowlingbahn": 3709,
      "▁silbernen": 3710,
      "▁Fingern": 3711,
      "▁Füße": 3712,
      "▁Trainings": 3713,
      "▁Tax": 3714,
      "▁Luftballons": 3715,
      "▁Flüss": 3716,
      "▁Kreuzung": 3717,
      "▁gesäumten": 3718,
      "▁direkt": 3719,
      "▁Gitarrist": 3720,
      "▁Kids": 3721,
      "▁einzelner": 3722,
      "▁Modell": 3723,
      "▁Dorf": 3724,
      "▁beschäftigt": 3725,
      "▁diskut": 3726,
      "▁Nickerchen": 3727,
      "ail": 3728,
      "je": 3729,
      "laufen": 3730,
      "pool": 3731,
      "ucken": 3732,
      "wett": 3733,
      "wanne": 3734,
      "zeich": 3735,
      "äht": 3736,
      "emp": 3737,
      "une": 3738,
      "eid": 3739,
      "eisten": 3740,
      "▁Min": 3741,
      "▁dicht": 3742,
      "ity": 3743,
      "▁Süß": 3744,
      "▁Fass": 3745,
      "▁mithilfe": 3746,
      "▁Heiß": 3747,
      "▁Hütte": 3748,
      "▁Bi": 3749,
      "▁Bre": 3750,
      "▁Bänken": 3751,
      "schutz": 3752,
      "▁Kör": 3753,
      "▁Kegel": 3754,
      "▁Gürt": 3755,
      "ortr": 3756,
      "orgen": 3757,
      "trennen": 3758,
      "▁Piz": 3759,
      "▁schwei": 3760,
      "rohr": 3761,
      "▁Teig": 3762,
      "▁können": 3763,
      "▁get": 3764,
      "▁gehalten": 3765,
      "▁Warn": 3766,
      "▁Wänden": 3767,
      "▁lö": 3768,
      "▁Schacht": 3769,
      "▁Dreck": 3770,
      "▁Dinge": 3771,
      "bert": 3772,
      "▁Ruder": 3773,
      "▁La": 3774,
      "▁Lö": 3775,
      "▁At": 3776,
      "▁Strick": 3777,
      "▁Stamm": 3778,
      "▁Start": 3779,
      "▁tre": 3780,
      "▁trocken": 3781,
      "ika": 3782,
      "▁bearbeitet": 3783,
      "▁runter": 3784,
      "rückt": 3785,
      "last": 3786,
      "▁Arena": 3787,
      "▁Blume": 3788,
      "zeuger": 3789,
      "▁Bauern": 3790,
      "▁stö": 3791,
      "▁stellen": 3792,
      "▁berühren": 3793,
      "ettert": 3794,
      "▁abzu": 3795,
      "▁Gelb": 3796,
      "kette": 3797,
      "▁Kleines": 3798,
      "▁Kunststoff": 3799,
      "▁Schub": 3800,
      "▁Schule": 3801,
      "▁Regenschirmen": 3802,
      "▁Rucksäcken": 3803,
      "automaten": 3804,
      "▁Ent": 3805,
      "▁größer": 3806,
      "▁Gewässers": 3807,
      "▁teilen": 3808,
      "▁Einkaufst": 3809,
      "ohner": 3810,
      "▁Schlagzeuger": 3811,
      "öpfe": 3812,
      "▁mittel": 3813,
      "etzten": 3814,
      "▁lachend": 3815,
      "▁Outfits": 3816,
      "▁beladen": 3817,
      "▁Feuerwehrmänner": 3818,
      "▁Chor": 3819,
      "▁Herd": 3820,
      "konstruktion": 3821,
      "udels": 3822,
      "▁Wettbewerb": 3823,
      "▁Bowlingkugel": 3824,
      "▁Balken": 3825,
      "▁Klettergerüst": 3826,
      "▁amerikanischen": 3827,
      "▁afrikanischer": 3828,
      "▁flausch": 3829,
      "cours": 3830,
      "▁indische": 3831,
      "▁Video": 3832,
      "▁Är": 3833,
      "▁Windhund": 3834,
      "▁Mittag": 3835,
      "▁marschiert": 3836,
      "▁aber": 3837,
      "▁Strohhut": 3838,
      "▁verheir": 3839,
      "▁steinigen": 3840,
      "▁amüsieren": 3841,
      "▁aufblasbaren": 3842,
      "▁anhat": 3843,
      "▁bedeckten": 3844,
      "▁Fotografen": 3845,
      "▁Plü": 3846,
      "▁Rädern": 3847,
      "▁Trompete": 3848,
      "▁Angelrute": 3849,
      "▁selbst": 3850,
      "othek": 3851,
      "▁geblümten": 3852,
      "▁Moped": 3853,
      "▁verheirate": 3854,
      "ban": 3855,
      "ders": 3856,
      "gro": 3857,
      "gung": 3858,
      "jeans": 3859,
      "mel": 3860,
      "musik": 3861,
      "pack": 3862,
      "rampe": 3863,
      "tor": 3864,
      "uhl": 3865,
      "vollen": 3866,
      "ziehen": 3867,
      "üssel": 3868,
      "▁at": 3869,
      "▁aben": 3870,
      "▁ähn": 3871,
      "enden": 3872,
      "einen": 3873,
      "▁eins": 3874,
      "chn": 3875,
      "aube": 3876,
      "unft": 3877,
      "▁ser": 3878,
      "▁sow": 3879,
      "▁sucht": 3880,
      "▁setzen": 3881,
      "eiger": 3882,
      "iten": 3883,
      "ität": 3884,
      "▁Sess": 3885,
      "▁Mannschaften": 3886,
      "▁Bel": 3887,
      "▁Bat": 3888,
      "▁Kö": 3889,
      "▁zer": 3890,
      "▁glatz": 3891,
      "▁Tafel": 3892,
      "▁kaut": 3893,
      "ammen": 3894,
      "▁gepark": 3895,
      "▁angel": 3896,
      "▁fla": 3897,
      "▁füllt": 3898,
      "▁Do": 3899,
      "▁Demon": 3900,
      "▁steckt": 3901,
      "▁Leg": 3902,
      "▁Lied": 3903,
      "▁Lippen": 3904,
      "▁Ast": 3905,
      "ettrennen": 3906,
      "ades": 3907,
      "▁schwenkt": 3908,
      "utfit": 3909,
      "▁Stift": 3910,
      "irmen": 3911,
      "leck": 3912,
      "▁richtet": 3913,
      "▁Oper": 3914,
      "ürzt": 3915,
      "pfle": 3916,
      "▁Noten": 3917,
      "ächeln": 3918,
      "▁Freiluft": 3919,
      "▁Kamel": 3920,
      "▁Trib": 3921,
      "▁Fußballfeld": 3922,
      "ären": 3923,
      "▁Straßenhändler": 3924,
      "▁Sandstrand": 3925,
      "hou": 3926,
      "▁Gespräch": 3927,
      "▁Schlitt": 3928,
      "izieren": 3929,
      "▁Schwimmbad": 3930,
      "▁gegenseit": 3931,
      "▁Becken": 3932,
      "▁dunkelblauen": 3933,
      "ival": 3934,
      "▁Zeitschrift": 3935,
      "draht": 3936,
      "dium": 3937,
      "▁Konfer": 3938,
      "▁kariertem": 3939,
      "▁Rennauto": 3940,
      "ohemd": 3941,
      "▁Outdo": 3942,
      "richten": 3943,
      "▁Kleider": 3944,
      "▁riesige": 3945,
      "issenschaft": 3946,
      "▁Club": 3947,
      "▁Kerzen": 3948,
      "säge": 3949,
      "▁Lebensmittelgeschäft": 3950,
      "▁Abendessen": 3951,
      "▁kopf": 3952,
      "▁Wasserski": 3953,
      "▁afrikanische": 3954,
      "▁Backsteingebäude": 3955,
      "▁Geländemotorradfahrer": 3956,
      "luftball": 3957,
      "▁Klapp": 3958,
      "▁erwachsene": 3959,
      "landschaft": 3960,
      "▁Elef": 3961,
      "▁Elektr": 3962,
      "▁Plattform": 3963,
      "▁Schlafanzug": 3964,
      "▁Eisen": 3965,
      "▁bestehende": 3966,
      "▁ungew": 3967,
      "▁beigefarbenen": 3968,
      "▁Bordstein": 3969,
      "euchtung": 3970,
      "▁Schotter": 3971,
      "▁violettem": 3972,
      "▁Bluejeans": 3973,
      "schmuck": 3974,
      "sammlung": 3975,
      "▁Rollerblades": 3976,
      "▁Picknicktisch": 3977,
      "▁Silhou": 3978,
      "▁Flüssigkeit": 3979,
      "▁Heißluftball": 3980,
      "▁treffen": 3981,
      "▁flachen": 3982,
      "▁Demonstr": 3983,
      "▁Operation": 3984,
      "▁gegenseitig": 3985,
      "▁Outdoor": 3986,
      "Ge": 3987,
      "KW": 3988,
      "Oberteil": 3989,
      "ai": 3990,
      "brücke": 3991,
      "burg": 3992,
      "dler": 3993,
      "dog": 3994,
      "fle": 3995,
      "ga": 3996,
      "ian": 3997,
      "lem": 3998,
      "oberteil": 3999,
      "pt": 4000,
      "tag": 4001,
      "volleyball": 4002,
      "waren": 4003,
      "way": 4004,
      "äg": 4005,
      "äser": 4006,
      "äsent": 4007,
      "üh": 4008,
      "ino": 4009,
      "anien": 4010,
      "▁dün": 4011,
      "▁Somm": 4012,
      "▁mo": 4013,
      "▁Frise": 4014,
      "▁Hilfe": 4015,
      "ieß": 4016,
      "▁bunter": 4017,
      "▁Kalb": 4018,
      "▁Gar": 4019,
      "org": 4020,
      "▁Pe": 4021,
      "▁Pin": 4022,
      "▁Puck": 4023,
      "▁ges": 4024,
      "▁Wettrennen": 4025,
      "▁will": 4026,
      "▁findet": 4027,
      "▁fegt": 4028,
      "▁leicht": 4029,
      "▁Di": 4030,
      "▁Dudels": 4031,
      "▁Rauch": 4032,
      "▁Röcken": 4033,
      "▁Lim": 4034,
      "▁Löff": 4035,
      "▁Lond": 4036,
      "▁Lächeln": 4037,
      "▁LKW": 4038,
      "ache": 4039,
      "▁vorne": 4040,
      "▁rollt": 4041,
      "ott": 4042,
      "▁japan": 4043,
      "▁beißt": 4044,
      "▁noch": 4045,
      "recht": 4046,
      "▁Wasserflasche": 4047,
      "▁parkt": 4048,
      "▁Fahrt": 4049,
      "igh": 4050,
      "▁Ballett": 4051,
      "▁Spielkleidung": 4052,
      "▁altm": 4053,
      "▁dazu": 4054,
      "▁Schwert": 4055,
      "▁Grasfläche": 4056,
      "ammlung": 4057,
      "▁Gitarren": 4058,
      "▁Esel": 4059,
      "▁Jeansjacke": 4060,
      "▁Red": 4061,
      "gebr": 4062,
      "▁Musikinstrumen": 4063,
      "▁Show": 4064,
      "ienen": 4065,
      "▁Basketballspiel": 4066,
      "▁dunkelhaariger": 4067,
      "▁Sportwagen": 4068,
      "▁Sportveranstaltung": 4069,
      "kinder": 4070,
      "ollegen": 4071,
      "▁Geschäftskleidung": 4072,
      "▁Umhang": 4073,
      "▁Robe": 4074,
      "ationen": 4075,
      "▁Protest": 4076,
      "steinen": 4077,
      "▁Orangen": 4078,
      "▁offenbar": 4079,
      "▁Verkäufer": 4080,
      "▁Frisbeescheibe": 4081,
      "▁Absperr": 4082,
      "▁Herren": 4083,
      "richtet": 4084,
      "▁Feuerwehrmann": 4085,
      "▁Tricks": 4086,
      "▁farbenfroher": 4087,
      "▁prü": 4088,
      "▁Geburt": 4089,
      "▁Surfboard": 4090,
      "▁Tauben": 4091,
      "▁jüngere": 4092,
      "▁Cafe": 4093,
      "▁entspannen": 4094,
      "▁gepunk": 4095,
      "▁wandern": 4096,
      "▁Sängerin": 4097,
      "▁Waschsalon": 4098,
      "▁untersuchen": 4099,
      "▁trainieren": 4100,
      "▁marschieren": 4101,
      "▁Turnerin": 4102,
      "▁Eishockeyspieler": 4103,
      "▁Grimasse": 4104,
      "▁Palmen": 4105,
      "▁Geschäften": 4106,
      "▁begutachtet": 4107,
      "▁füttert": 4108,
      "▁planscht": 4109,
      "▁bewölkten": 4110,
      "▁Super": 4111,
      "leute": 4112,
      "▁Fahne": 4113,
      "▁Sanddüne": 4114,
      "▁Brandung": 4115,
      "▁Geldbörse": 4116,
      "▁Süßigkeiten": 4117,
      "▁schweißt": 4118,
      "▁kopfüber": 4119,
      "▁ungewöhn": 4120,
      "▁London": 4121,
      "▁altmod": 4122,
      "▁Geburtstag": 4123,
      "Hemd": 4124,
      "Te": 4125,
      "Tr": 4126,
      "bers": 4127,
      "bur": 4128,
      "buch": 4129,
      "cl": 4130,
      "foto": 4131,
      "frikan": 4132,
      "hten": 4133,
      "hänger": 4134,
      "heim": 4135,
      "ial": 4136,
      "jo": 4137,
      "kul": 4138,
      "rik": 4139,
      "sitz": 4140,
      "tlich": 4141,
      "voll": 4142,
      "wimm": 4143,
      "wurf": 4144,
      "zten": 4145,
      "ämm": 4146,
      "üff": 4147,
      "▁ak": 4148,
      "aulen": 4149,
      "uniform": 4150,
      "▁Einer": 4151,
      "▁Einrad": 4152,
      "▁malen": 4153,
      "▁med": 4154,
      "▁Flaschen": 4155,
      "▁High": 4156,
      "▁Bass": 4157,
      "▁Beine": 4158,
      "▁bückt": 4159,
      "steigen": 4160,
      "▁Kür": 4161,
      "alung": 4162,
      "trie": 4163,
      "trag": 4164,
      "▁Pat": 4165,
      "▁Piste": 4166,
      "ichter": 4167,
      "▁Tal": 4168,
      "▁Tanzen": 4169,
      "▁wischt": 4170,
      "▁fallen": 4171,
      "▁faulen": 4172,
      "▁Schildern": 4173,
      "▁Schirmen": 4174,
      "▁Lang": 4175,
      "▁Laufen": 4176,
      "henden": 4177,
      "▁Auss": 4178,
      "▁Afrikan": 4179,
      "urm": 4180,
      "leit": 4181,
      "leiter": 4182,
      "leicht": 4183,
      "ildet": 4184,
      "olk": 4185,
      "olgen": 4186,
      "▁Stangen": 4187,
      "▁treibt": 4188,
      "iker": 4189,
      "ikul": 4190,
      "▁übergewicht": 4191,
      "▁befahren": 4192,
      "▁rast": 4193,
      "▁ausgeb": 4194,
      "leidung": 4195,
      "eilen": 4196,
      "▁Natur": 4197,
      "▁stehende": 4198,
      "▁Fahrgeschäft": 4199,
      "▁Bogen": 4200,
      "ennfahrer": 4201,
      "▁erh": 4202,
      "sammen": 4203,
      "▁ober": 4204,
      "zenden": 4205,
      "schaut": 4206,
      "▁Flur": 4207,
      "▁Büschen": 4208,
      "▁Auff": 4209,
      "artigen": 4210,
      "▁Straßenmusik": 4211,
      "▁Motorräder": 4212,
      "▁schlend": 4213,
      "izin": 4214,
      "▁Stufe": 4215,
      "▁Händler": 4216,
      "▁Reklam": 4217,
      "usses": 4218,
      "ussell": 4219,
      "▁Baumes": 4220,
      "räun": 4221,
      "gebunden": 4222,
      "▁Waldweg": 4223,
      "▁Kricket": 4224,
      "▁Bandan": 4225,
      "braune": 4226,
      "▁Blumenmuster": 4227,
      "▁Sportkleidung": 4228,
      "▁Badewanne": 4229,
      "▁Maulkorb": 4230,
      "▁Podium": 4231,
      "▁Rohr": 4232,
      "springen": 4233,
      "dian": 4234,
      "▁Produ": 4235,
      "▁herunterge": 4236,
      "▁gleichen": 4237,
      "▁orangefarbene": 4238,
      "▁festhält": 4239,
      "▁gefüllt": 4240,
      "▁scheinbar": 4241,
      "▁Teenageralter": 4242,
      "ustik": 4243,
      "etzte": 4244,
      "eep": 4245,
      "▁Müllton": 4246,
      "▁Ziegelmauer": 4247,
      "▁Akustik": 4248,
      "▁verlässt": 4249,
      "geworfen": 4250,
      "▁Decken": 4251,
      "kreuz": 4252,
      "▁Saiten": 4253,
      "▁Klassenraum": 4254,
      "▁Kapuze": 4255,
      "köpfige": 4256,
      "▁eingezäunten": 4257,
      "▁Kreide": 4258,
      "▁protest": 4259,
      "▁Ohren": 4260,
      "▁näht": 4261,
      "▁reinigen": 4262,
      "▁Fernse": 4263,
      "▁bekommen": 4264,
      "▁Theater": 4265,
      "ace": 4266,
      "▁irgendw": 4267,
      "karre": 4268,
      "ämmer": 4269,
      "▁kompl": 4270,
      "▁Säugl": 4271,
      "▁engen": 4272,
      "▁Mittages": 4273,
      "▁joggen": 4274,
      "mitglie": 4275,
      "▁geöffnet": 4276,
      "▁nieder": 4277,
      "▁Welpen": 4278,
      "▁jubeln": 4279,
      "▁sammelt": 4280,
      "▁Olymp": 4281,
      "▁Fußgängerüberweg": 4282,
      "▁mög": 4283,
      "▁überprüft": 4284,
      "▁bespritzt": 4285,
      "förmigen": 4286,
      "▁Vögel": 4287,
      "▁Violine": 4288,
      "▁Afroamerikaner": 4289,
      "▁Messer": 4290,
      "nehmer": 4291,
      "▁bewundert": 4292,
      "bemalung": 4293,
      "▁erleuch": 4294,
      "▁diskutieren": 4295,
      "▁Schubkarre": 4296,
      "▁Elefanten": 4297,
      "▁Silhouette": 4298,
      "flekt": 4299,
      "▁ausgebrei": 4300,
      "▁Mittagessen": 4301,
      "Fl": 4302,
      "back": 4303,
      "egen": 4304,
      "haltung": 4305,
      "iothek": 4306,
      "kann": 4307,
      "kla": 4308,
      "kurs": 4309,
      "lter": 4310,
      "mal": 4311,
      "nimmt": 4312,
      "nast": 4313,
      "oben": 4314,
      "putz": 4315,
      "sschild": 4316,
      "uro": 4317,
      "ufer": 4318,
      "ven": 4319,
      "wich": 4320,
      "wäsche": 4321,
      "äne": 4322,
      "äumen": 4323,
      "öhr": 4324,
      "▁acht": 4325,
      "▁ör": 4326,
      "einwand": 4327,
      "▁sand": 4328,
      "▁Einem": 4329,
      "▁Mark": 4330,
      "▁Maschen": 4331,
      "▁Museum": 4332,
      "elst": 4333,
      "▁insp": 4334,
      "ari": 4335,
      "arter": 4336,
      "▁aufmerksam": 4337,
      "▁Bill": 4338,
      "▁baum": 4339,
      "schlagen": 4340,
      "stellt": 4341,
      "▁Köpfen": 4342,
      "▁Kiste": 4343,
      "▁Khaki": 4344,
      "▁hind": 4345,
      "alken": 4346,
      "trikot": 4347,
      "▁Punk": 4348,
      "▁Zöpfen": 4349,
      "▁webt": 4350,
      "decke": 4351,
      "▁fil": 4352,
      "▁fre": 4353,
      "▁zuge": 4354,
      "▁zubereitet": 4355,
      "▁Ringer": 4356,
      "▁Locken": 4357,
      "iertes": 4358,
      "▁Akt": 4359,
      "▁Achter": 4360,
      "▁Streifen": 4361,
      "▁spieler": 4362,
      "leitet": 4363,
      "ola": 4364,
      "olen": 4365,
      "▁transport": 4366,
      "▁neue": 4367,
      "pfad": 4368,
      "beutel": 4369,
      "rechen": 4370,
      "▁groß": 4371,
      "abrik": 4372,
      "▁vert": 4373,
      "▁verdeckt": 4374,
      "boten": 4375,
      "affen": 4376,
      "▁entlanggeht": 4377,
      "▁Colle": 4378,
      "gelassen": 4379,
      "geländer": 4380,
      "▁Fahrrads": 4381,
      "ernt": 4382,
      "hlet": 4383,
      "▁Ballerin": 4384,
      "block": 4385,
      "bliothek": 4386,
      "▁vorbeigeht": 4387,
      "anke": 4388,
      "▁Irok": 4389,
      "▁Floß": 4390,
      "▁Bühnen": 4391,
      "apelle": 4392,
      "▁rosar": 4393,
      "▁Sonnenschirm": 4394,
      "▁graue": 4395,
      "▁leger": 4396,
      "▁schlamm": 4397,
      "▁gestikul": 4398,
      "flü": 4399,
      "▁Radrennen": 4400,
      "akd": 4401,
      "▁Boots": 4402,
      "▁uniform": 4403,
      "▁Gewändern": 4404,
      "▁Kran": 4405,
      "▁schieben": 4406,
      "▁Freu": 4407,
      "ainer": 4408,
      "▁rosafarbene": 4409,
      "bstuhl": 4410,
      "▁Poster": 4411,
      "zeitig": 4412,
      "▁vielleicht": 4413,
      "spre": 4414,
      "▁Marktplatz": 4415,
      "hören": 4416,
      "▁teilweise": 4417,
      "▁schreiben": 4418,
      "▁aussehenden": 4419,
      "▁Torhüter": 4420,
      "▁Bike": 4421,
      "kamera": 4422,
      "bare": 4423,
      "▁beginnt": 4424,
      "▁Computerbildschirm": 4425,
      "▁greifen": 4426,
      "▁Chin": 4427,
      "▁städtische": 4428,
      "▁Moment": 4429,
      "gebäudes": 4430,
      "▁drinnen": 4431,
      "▁Asiatinnen": 4432,
      "▁Pfadf": 4433,
      "▁präsent": 4434,
      "▁gleichzeitig": 4435,
      "▁starren": 4436,
      "▁ausgestre": 4437,
      "▁Snowboardfahrer": 4438,
      "▁Schmutz": 4439,
      "▁Schmuck": 4440,
      "▁Rande": 4441,
      "▁prob": 4442,
      "▁Reifenschaukel": 4443,
      "▁verkleidete": 4444,
      "▁Fernglas": 4445,
      "teams": 4446,
      "▁Tennisspielerin": 4447,
      "▁feiert": 4448,
      "▁Blättern": 4449,
      "▁Stehen": 4450,
      "▁rothaariges": 4451,
      "karte": 4452,
      "▁Innenstadt": 4453,
      "▁bewegen": 4454,
      "dienen": 4455,
      "▁Stirnband": 4456,
      "▁ruhigen": 4457,
      "▁Hotdog": 4458,
      "▁einsamer": 4459,
      "▁Grimassen": 4460,
      "▁niedr": 4461,
      "▁farbigen": 4462,
      "▁wendet": 4463,
      "▁nächsten": 4464,
      "▁Kameras": 4465,
      "▁Rettungswesten": 4466,
      "▁Mitglieder": 4467,
      "▁khakifarbenen": 4468,
      "▁landet": 4469,
      "▁Häusern": 4470,
      "geborenes": 4471,
      "ymnast": 4472,
      "▁lockigen": 4473,
      "▁ländlichen": 4474,
      "▁Tablett": 4475,
      "▁Bibliothek": 4476,
      "▁Breakd": 4477,
      "▁Köche": 4478,
      "▁glatzköpfiger": 4479,
      "▁Dudelsack": 4480,
      "▁Löffel": 4481,
      "▁Aussicht": 4482,
      "▁Aufführung": 4483,
      "▁Bandana": 4484,
      "▁Akustikgitarre": 4485,
      "ämmerung": 4486,
      "▁Maschendraht": 4487,
      "▁hindurch": 4488,
      "▁Irokesen": 4489,
      "Zeichen": 4490,
      "asten": 4491,
      "bro": 4492,
      "bett": 4493,
      "een": 4494,
      "figur": 4495,
      "hes": 4496,
      "how": 4497,
      "haube": 4498,
      "io": 4499,
      "iers": 4500,
      "ister": 4501,
      "kunst": 4502,
      "koh": 4503,
      "les": 4504,
      "länd": 4505,
      "min": 4506,
      "ockt": 4507,
      "ofon": 4508,
      "pa": 4509,
      "äste": 4510,
      "öt": 4511,
      "üht": 4512,
      "▁4": 4513,
      "▁ei": 4514,
      "▁qu": 4515,
      "▁eben": 4516,
      "inde": 4517,
      "ernen": 4518,
      "▁Euro": 4519,
      "▁säu": 4520,
      "▁sort": 4521,
      "▁Mc": 4522,
      "▁Mi": 4523,
      "▁Mittel": 4524,
      "▁Mützen": 4525,
      "itr": 4526,
      "▁Som": 4527,
      "▁Sack": 4528,
      "▁Szene": 4529,
      "▁Fack": 4530,
      "anner": 4531,
      "ießen": 4532,
      "▁Bällen": 4533,
      "▁bet": 4534,
      "▁bilden": 4535,
      "schla": 4536,
      "onal": 4537,
      "stuch": 4538,
      "stift": 4539,
      "▁Kugel": 4540,
      "▁Gymnast": 4541,
      "orter": 4542,
      "orden": 4543,
      "orange": 4544,
      "essen": 4545,
      "▁Pel": 4546,
      "▁Pil": 4547,
      "ichte": 4548,
      "▁schle": 4549,
      "▁grillen": 4550,
      "▁Tank": 4551,
      "▁Tattoo": 4552,
      "▁dieser": 4553,
      "ami": 4554,
      "▁ged": 4555,
      "▁Wange": 4556,
      "▁Wake": 4557,
      "▁angem": 4558,
      "▁Schach": 4559,
      "▁Schilder": 4560,
      "ersp": 4561,
      "▁Later": 4562,
      "▁Amp": 4563,
      "▁vorbereitet": 4564,
      "etafel": 4565,
      "▁schwer": 4566,
      "utt": 4567,
      "▁Kindes": 4568,
      "otiv": 4569,
      "▁Gehen": 4570,
      "irl": 4571,
      "fenster": 4572,
      "menade": 4573,
      "▁bevor": 4574,
      "▁Neu": 4575,
      "▁stehend": 4576,
      "▁stehender": 4577,
      "egeln": 4578,
      "▁Handschuh": 4579,
      "teilt": 4580,
      "▁brauen": 4581,
      "osa": 4582,
      "osition": 4583,
      "▁Camp": 4584,
      "ußball": 4585,
      "▁Uhr": 4586,
      "ign": 4587,
      "▁erw": 4588,
      "▁Bauarbeiten": 4589,
      "blät": 4590,
      "▁dah": 4591,
      "ündel": 4592,
      "schauen": 4593,
      "▁Flöte": 4594,
      "▁leckt": 4595,
      "spark": 4596,
      "sseln": 4597,
      "ucker": 4598,
      "▁rechte": 4599,
      "▁reflekt": 4600,
      "▁Radfahrern": 4601,
      "liegen": 4602,
      "spielen": 4603,
      "▁span": 4604,
      "▁Vortrag": 4605,
      "ivers": 4606,
      "▁Badezimmer": 4607,
      "▁streicht": 4608,
      "▁rosafarbener": 4609,
      "weh": 4610,
      "▁Karte": 4611,
      "dress": 4612,
      "▁Asien": 4613,
      "istole": 4614,
      "wandt": 4615,
      "▁Seilen": 4616,
      "▁Turban": 4617,
      "▁graben": 4618,
      "▁Halstuch": 4619,
      "▁gemuster": 4620,
      "▁langhaarige": 4621,
      "▁Papiere": 4622,
      "▁rauchen": 4623,
      "▁gewickelt": 4624,
      "▁Stühle": 4625,
      "▁Plastiktüte": 4626,
      "▁gebeugt": 4627,
      "▁unbefestigte": 4628,
      "▁Pferdeschw": 4629,
      "▁Werkstatt": 4630,
      "▁Marathonläufer": 4631,
      "▁indischer": 4632,
      "▁20": 4633,
      "▁Älter": 4634,
      "Station": 4635,
      "▁Labork": 4636,
      "▁Trainer": 4637,
      "▁Golfball": 4638,
      "▁erwachsener": 4639,
      "▁Feder": 4640,
      "▁Luftballon": 4641,
      "▁Saxofon": 4642,
      "▁Liefer": 4643,
      "▁Gesichtsbemalung": 4644,
      "biss": 4645,
      "▁Quad": 4646,
      "hobenen": 4647,
      "▁jubelt": 4648,
      "loser": 4649,
      "▁gestreiftes": 4650,
      "▁fertig": 4651,
      "▁türk": 4652,
      "▁Kettensäge": 4653,
      "▁Versammlung": 4654,
      "▁Pitcher": 4655,
      "▁Ozean": 4656,
      "kante": 4657,
      "▁klatscht": 4658,
      "▁Inlineskates": 4659,
      "▁Stofft": 4660,
      "▁Taxi": 4661,
      "orträt": 4662,
      "▁Strickmütze": 4663,
      "▁verheiratetes": 4664,
      "▁abends": 4665,
      "▁sowie": 4666,
      "▁Beleuchtung": 4667,
      "▁geparkten": 4668,
      "▁Tribüne": 4669,
      "▁Friseur": 4670,
      "gebracht": 4671,
      "▁Mülltonne": 4672,
      "▁Achterbahn": 4673,
      "▁gestikuliert": 4674,
      "▁Gymnastik": 4675,
      "12": 4676,
      "Donal": 4677,
      "Hut": 4678,
      "Kostüm": 4679,
      "Mann": 4680,
      "app": 4681,
      "appen": 4682,
      "beln": 4683,
      "balken": 4684,
      "dunk": 4685,
      "feier": 4686,
      "häu": 4687,
      "hammer": 4688,
      "id": 4689,
      "ipfel": 4690,
      "jung": 4691,
      "ker": 4692,
      "kör": 4693,
      "krä": 4694,
      "ligen": 4695,
      "läuft": 4696,
      "ous": 4697,
      "rt": 4698,
      "ron": 4699,
      "sau": 4700,
      "uer": 4701,
      "xas": 4702,
      "äb": 4703,
      "üd": 4704,
      "▁5": 4705,
      "enken": 4706,
      "aust": 4707,
      "▁soll": 4708,
      "▁seich": 4709,
      "▁suchen": 4710,
      "eiden": 4711,
      "▁Mün": 4712,
      "▁Maler": 4713,
      "elte": 4714,
      "elbe": 4715,
      "▁Sicht": 4716,
      "▁mod": 4717,
      "▁Fit": 4718,
      "▁Fänger": 4719,
      "▁aufzu": 4720,
      "▁aufgestellt": 4721,
      "▁Haltung": 4722,
      "ieg": 4723,
      "▁Bu": 4724,
      "▁Bro": 4725,
      "▁Bam": 4726,
      "▁Bälle": 4727,
      "▁bräun": 4728,
      "strü": 4729,
      "station": 4730,
      "statue": 4731,
      "raur": 4732,
      "rauß": 4733,
      "▁Kil": 4734,
      "▁Kell": 4735,
      "▁Knei": 4736,
      "▁Kette": 4737,
      "▁Köpfe": 4738,
      "weis": 4739,
      "▁ich": 4740,
      "tens": 4741,
      "▁Glat": 4742,
      "asketball": 4743,
      "ore": 4744,
      "alte": 4745,
      "▁Py": 4746,
      "▁Prä": 4747,
      "▁Padd": 4748,
      "▁Zw": 4749,
      "▁ziel": 4750,
      "rob": 4751,
      "▁Töpf": 4752,
      "ambur": 4753,
      "▁gek": 4754,
      "▁Wol": 4755,
      "▁Während": 4756,
      "▁Werfer": 4757,
      "▁waschen": 4758,
      "▁ans": 4759,
      "▁aneinander": 4760,
      "▁ansieht": 4761,
      "▁Junger": 4762,
      "▁Japan": 4763,
      "▁lernt": 4764,
      "▁Schuss": 4765,
      "▁DJ": 4766,
      "▁Durch": 4767,
      "bereiten": 4768,
      "▁Rik": 4769,
      "▁Röhr": 4770,
      "▁Linie": 4771,
      "▁Lac": 4772,
      "achter": 4773,
      "▁Asp": 4774,
      "▁vorder": 4775,
      "▁Stahl": 4776,
      "▁schwarzhaarige": 4777,
      "▁trü": 4778,
      "▁trop": 4779,
      "assiert": 4780,
      "gerä": 4781,
      "änzenden": 4782,
      "▁beisammen": 4783,
      "▁bedruck": 4784,
      "▁rück": 4785,
      "rücken": 4786,
      "▁neon": 4787,
      "ürste": 4788,
      "▁umr": 4789,
      "behälter": 4790,
      "reg": 4791,
      "▁Wassermel": 4792,
      "ello": 4793,
      "ellschaft": 4794,
      "▁Dreirad": 4795,
      "▁pol": 4796,
      "▁putzen": 4797,
      "▁packt": 4798,
      "grill": 4799,
      "box": 4800,
      "▁Bohr": 4801,
      "▁Booten": 4802,
      "▁Home": 4803,
      "▁Hocker": 4804,
      "▁gehende": 4805,
      "estern": 4806,
      "angehör": 4807,
      "▁herr": 4808,
      "igiert": 4809,
      "▁tut": 4810,
      "▁Hinterb": 4811,
      "▁verste": 4812,
      "▁staub": 4813,
      "wegungen": 4814,
      "▁altes": 4815,
      "▁Spe": 4816,
      "▁Schneeanzug": 4817,
      "ags": 4818,
      "▁Anhänger": 4819,
      "▁Anweis": 4820,
      "unken": 4821,
      "stüten": 4822,
      "▁Ess": 4823,
      "▁legen": 4824,
      "▁Autob": 4825,
      "▁herumstehen": 4826,
      "▁dunklem": 4827,
      "▁Sandwich": 4828,
      "▁Gesichtern": 4829,
      "▁Tee": 4830,
      "iziert": 4831,
      "▁Schwimmweste": 4832,
      "peri": 4833,
      "▁Hüte": 4834,
      "bedeckten": 4835,
      "rift": 4836,
      "▁Beach": 4837,
      "▁Bewegung": 4838,
      "▁Bandmitglie": 4839,
      "▁Pflaster": 4840,
      "gestrei": 4841,
      "▁Eisw": 4842,
      "▁Badeanzügen": 4843,
      "▁Vergnü": 4844,
      "schlauch": 4845,
      "ession": 4846,
      "blauem": 4847,
      "▁Snack": 4848,
      "▁Alter": 4849,
      "▁Mitarbeiter": 4850,
      "▁knien": 4851,
      "▁Einkäufer": 4852,
      "▁Pudel": 4853,
      "▁angeboten": 4854,
      "oga": 4855,
      "▁Engel": 4856,
      "▁Kontr": 4857,
      "hört": 4858,
      "▁Betonwand": 4859,
      "▁Sprungbrett": 4860,
      "klettern": 4861,
      "▁Schüsseln": 4862,
      "▁Bahnglei": 4863,
      "▁Nebel": 4864,
      "▁Cowboys": 4865,
      "schriften": 4866,
      "▁Geräten": 4867,
      "▁Computern": 4868,
      "falls": 4869,
      "▁Türen": 4870,
      "▁schnitzt": 4871,
      "▁verschneite": 4872,
      "▁Freundin": 4873,
      "▁Feuerwehrleute": 4874,
      "▁begeister": 4875,
      "▁begleitet": 4876,
      "▁übers": 4877,
      "▁glänzenden": 4878,
      "▁Draht": 4879,
      "▁Asiatische": 4880,
      "kasten": 4881,
      "▁manche": 4882,
      "öffnung": 4883,
      "▁ausgestellt": 4884,
      "▁bemalten": 4885,
      "▁Passag": 4886,
      "▁Yoga": 4887,
      "▁Knöpfen": 4888,
      "▁traditionellen": 4889,
      "ständer": 4890,
      "▁Tänzerin": 4891,
      "▁Treppenhaus": 4892,
      "▁Treppenstufen": 4893,
      "▁marine": 4894,
      "▁Waschbecken": 4895,
      "▁paddeln": 4896,
      "▁Trommeln": 4897,
      "▁geschmink": 4898,
      "▁Mountainbiker": 4899,
      "nisse": 4900,
      "▁Fliesen": 4901,
      "▁aufgerei": 4902,
      "▁afroamerikanische": 4903,
      "▁Inline": 4904,
      "flugzeug": 4905,
      "▁Kunstwerke": 4906,
      "▁Hotel": 4907,
      "▁interess": 4908,
      "▁geöffneten": 4909,
      "▁Welpe": 4910,
      "sentation": 4911,
      "▁sauber": 4912,
      "▁Möbel": 4913,
      "▁Tarnkleidung": 4914,
      "küche": 4915,
      "▁gestreifter": 4916,
      "▁barfüßige": 4917,
      "▁Tätowierung": 4918,
      "▁Tätowierungen": 4919,
      "▁Film": 4920,
      "▁Besitz": 4921,
      "▁Spaziergang": 4922,
      "grauen": 4923,
      "▁Zahlreiche": 4924,
      "▁USA": 4925,
      "▁Schafe": 4926,
      "▁Jackett": 4927,
      "▁Schleife": 4928,
      "▁watet": 4929,
      "▁kümmert": 4930,
      "▁Trainingsanzug": 4931,
      "gungspark": 4932,
      "▁Konferenz": 4933,
      "▁Heißluftballon": 4934,
      "▁prüft": 4935,
      "▁gepunkteten": 4936,
      "üffelt": 4937,
      "▁Produkte": 4938,
      "▁sandigen": 4939,
      "▁spielerisch": 4940,
      "▁Pfadfinder": 4941,
      "▁Breakdance": 4942,
      "▁Maschendrahtzaun": 4943,
      "brocken": 4944,
      "▁McDonal": 4945,
      "wehraut": 4946,
      "▁Lieferwagen": 4947,
      "▁türkis": 4948,
      "▁Bambus": 4949,
      "▁Kellner": 4950,
      "▁Riksch": 4951,
      "▁Asphalt": 4952,
      "▁Autobahn": 4953,
      "▁Vergnügungspark": 4954,
      "Outfit": 4955,
      "bungen": 4956,
      "bändern": 4957,
      "ce": 4958,
      "dre": 4959,
      "fers": 4960,
      "feuer": 4961,
      "hm": 4962,
      "holz": 4963,
      "horts": 4964,
      "ipp": 4965,
      "kuchen": 4966,
      "lust": 4967,
      "mitt": 4968,
      "maske": 4969,
      "nier": 4970,
      "ohl": 4971,
      "stet": 4972,
      "tigen": 4973,
      "ube": 4974,
      "vie": 4975,
      "vers": 4976,
      "vent": 4977,
      "vieren": 4978,
      "yn": 4979,
      "ys": 4980,
      "ziel": 4981,
      "zune": 4982,
      "öst": 4983,
      "▁te": 4984,
      "▁ung": 4985,
      "inten": 4986,
      "eingang": 4987,
      "▁einz": 4988,
      "ansammlung": 4989,
      "▁Einsatz": 4990,
      "▁Mat": 4991,
      "▁Muster": 4992,
      "▁Matr": 4993,
      "▁Mül": 4994,
      "▁dri": 4995,
      "▁drückt": 4996,
      "elig": 4997,
      "▁Sl": 4998,
      "▁Sen": 4999,
      "▁indem": 5000,
      "▁me": 5001,
      "▁Fischen": 5002,
      "▁Fabrik": 5003,
      "▁Horn": 5004,
      "annen": 5005,
      "iefel": 5006,
      "▁Bull": 5007,
      "▁Banner": 5008,
      "schnei": 5009,
      "weißes": 5010,
      "asier": 5011,
      "▁hart": 5012,
      "als": 5013,
      "▁Pon": 5014,
      "▁Pink": 5015,
      "▁Plan": 5016,
      "genommen": 5017,
      "▁Zyl": 5018,
      "▁Zucker": 5019,
      "▁diese": 5020,
      "▁gesen": 5021,
      "▁geschnitten": 5022,
      "▁Wach": 5023,
      "▁Woll": 5024,
      "▁Wette": 5025,
      "▁Waffe": 5026,
      "▁John": 5027,
      "▁Scheibe": 5028,
      "▁Dock": 5029,
      "bereit": 5030,
      "▁Reg": 5031,
      "▁Rahmen": 5032,
      "▁Lass": 5033,
      "reis": 5034,
      "reiter": 5035,
      "▁App": 5036,
      "▁Apfel": 5037,
      "etze": 5038,
      "allow": 5039,
      "▁Strumpf": 5040,
      "▁schwingen": 5041,
      "▁schwebt": 5042,
      "▁rost": 5043,
      "▁weil": 5044,
      "denk": 5045,
      "▁Stunt": 5046,
      "▁Stöcke": 5047,
      "▁Geschw": 5048,
      "▁tri": 5049,
      "▁treiben": 5050,
      "ände": 5051,
      "ike": 5052,
      "▁überw": 5053,
      "▁Ofen": 5054,
      "▁Vert": 5055,
      "▁Netze": 5056,
      "ims": 5057,
      "▁Wasserrutsche": 5058,
      "iss": 5059,
      "isse": 5060,
      "egten": 5061,
      "heben": 5062,
      "heke": 5063,
      "lichem": 5064,
      "▁verm": 5065,
      "▁verw": 5066,
      "▁vergnü": 5067,
      "▁verteilt": 5068,
      "graben": 5069,
      "ktem": 5070,
      "▁Boo": 5071,
      "oss": 5072,
      "▁kleineren": 5073,
      "ächer": 5074,
      "▁City": 5075,
      "▁Arzt": 5076,
      "▁gehender": 5077,
      "ome": 5078,
      "▁wirbelt": 5079,
      "▁traur": 5080,
      "ierende": 5081,
      "▁oranger": 5082,
      "▁erk": 5083,
      "blick": 5084,
      "agger": 5085,
      "ützt": 5086,
      "▁Fußballdress": 5087,
      "ackelt": 5088,
      "ingpool": 5089,
      "▁Auge": 5090,
      "▁berg": 5091,
      "ärlich": 5092,
      "▁Straßenverkäufer": 5093,
      "ffiz": 5094,
      "▁abgeb": 5095,
      "▁abgeworfen": 5096,
      "▁Erzeug": 5097,
      "▁Babys": 5098,
      "▁Händchen": 5099,
      "▁Holzbank": 5100,
      "▁Paare": 5101,
      "▁Baseballschläger": 5102,
      "▁verschw": 5103,
      "▁Reis": 5104,
      "▁braunhaariger": 5105,
      "▁unorden": 5106,
      "▁Beam": 5107,
      "▁Helme": 5108,
      "▁Kragen": 5109,
      "ienten": 5110,
      "astanien": 5111,
      "▁Eiscreme": 5112,
      "▁Vorders": 5113,
      "ietung": 5114,
      "▁hohe": 5115,
      "▁hoher": 5116,
      "licherweise": 5117,
      "schwimmen": 5118,
      "▁Karussell": 5119,
      "skl": 5120,
      "▁Kleinkinder": 5121,
      "▁knall": 5122,
      "▁Rode": 5123,
      "springt": 5124,
      "▁männlichen": 5125,
      "studio": 5126,
      "▁ruhen": 5127,
      "▁rudern": 5128,
      "▁teilnehmen": 5129,
      "▁Gläsern": 5130,
      "▁gemacht": 5131,
      "▁verschiedenfarb": 5132,
      "▁gefüllten": 5133,
      "▁gefleck": 5134,
      "▁Schlagmann": 5135,
      "arbietung": 5136,
      "werker": 5137,
      "▁Biker": 5138,
      "▁Rollschuh": 5139,
      "mannschaften": 5140,
      "▁Shirts": 5141,
      "▁Felsvor": 5142,
      "▁Türöffnung": 5143,
      "▁Untergrund": 5144,
      "▁Kante": 5145,
      "▁Jugendlichen": 5146,
      "▁Obststand": 5147,
      "kopf": 5148,
      "▁Fußgängern": 5149,
      "▁dritte": 5150,
      "▁Volleyballspieler": 5151,
      "▁Herz": 5152,
      "okal": 5153,
      "▁Kerle": 5154,
      "▁deut": 5155,
      "spannt": 5156,
      "▁Telefonz": 5157,
      "▁leuchtenden": 5158,
      "▁Obje": 5159,
      "ummel": 5160,
      "▁Turnschuhen": 5161,
      "▁Katzen": 5162,
      "▁silberfarbenen": 5163,
      "▁Kaffeet": 5164,
      "▁Wasserspren": 5165,
      "▁Laptops": 5166,
      "▁pinkfarbener": 5167,
      "▁Cheerlead": 5168,
      "mäher": 5169,
      "▁Tiere": 5170,
      "▁hellhäutige": 5171,
      "▁Clowns": 5172,
      "▁schütteln": 5173,
      "▁Geländewagen": 5174,
      "▁besteht": 5175,
      "▁Teilnehmer": 5176,
      "▁bekleidet": 5177,
      "▁bekleidete": 5178,
      "▁bekleideter": 5179,
      "▁Krankenschw": 5180,
      "projekt": 5181,
      "▁Säulen": 5182,
      "▁Nachbar": 5183,
      "▁geschminkt": 5184,
      "▁Fecht": 5185,
      "▁afroamerikanischer": 5186,
      "▁orientalische": 5187,
      "▁Gegenständen": 5188,
      "rosa": 5189,
      "▁krat": 5190,
      "▁gesäum": 5191,
      "▁Picknick": 5192,
      "▁Brettspiel": 5193,
      "▁Karton": 5194,
      "▁langärmeligen": 5195,
      "▁sammeln": 5196,
      "üllen": 5197,
      "▁unterschiedlichen": 5198,
      "▁Experi": 5199,
      "▁Perlen": 5200,
      "▁Ureinw": 5201,
      "▁Banan": 5202,
      "zufangen": 5203,
      "▁seltsamen": 5204,
      "▁Smok": 5205,
      "▁Früchte": 5206,
      "trägern": 5207,
      "▁Lebensmitteln": 5208,
      "▁bietet": 5209,
      "▁gesprungen": 5210,
      "▁Webstuhl": 5211,
      "▁Zebr": 5212,
      "▁passenden": 5213,
      "▁Gürtel": 5214,
      "▁Pizz": 5215,
      "▁Stammes": 5216,
      "▁stößt": 5217,
      "▁Einkaufstasche": 5218,
      "▁flauschiger": 5219,
      "▁Plüscht": 5220,
      "▁attrakt": 5221,
      "▁serviert": 5222,
      "▁Legg": 5223,
      "▁Eisenbahn": 5224,
      "Geschäft": 5225,
      "▁japanischen": 5226,
      "▁Redner": 5227,
      "wimmingpool": 5228,
      "▁Kürbis": 5229,
      "▁Säugling": 5230,
      "▁möglicherweise": 5231,
      "▁örtlichen": 5232,
      "arterback": 5233,
      "▁transportiert": 5234,
      "▁Ballerina": 5235,
      "▁Freude": 5236,
      "sprecher": 5237,
      "▁präsentiert": 5238,
      "▁Pferdeschwanz": 5239,
      "▁Laborkittel": 5240,
      "dunkelten": 5241,
      "▁Töpfer": 5242,
      "▁rückwärts": 5243,
      "▁Beachvolleyball": 5244,
      "wehrauto": 5245,
      "zunehmen": 5246,
      "▁Zylinder": 5247,
      "▁Vorderseite": 5248,
      "▁Ureinwohner": 5249,
      "Aus": 5250,
      "Kleidung": 5251,
      "bu": 5252,
      "bürste": 5253,
      "deln": 5254,
      "digen": 5255,
      "fig": 5256,
      "feuert": 5257,
      "garten": 5258,
      "gitter": 5259,
      "guckt": 5260,
      "hause": 5261,
      "iften": 5262,
      "jacken": 5263,
      "karren": 5264,
      "laub": 5265,
      "mo": 5266,
      "ou": 5267,
      "offen": 5268,
      "ph": 5269,
      "part": 5270,
      "rieben": 5271,
      "sol": 5272,
      "seil": 5273,
      "udio": 5274,
      "wer": 5275,
      "wol": 5276,
      "wander": 5277,
      "wür": 5278,
      "xikan": 5279,
      "zw": 5280,
      "zelt": 5281,
      "äum": 5282,
      "ücke": 5283,
      "üchern": 5284,
      "▁ol": 5285,
      "iner": 5286,
      "inner": 5287,
      "iniert": 5288,
      "endet": 5289,
      "▁einf": 5290,
      "auten": 5291,
      "anad": 5292,
      "▁Eier": 5293,
      "▁Esst": 5294,
      "emen": 5295,
      "unifor": 5296,
      "eide": 5297,
      "▁Ma": 5298,
      "▁Maschinen": 5299,
      "ital": 5300,
      "elzen": 5301,
      "▁Stern": 5302,
      "▁Satt": 5303,
      "▁Swimmingpool": 5304,
      "▁mischt": 5305,
      "▁militär": 5306,
      "▁meisten": 5307,
      "▁Farb": 5308,
      "▁Font": 5309,
      "arte": 5310,
      "arfe": 5311,
      "▁Hier": 5312,
      "▁Hab": 5313,
      "▁Hör": 5314,
      "▁Herk": 5315,
      "▁Hallen": 5316,
      "▁Heim": 5317,
      "▁Ble": 5318,
      "▁Bildern": 5319,
      "▁burg": 5320,
      "schung": 5321,
      "schiff": 5322,
      "schüssel": 5323,
      "onnen": 5324,
      "onischen": 5325,
      "stellen": 5326,
      "steiger": 5327,
      "▁vö": 5328,
      "▁Kit": 5329,
      "▁Kie": 5330,
      "▁Kauf": 5331,
      "▁Kick": 5332,
      "▁Kasse": 5333,
      "weil": 5334,
      "▁Garn": 5335,
      "asken": 5336,
      "▁hist": 5337,
      "alde": 5338,
      "esse": 5339,
      "▁Pir": 5340,
      "▁Puppe": 5341,
      "▁Pull": 5342,
      "▁Porträt": 5343,
      "genen": 5344,
      "▁deren": 5345,
      "▁Tomaten": 5346,
      "▁kunst": 5347,
      "pielzeug": 5348,
      "▁gesp": 5349,
      "▁gefl": 5350,
      "▁gesehen": 5351,
      "▁angebracht": 5352,
      "▁fischen": 5353,
      "▁fischt": 5354,
      "▁Jeep": 5355,
      "▁Schnei": 5356,
      "▁Schaum": 5357,
      "▁Scheinw": 5358,
      "▁Schutt": 5359,
      "▁Schrift": 5360,
      "▁Del": 5361,
      "▁Dämmerung": 5362,
      "▁Richt": 5363,
      "▁Lampen": 5364,
      "▁Leinwand": 5365,
      "reicht": 5366,
      "ierung": 5367,
      "▁Acht": 5368,
      "▁Amer": 5369,
      "▁Axt": 5370,
      "▁blocken": 5371,
      "nerischen": 5372,
      "▁Streich": 5373,
      "urz": 5374,
      "leimer": 5375,
      "▁Hunder": 5376,
      "▁Stöcken": 5377,
      "▁Stelzen": 5378,
      "▁trot": 5379,
      "ischem": 5380,
      "▁überall": 5381,
      "▁rund": 5382,
      "▁Menschenansammlung": 5383,
      "▁nasser": 5384,
      "▁namen": 5385,
      "becher": 5386,
      "isp": 5387,
      "▁pl": 5388,
      "▁Handschuhe": 5389,
      "fernung": 5390,
      "▁unterrichtet": 5391,
      "ochten": 5392,
      "lern": 5393,
      "▁Hood": 5394,
      "gelegt": 5395,
      "▁Fahrradhelm": 5396,
      "▁Skil": 5397,
      "▁tie": 5398,
      "▁ließt": 5399,
      "▁erhält": 5400,
      "blickt": 5401,
      "▁Strands": 5402,
      "▁sto": 5403,
      "▁stolz": 5404,
      "▁Tracht": 5405,
      "▁Transport": 5406,
      "▁hochzu": 5407,
      "▁Schneeschuhen": 5408,
      "ausstellung": 5409,
      "ührer": 5410,
      "▁Klasse": 5411,
      "▁Fußballmannschaft": 5412,
      "ertag": 5413,
      "▁Motorhaube": 5414,
      "▁abgestellt": 5415,
      "ssaal": 5416,
      "▁Essensstand": 5417,
      "▁Holzboden": 5418,
      "▁Holzzaun": 5419,
      "▁lächelnden": 5420,
      "ffentlich": 5421,
      "▁Unfall": 5422,
      "▁Med": 5423,
      "▁kurze": 5424,
      "▁Aufzug": 5425,
      "llig": 5426,
      "▁Betr": 5427,
      "▁spärlich": 5428,
      "▁Sprüh": 5429,
      "iene": 5430,
      "▁Bergsteiger": 5431,
      "▁Pfeil": 5432,
      "▁Vorrichtung": 5433,
      "▁Frieden": 5434,
      "▁strahl": 5435,
      "▁streichen": 5436,
      "▁Post": 5437,
      "▁Schutzkleidung": 5438,
      "▁Schutzausrüstung": 5439,
      "▁Schulkinder": 5440,
      "▁Ente": 5441,
      "▁fremden": 5442,
      "▁Turm": 5443,
      "▁Schnur": 5444,
      "▁männliches": 5445,
      "▁Landstraße": 5446,
      "▁Ausstellung": 5447,
      "▁festgebunden": 5448,
      "gläsern": 5449,
      "▁gefolgt": 5450,
      "▁Frisur": 5451,
      "▁Schaulust": 5452,
      "paratur": 5453,
      "▁Toil": 5454,
      "▁Sieg": 5455,
      "▁Herrn": 5456,
      "▁Halskette": 5457,
      "▁schminkt": 5458,
      "▁schneit": 5459,
      "▁liegenden": 5460,
      "▁Unterwäsche": 5461,
      "▁Ziegelwand": 5462,
      "▁Ziegelsteinen": 5463,
      "▁Drink": 5464,
      "▁rutschen": 5465,
      "▁bewalde": 5466,
      "▁kurzem": 5467,
      "konzert": 5468,
      "udel": 5469,
      "▁Partie": 5470,
      "▁strecken": 5471,
      "▁Eimern": 5472,
      "Scheibe": 5473,
      "▁Kostüme": 5474,
      "▁Obdach": 5475,
      "▁eingeschla": 5476,
      "▁Schmetter": 5477,
      "ips": 5478,
      "▁jüngerer": 5479,
      "▁Pflanze": 5480,
      "▁afrikanischen": 5481,
      "▁Overalls": 5482,
      "▁verwenden": 5483,
      "▁Schlauchboot": 5484,
      "front": 5485,
      "alerie": 5486,
      "▁formt": 5487,
      "▁Säule": 5488,
      "▁Rückseite": 5489,
      "▁Rücksitz": 5490,
      "▁aufgeregt": 5491,
      "▁Ziellinie": 5492,
      "▁Gleich": 5493,
      "▁Gleisen": 5494,
      "rosse": 5495,
      "▁fliegenden": 5496,
      "▁wunderschöne": 5497,
      "▁Gitarristen": 5498,
      "▁amüsiert": 5499,
      "▁Boxer": 5500,
      "▁Erdhügel": 5501,
      "▁jeder": 5502,
      "▁erklimmen": 5503,
      "▁fröhlich": 5504,
      "viertel": 5505,
      "▁Öffentlich": 5506,
      "▁Lagerfeuer": 5507,
      "▁regnerischen": 5508,
      "▁Profi": 5509,
      "▁Banjo": 5510,
      "▁blondhaarige": 5511,
      "▁Freizeitpark": 5512,
      "▁Gummi": 5513,
      "▁kauert": 5514,
      "▁Stromschn": 5515,
      "▁verbunden": 5516,
      "zeichnung": 5517,
      "▁Körben": 5518,
      "▁löschen": 5519,
      "▁Entfernung": 5520,
      "▁größeren": 5521,
      "▁Klappstuhl": 5522,
      "▁ungewöhnlichen": 5523,
      "▁medizin": 5524,
      "▁übergewichtiger": 5525,
      "▁oberen": 5526,
      "▁heruntergekommen": 5527,
      "▁filmt": 5528,
      "▁College": 5529,
      "▁niedrigen": 5530,
      "▁ebenfalls": 5531,
      "▁Laternen": 5532,
      "kräfte": 5533,
      "sauger": 5534,
      "▁Präsentation": 5535,
      "robat": 5536,
      "▁Lacrosse": 5537,
      "▁staubigen": 5538,
      "▁aufgereiht": 5539,
      "▁Rikscha": 5540,
      "ynch": 5541,
      "▁Mülleimer": 5542,
      "▁Lasso": 5543,
      "▁trifft": 5544,
      "▁Verteid": 5545,
      "▁vergnügt": 5546,
      "▁Bootes": 5547,
      "▁abgebildet": 5548,
      "▁Erzeugnisse": 5549,
      "▁unordentlichen": 5550,
      "▁kratzt": 5551,
      "▁Experiment": 5552,
      "▁Leggings": 5553,
      "uniformen": 5554,
      "▁Herkunft": 5555,
      "▁burgunder": 5556,
      "▁histor": 5557,
      "▁Richtungen": 5558,
      "▁namens": 5559,
      "▁eingeschlafen": 5560,
      "▁Öffentlichkeit": 5561,
      "Basketball": 5562,
      "Derb": 5563,
      "appt": 5564,
      "bü": 5565,
      "ble": 5566,
      "bbelt": 5567,
      "bäumen": 5568,
      "cre": 5569,
      "cont": 5570,
      "dachten": 5571,
      "dukt": 5572,
      "ebe": 5573,
      "echten": 5574,
      "fol": 5575,
      "fält": 5576,
      "frü": 5577,
      "flaschen": 5578,
      "gten": 5579,
      "gaben": 5580,
      "hel": 5581,
      "hoch": 5582,
      "hack": 5583,
      "horn": 5584,
      "iö": 5585,
      "ipfl": 5586,
      "kle": 5587,
      "keln": 5588,
      "kater": 5589,
      "lück": 5590,
      "lampe": 5591,
      "mor": 5592,
      "mpf": 5593,
      "mart": 5594,
      "maler": 5595,
      "mützen": 5596,
      "nä": 5597,
      "ochen": 5598,
      "ragen": 5599,
      "raten": 5600,
      "rennfahrer": 5601,
      "saal": 5602,
      "tem": 5603,
      "uhr": 5604,
      "uhen": 5605,
      "upp": 5606,
      "uert": 5607,
      "wa": 5608,
      "zus": 5609,
      "äge": 5610,
      "öck": 5611,
      "üge": 5612,
      "ünen": 5613,
      "ült": 5614,
      "ins": 5615,
      "inz": 5616,
      "inos": 5617,
      "chan": 5618,
      "chsen": 5619,
      "auber": 5620,
      "aupt": 5621,
      "▁Et": 5622,
      "eist": 5623,
      "eiter": 5624,
      "eife": 5625,
      "▁Mön": 5626,
      "▁Morgen": 5627,
      "▁du": 5628,
      "▁Sub": 5629,
      "▁mü": 5630,
      "▁mäht": 5631,
      "▁Fische": 5632,
      "geben": 5633,
      "▁Hor": 5634,
      "▁Hambur": 5635,
      "▁Hallow": 5636,
      "iesen": 5637,
      "▁Bla": 5638,
      "▁Brillen": 5639,
      "▁bür": 5640,
      "▁buck": 5641,
      "▁bindet": 5642,
      "▁bzw": 5643,
      "schr": 5644,
      "schür": 5645,
      "schüt": 5646,
      "stall": 5647,
      "▁iP": 5648,
      "▁Grau": 5649,
      "▁Gab": 5650,
      "▁Glast": 5651,
      "▁Pullo": 5652,
      "▁Zus": 5653,
      "▁Zeich": 5654,
      "▁zahl": 5655,
      "rochen": 5656,
      "▁Tim": 5657,
      "▁Top": 5658,
      "▁kastanien": 5659,
      "▁diesen": 5660,
      "▁gedr": 5661,
      "▁gespannt": 5662,
      "▁Wart": 5663,
      "▁wahr": 5664,
      "▁wett": 5665,
      "▁würde": 5666,
      "▁wissenschaft": 5667,
      "▁fein": 5668,
      "▁förm": 5669,
      "▁fasst": 5670,
      "▁folgen": 5671,
      "▁füllen": 5672,
      "▁lau": 5673,
      "▁Schok": 5674,
      "▁Des": 5675,
      "▁Darbietung": 5676,
      "indigkeit": 5677,
      "▁Rosa": 5678,
      "▁Lade": 5679,
      "▁Lampe": 5680,
      "▁Lokal": 5681,
      "▁Aqu": 5682,
      "▁vorführt": 5683,
      "▁klaren": 5684,
      "ump": 5685,
      "ata": 5686,
      "▁sicht": 5687,
      "adung": 5688,
      "uth": 5689,
      "▁Station": 5690,
      "▁Stativ": 5691,
      "legt": 5692,
      "▁bedienen": 5693,
      "▁spring": 5694,
      "▁spritzen": 5695,
      "imer": 5696,
      "▁Wasserbecken": 5697,
      "▁Wasserfläche": 5698,
      "ish": 5699,
      "▁park": 5700,
      "▁platz": 5701,
      "▁passiert": 5702,
      "▁verbr": 5703,
      "▁vergn": 5704,
      "▁verwir": 5705,
      "gramm": 5706,
      "griff": 5707,
      "▁Fahrg": 5708,
      "▁Fahrzeuge": 5709,
      "▁gelangen": 5710,
      "▁unteren": 5711,
      "▁Board": 5712,
      "▁Oberfläche": 5713,
      "▁Con": 5714,
      "▁Cello": 5715,
      "▁hervor": 5716,
      "▁Blas": 5717,
      "▁Blasen": 5718,
      "▁tags": 5719,
      "uld": 5720,
      "ierenden": 5721,
      "▁erreichen": 5722,
      "▁erhobenen": 5723,
      "▁Bauwerk": 5724,
      "blase": 5725,
      "▁steile": 5726,
      "▁stürzt": 5727,
      "▁Kleidungs": 5728,
      "▁Kopfschmuck": 5729,
      "ündet": 5730,
      "▁Flip": 5731,
      "▁Flipfl": 5732,
      "▁Ang": 5733,
      "▁Fußballtrikot": 5734,
      "ocknet": 5735,
      "ärmen": 5736,
      "▁Straßenarbeiter": 5737,
      "▁Straßenfest": 5738,
      "▁Straßenseite": 5739,
      "▁Inter": 5740,
      "▁Inder": 5741,
      "▁warm": 5742,
      "▁warmen": 5743,
      "▁Pferder": 5744,
      "objekt": 5745,
      "▁Skateboards": 5746,
      "▁heller": 5747,
      "▁Text": 5748,
      "▁Texas": 5749,
      "izont": 5750,
      "▁Holzkonstruktion": 5751,
      "▁wieder": 5752,
      "▁darin": 5753,
      "▁daran": 5754,
      "▁betreten": 5755,
      "▁Aufnahme": 5756,
      "▁Bildes": 5757,
      "▁Tennisplatz": 5758,
      "spielt": 5759,
      "spielzeug": 5760,
      "▁Musikgruppe": 5761,
      "▁Steintreppe": 5762,
      "▁Kraft": 5763,
      "▁Kühl": 5764,
      "▁Bruder": 5765,
      "▁Eiswagen": 5766,
      "▁Fenstern": 5767,
      "▁Polos": 5768,
      "▁Feuerwerk": 5769,
      "▁Feuerwehrauto": 5770,
      "▁hohes": 5771,
      "▁Regenbogen": 5772,
      "▁Regenmantel": 5773,
      "schluss": 5774,
      "▁Zeitschriften": 5775,
      "▁Karohemd": 5776,
      "▁Flusses": 5777,
      "▁Flussufer": 5778,
      "▁Rennens": 5779,
      "▁Mitspieler": 5780,
      "digt": 5781,
      "▁angehalten": 5782,
      "▁Konstruktion": 5783,
      "▁Zauns": 5784,
      "▁grin": 5785,
      "▁freien": 5786,
      "▁Familien": 5787,
      "▁orangefarbenes": 5788,
      "▁schneebedeckte": 5789,
      "▁schneebedecktes": 5790,
      "▁Einkaufstüten": 5791,
      "▁gefangen": 5792,
      "▁sonnen": 5793,
      "▁spaziert": 5794,
      "▁aussehendes": 5795,
      "▁Plate": 5796,
      "▁Gericht": 5797,
      "▁Rasenfläche": 5798,
      "▁Felsbrocken": 5799,
      "▁öffent": 5800,
      "▁besucht": 5801,
      "▁Schürzen": 5802,
      "▁Akten": 5803,
      "▁Parcours": 5804,
      "▁dritter": 5805,
      "▁schützen": 5806,
      "▁schützt": 5807,
      "▁Hockeyspiel": 5808,
      "awai": 5809,
      "hunde": 5810,
      "▁heraushängen": 5811,
      "▁Tanzfläche": 5812,
      "▁weiteren": 5813,
      "▁Kampfsportler": 5814,
      "handschuh": 5815,
      "▁amerikanischer": 5816,
      "▁beleuchtet": 5817,
      "verkehr": 5818,
      "▁flach": 5819,
      "▁Großer": 5820,
      "armon": 5821,
      "▁Laufbahn": 5822,
      "▁schaukeln": 5823,
      "▁holen": 5824,
      "▁angezogener": 5825,
      "ähnlichen": 5826,
      "▁Fischernetz": 5827,
      "▁Begeister": 5828,
      "▁ausgezogen": 5829,
      "▁Nachrichten": 5830,
      "▁entfernen": 5831,
      "▁Verkaufsstand": 5832,
      "▁Platte": 5833,
      "▁orientalisch": 5834,
      "show": 5835,
      "▁Flügeln": 5836,
      "▁Außenbereich": 5837,
      "▁Kapuzenpullover": 5838,
      "▁ärmellos": 5839,
      "▁Badem": 5840,
      "▁Speise": 5841,
      "▁krab": 5842,
      "▁Student": 5843,
      "▁Sicherheitsweste": 5844,
      "▁bestellen": 5845,
      "▁Kartons": 5846,
      "▁hübschen": 5847,
      "▁hübsche": 5848,
      "▁ex": 5849,
      "▁anhaben": 5850,
      "▁jeweil": 5851,
      "▁verzierten": 5852,
      "scheinlich": 5853,
      "▁getroffen": 5854,
      "▁Old": 5855,
      "▁Dunkel": 5856,
      "▁Mitglied": 5857,
      "▁überprüfen": 5858,
      "pferd": 5859,
      "▁Rugbyspieler": 5860,
      "▁Namensschild": 5861,
      "▁türki": 5862,
      "▁tätowierte": 5863,
      "▁Segelboot": 5864,
      "▁elektrischen": 5865,
      "▁Notiz": 5866,
      "▁formeller": 5867,
      "▁muskul": 5868,
      "▁boxen": 5869,
      "wettbewerb": 5870,
      "▁Schachtel": 5871,
      "▁Bauernmarkt": 5872,
      "großen": 5873,
      "▁ähnlich": 5874,
      "▁Sessel": 5875,
      "gabe": 5876,
      "▁moder": 5877,
      "▁Musikinstrumente": 5878,
      "Team": 5879,
      "club": 5880,
      "▁akust": 5881,
      "trieb": 5882,
      "▁Patienten": 5883,
      "▁befahrenen": 5884,
      "▁Straßenmusiker": 5885,
      "▁schlendert": 5886,
      "▁Reklametafel": 5887,
      "▁protestiert": 5888,
      "▁erleuchteten": 5889,
      "putzer": 5890,
      "▁schlammigen": 5891,
      "▁China": 5892,
      "▁ausgestreckt": 5893,
      "▁Irokesenschnitt": 5894,
      "kohol": 5895,
      "▁Sommer": 5896,
      "▁Wakeboard": 5897,
      "▁Ampel": 5898,
      "▁Neugeborenes": 5899,
      "▁Camping": 5900,
      "▁dahinter": 5901,
      "▁2012": 5902,
      "äbchen": 5903,
      "▁seichten": 5904,
      "▁Kilt": 5905,
      "▁Kneipe": 5906,
      "▁Wolken": 5907,
      "▁Röhre": 5908,
      "▁bedruckten": 5909,
      "▁umringt": 5910,
      "▁Hinterbeinen": 5911,
      "▁Speer": 5912,
      "▁unglück": 5913,
      "▁dribbelt": 5914,
      "eligiö": 5915,
      "▁Geschwindigkeit": 5916,
      "▁Felsvorsprung": 5917,
      "▁Nachbarschaft": 5918,
      "▁Pizza": 5919,
      "▁Plüschtier": 5920,
      "▁attraktive": 5921,
      "▁Blech": 5922,
      "▁völlig": 5923,
      "▁Pullunder": 5924,
      "▁Scheinwerfer": 5925,
      "▁Hoodie": 5926,
      "▁Betrachter": 5927,
      "▁Friedens": 5928,
      "▁bewaldeten": 5929,
      "▁Stromschnellen": 5930,
      "▁heruntergekommenen": 5931,
      "ynchron": 5932,
      "▁Verteidiger": 5933,
      "Derby": 5934,
      "▁Hamburger": 5935,
      "▁Halloween": 5936,
      "▁Zusammen": 5937,
      "▁Schokol": 5938,
      "▁vergnügen": 5939,
      "▁tagsüber": 5940,
      "▁Flipflops": 5941,
      "▁Begeisterung": 5942,
      "▁jeweils": 5943,
      "An": 5944,
      "Football": 5945,
      "Fußball": 5946,
      "Xyl": 5947,
      "aster": 5948,
      "bie": 5949,
      "bten": 5950,
      "bär": 5951,
      "bällen": 5952,
      "ddy": 5953,
      "eter": 5954,
      "ehen": 5955,
      "farbe": 5956,
      "fession": 5957,
      "ging": 5958,
      "gibt": 5959,
      "gucken": 5960,
      "girl": 5961,
      "hte": 5962,
      "kas": 5963,
      "losen": 5964,
      "lose": 5965,
      "nungen": 5966,
      "oter": 5967,
      "paar": 5968,
      "punkt": 5969,
      "persp": 5970,
      "rän": 5971,
      "ring": 5972,
      "roren": 5973,
      "sem": 5974,
      "set": 5975,
      "swagen": 5976,
      "szug": 5977,
      "timer": 5978,
      "uf": 5979,
      "vern": 5980,
      "wel": 5981,
      "yer": 5982,
      "ydr": 5983,
      "zie": 5984,
      "zone": 5985,
      "zeichnet": 5986,
      "äck": 5987,
      "ägen": 5988,
      "äcke": 5989,
      "öser": 5990,
      "ügt": 5991,
      "ühenden": 5992,
      "▁9": 5993,
      "▁Xyl": 5994,
      "enzt": 5995,
      "eremon": 5996,
      "▁einiger": 5997,
      "▁eingew": 5998,
      "▁einheim": 5999,
      "▁sägt": 6000,
      "▁ska": 6001,
      "eisen": 6002,
      "eimer": 6003,
      "▁dicken": 6004,
      "itu": 6005,
      "itor": 6006,
      "▁Squ": 6007,
      "▁indian": 6008,
      "▁men": 6009,
      "▁muss": 6010,
      "▁meiß": 6011,
      "▁Fang": 6012,
      "▁Fächer": 6013,
      "gef": 6014,
      "arin": 6015,
      "▁aufges": 6016,
      "▁Halb": 6017,
      "▁Hause": 6018,
      "▁Halle": 6019,
      "▁Best": 6020,
      "▁Bark": 6021,
      "▁Busses": 6022,
      "▁Bündel": 6023,
      "▁bast": 6024,
      "▁bocken": 6025,
      "▁brechen": 6026,
      "schrau": 6027,
      "schieden": 6028,
      "schienen": 6029,
      "onne": 6030,
      "onder": 6031,
      "stem": 6032,
      "staben": 6033,
      "strauß": 6034,
      "hren": 6035,
      "▁Kul": 6036,
      "▁Gurt": 6037,
      "▁Gipfel": 6038,
      "asz": 6039,
      "orch": 6040,
      "orte": 6041,
      "orten": 6042,
      "altet": 6043,
      "tragen": 6044,
      "tromm": 6045,
      "treide": 6046,
      "▁Pop": 6047,
      "▁Zelten": 6048,
      "▁Zeremon": 6049,
      "▁zerr": 6050,
      "▁schlei": 6051,
      "▁Them": 6052,
      "▁Tüten": 6053,
      "▁Temp": 6054,
      "▁kap": 6055,
      "▁kanad": 6056,
      "▁gespielt": 6057,
      "▁Wer": 6058,
      "▁wel": 6059,
      "▁wür": 6060,
      "▁ansehen": 6061,
      "▁fern": 6062,
      "▁fasz": 6063,
      "▁Jet": 6064,
      "▁los": 6065,
      "▁lack": 6066,
      "▁loh": 6067,
      "▁lernen": 6068,
      "▁Schieß": 6069,
      "▁Dig": 6070,
      "▁zuhört": 6071,
      "itzern": 6072,
      "▁Rasier": 6073,
      "▁Lin": 6074,
      "▁Leit": 6075,
      "ierc": 6076,
      "▁vorsicht": 6077,
      "allt": 6078,
      "▁blockt": 6079,
      "▁Street": 6080,
      "athlet": 6081,
      "pper": 6082,
      "ilien": 6083,
      "▁schwenken": 6084,
      "utscht": 6085,
      "▁Grund": 6086,
      "oly": 6087,
      "dent": 6088,
      "▁Staffel": 6089,
      "▁Stiefel": 6090,
      "endem": 6091,
      "geräten": 6092,
      "▁beißen": 6093,
      "iken": 6094,
      "▁beh": 6095,
      "▁beten": 6096,
      "▁betet": 6097,
      "▁rührt": 6098,
      "▁richten": 6099,
      "▁OP": 6100,
      "▁Osten": 6101,
      "▁Volk": 6102,
      "▁auszu": 6103,
      "▁ausländ": 6104,
      "▁sprüht": 6105,
      "ehren": 6106,
      "pfahl": 6107,
      "pfosten": 6108,
      "bewegung": 6109,
      "bewegungen": 6110,
      "▁Nad": 6111,
      "isst": 6112,
      "egelt": 6113,
      "hebt": 6114,
      "▁passt": 6115,
      "▁Fahrzeugen": 6116,
      "▁Leucht": 6117,
      "ächt": 6118,
      "ucher": 6119,
      "▁Felskl": 6120,
      "▁Blask": 6121,
      "gelber": 6122,
      "igten": 6123,
      "fahrrad": 6124,
      "▁tun": 6125,
      "▁the": 6126,
      "▁erle": 6127,
      "bluse": 6128,
      "▁stür": 6129,
      "▁stap": 6130,
      "▁of": 6131,
      "▁Trink": 6132,
      "▁Schwer": 6133,
      "▁hochhack": 6134,
      "▁rothaariger": 6135,
      "apier": 6136,
      "ammert": 6137,
      "artphon": 6138,
      "itteln": 6139,
      "striert": 6140,
      "▁Gehstock": 6141,
      "opoly": 6142,
      "▁befind": 6143,
      "▁Feldhockey": 6144,
      "▁Sonnenlicht": 6145,
      "▁Straßenrennen": 6146,
      "▁Straßenszene": 6147,
      "▁Stadtpark": 6148,
      "▁Indien": 6149,
      "stens": 6150,
      "▁Sandhügel": 6151,
      "▁Sandburg": 6152,
      "elmarkt": 6153,
      "▁regen": 6154,
      "▁Arbeitern": 6155,
      "▁hellgrünen": 6156,
      "▁Teddy": 6157,
      "▁Schlucht": 6158,
      "▁Studio": 6159,
      "▁Schwimmflü": 6160,
      "▁Hängem": 6161,
      "▁Reparatur": 6162,
      "flip": 6163,
      "ätte": 6164,
      "▁darüber": 6165,
      "▁Baseballfeld": 6166,
      "▁Univers": 6167,
      "▁Hüpf": 6168,
      "▁Hüfte": 6169,
      "▁Walmart": 6170,
      "▁verschrän": 6171,
      "aken": 6172,
      "▁uns": 6173,
      "▁Hosenträgern": 6174,
      "▁Steinbank": 6175,
      "▁späht": 6176,
      "▁Armee": 6177,
      "▁Pfanne": 6178,
      "gestür": 6179,
      "mpfen": 6180,
      "▁Footballspiel": 6181,
      "▁Polohemd": 6182,
      "▁Feuerstelle": 6183,
      "▁Vorführung": 6184,
      "▁Bäcker": 6185,
      "▁hocken": 6186,
      "▁hohem": 6187,
      "▁Sporthalle": 6188,
      "▁Verschieden": 6189,
      "▁Weißer": 6190,
      "blauer": 6191,
      "▁Buchstaben": 6192,
      "▁Handys": 6193,
      "▁Metallstange": 6194,
      "▁Rosen": 6195,
      "springer": 6196,
      "▁Puppen": 6197,
      "ektive": 6198,
      "▁Papiert": 6199,
      "▁Produkt": 6200,
      "ogo": 6201,
      "▁Konf": 6202,
      "hörer": 6203,
      "▁Auslage": 6204,
      "▁Betonmauer": 6205,
      "▁Betonplat": 6206,
      "▁umgebenen": 6207,
      "▁gefär": 6208,
      "▁gefallen": 6209,
      "▁gefroren": 6210,
      "klettert": 6211,
      "parcours": 6212,
      "▁raus": 6213,
      "▁kämpft": 6214,
      "▁Neben": 6215,
      "ubschrau": 6216,
      "▁Rollers": 6217,
      "▁Kopfbedeckungen": 6218,
      "▁Absatz": 6219,
      "▁lachende": 6220,
      "▁Hochstuhl": 6221,
      "grün": 6222,
      "kommt": 6223,
      "▁schmalen": 6224,
      "▁schnüffelt": 6225,
      "▁schnappt": 6226,
      "▁Unterhemd": 6227,
      "▁Unterhaltung": 6228,
      "▁Marmor": 6229,
      "▁schöner": 6230,
      "▁Müllcont": 6231,
      "▁Ziegelgebäude": 6232,
      "▁Ziegelbau": 6233,
      "▁gewinnen": 6234,
      "kostümen": 6235,
      "▁Mopp": 6236,
      "▁Paras": 6237,
      "▁dritten": 6238,
      "▁Brautjung": 6239,
      "▁unbekann": 6240,
      "udd": 6241,
      "▁Läuferin": 6242,
      "▁Geldautomaten": 6243,
      "vorrichtung": 6244,
      "▁Taube": 6245,
      "▁weiterer": 6246,
      "▁Chef": 6247,
      "ummern": 6248,
      "▁Kajakfahrer": 6249,
      "▁Randstein": 6250,
      "ipe": 6251,
      "uktur": 6252,
      "▁Spiegelbild": 6253,
      "formation": 6254,
      "formationen": 6255,
      "▁Seifenblase": 6256,
      "▁Anzahl": 6257,
      "▁silberne": 6258,
      "dose": 6259,
      "verkauf": 6260,
      "▁dieselbe": 6261,
      "gnis": 6262,
      "▁Backsteinmauer": 6263,
      "▁Waschmaschine": 6264,
      "▁Tourist": 6265,
      "▁gepflasterte": 6266,
      "▁Laufband": 6267,
      "▁Baumstumpf": 6268,
      "▁angezogene": 6269,
      "▁chinesische": 6270,
      "▁soeben": 6271,
      "▁Imbiss": 6272,
      "▁Flugzeugs": 6273,
      "ämmen": 6274,
      "ämpfer": 6275,
      "▁ausgeschnitten": 6276,
      "▁öffnen": 6277,
      "▁geschmückt": 6278,
      "▁Fliege": 6279,
      "struktur": 6280,
      "▁frischem": 6281,
      "▁Platten": 6282,
      "▁afroamerikanisches": 6283,
      "▁orientalischer": 6284,
      "shorts": 6285,
      "▁ruhig": 6286,
      "▁gelegenen": 6287,
      "▁Gesichtsaus": 6288,
      "▁Schlafzimmer": 6289,
      "▁Sicherheitswesten": 6290,
      "▁Projektor": 6291,
      "▁Quarterback": 6292,
      "▁schaufeln": 6293,
      "▁bestehend": 6294,
      "▁Form": 6295,
      "▁Forscher": 6296,
      "▁Kartoff": 6297,
      "▁aufblasbare": 6298,
      "▁erklimmt": 6299,
      "▁saugt": 6300,
      "▁Grünfläche": 6301,
      "▁Kameram": 6302,
      "▁Fotograp": 6303,
      "▁Fußgängerübergang": 6304,
      "▁möchte": 6305,
      "▁dekoriert": 6306,
      "▁breiten": 6307,
      "▁Wildnis": 6308,
      "▁Vögeln": 6309,
      "▁Spielsachen": 6310,
      "▁Jockeys": 6311,
      "▁Smartphon": 6312,
      "▁gehol": 6313,
      "▁Jogger": 6314,
      "▁Jogging": 6315,
      "▁elektronischen": 6316,
      "▁Monopoly": 6317,
      "▁Figuren": 6318,
      "▁Papp": 6319,
      "▁Zahnbürste": 6320,
      "▁Staubsauger": 6321,
      "▁Ozeans": 6322,
      "▁irgendeinem": 6323,
      "▁mehrfarbigen": 6324,
      "gestellten": 6325,
      "traktion": 6326,
      "▁Ziegen": 6327,
      "▁Schneem": 6328,
      "▁Stabhoch": 6329,
      "▁Nagel": 6330,
      "▁brennende": 6331,
      "wettkampf": 6332,
      "▁Schachteln": 6333,
      "▁Laster": 6334,
      "▁trockenen": 6335,
      "▁mittelalter": 6336,
      "▁Windhunde": 6337,
      "▁Batman": 6338,
      "▁Demonstranten": 6339,
      "▁Sommertag": 6340,
      "▁Garage": 6341,
      "▁Peace": 6342,
      "▁Supermarkt": 6343,
      "▁altmodischen": 6344,
      "▁faulenzen": 6345,
      "leitung": 6346,
      "kreuzten": 6347,
      "▁Fernseher": 6348,
      "▁kompletter": 6349,
      "▁Olympischen": 6350,
      "Flops": 6351,
      "▁Billard": 6352,
      "▁rosaroten": 6353,
      "▁legerer": 6354,
      "▁uniformierter": 6355,
      "▁probiert": 6356,
      "▁Europa": 6357,
      "▁beteil": 6358,
      "orangefarbenen": 6359,
      "▁Pelz": 6360,
      "▁Pilot": 6361,
      "▁schlecht": 6362,
      "▁angemalt": 6363,
      "liegenden": 6364,
      "▁Ältere": 6365,
      "▁Glatze": 6366,
      "▁vorderen": 6367,
      "▁Anweisungen": 6368,
      "▁begeistert": 6369,
      "▁Passagiere": 6370,
      "mittag": 6371,
      "▁Wachmann": 6372,
      "▁Wollmütze": 6373,
      "▁Strumpfhose": 6374,
      "▁rostigen": 6375,
      "▁Telefonzelle": 6376,
      "▁Wassersprenger": 6377,
      "▁Smoking": 6378,
      "werfen": 6379,
      "wolke": 6380,
      "▁Esstisch": 6381,
      "▁Sattel": 6382,
      "▁Fontäne": 6383,
      "▁Kaufhaus": 6384,
      "▁geflochten": 6385,
      "▁Gleichgewicht": 6386,
      "inosaur": 6387,
      "▁Horizont": 6388,
      "▁bürstet": 6389,
      "▁wettei": 6390,
      "▁Ladefläche": 6391,
      "▁heraushängender": 6392,
      "armonika": 6393,
      "▁Oldtimer": 6394,
      "▁Dunkelheit": 6395,
      "▁muskulöser": 6396,
      "perspektive": 6397,
      "ydranten": 6398,
      "▁Xylophon": 6399,
      "▁eingewickelt": 6400,
      "▁skatet": 6401,
      "▁meißelt": 6402,
      "▁bockenden": 6403,
      "▁Zeremonie": 6404,
      "▁vorsichtig": 6405,
      "▁Blaskapelle": 6406,
      "▁Hängematte": 6407,
      "▁verschränkten": 6408,
      "ubschrauber": 6409,
      "00": 6410,
      "Bo": 6411,
      "Band": 6412,
      "CE": 6413,
      "Fest": 6414,
      "MS": 6415,
      "Park": 6416,
      "Un": 6417,
      "Wagen": 6418,
      "Wett": 6419,
      "adet": 6420,
      "bter": 6421,
      "brot": 6422,
      "ca": 6423,
      "caf": 6424,
      "dreht": 6425,
      "eck": 6426,
      "frau": 6427,
      "fäl": 6428,
      "führer": 6429,
      "galerie": 6430,
      "hat": 6431,
      "hängt": 6432,
      "hütte": 6433,
      "iffen": 6434,
      "katen": 6435,
      "karten": 6436,
      "kunft": 6437,
      "lein": 6438,
      "loch": 6439,
      "mö": 6440,
      "mark": 6441,
      "nach": 6442,
      "nummer": 6443,
      "po": 6444,
      "puppe": 6445,
      "pla": 6446,
      "pert": 6447,
      "plan": 6448,
      "pult": 6449,
      "raft": 6450,
      "rahmen": 6451,
      "rami": 6452,
      "tür": 6453,
      "uten": 6454,
      "upf": 6455,
      "uell": 6456,
      "vr": 6457,
      "wend": 6458,
      "wirt": 6459,
      "will": 6460,
      "wohl": 6461,
      "zur": 6462,
      "äter": 6463,
      "äden": 6464,
      "övr": 6465,
      "üler": 6466,
      "▁c": 6467,
      "▁eu": 6468,
      "▁ern": 6469,
      "▁eigen": 6470,
      "▁creme": 6471,
      "inchen": 6472,
      "enen": 6473,
      "enga": 6474,
      "einig": 6475,
      "eindr": 6476,
      "einfahrt": 6477,
      "▁Erei": 6478,
      "▁seit": 6479,
      "▁seicht": 6480,
      "▁segelt": 6481,
      "▁Einzel": 6482,
      "▁Einrichtung": 6483,
      "eis": 6484,
      "▁Mil": 6485,
      "▁Mus": 6486,
      "itischen": 6487,
      "itarbeiter": 6488,
      "itäten": 6489,
      "▁Ser": 6490,
      "▁Sar": 6491,
      "▁Sal": 6492,
      "▁Sims": 6493,
      "▁Säge": 6494,
      "▁Fu": 6495,
      "▁Fir": 6496,
      "▁Fle": 6497,
      "▁Fangen": 6498,
      "▁Food": 6499,
      "gesch": 6500,
      "gegend": 6501,
      "▁aufeinander": 6502,
      "▁aufgenommen": 6503,
      "▁Hawai": 6504,
      "ieh": 6505,
      "tete": 6506,
      "techn": 6507,
      "▁Brau": 6508,
      "▁Bong": 6509,
      "▁Bagger": 6510,
      "▁binden": 6511,
      "schlie": 6512,
      "school": 6513,
      "schildern": 6514,
      "stä": 6515,
      "stab": 6516,
      "stiefeln": 6517,
      "stöcken": 6518,
      "streifen": 6519,
      "storte": 6520,
      "rauf": 6521,
      "rauben": 6522,
      "hrt": 6523,
      "▁Kuss": 6524,
      "▁Kinn": 6525,
      "▁Können": 6526,
      "▁Gok": 6527,
      "ash": 6528,
      "orgt": 6529,
      "oreiter": 6530,
      "▁heim": 6531,
      "▁hackt": 6532,
      "alteten": 6533,
      "troll": 6534,
      "treten": 6535,
      "▁Pul": 6536,
      "▁Pult": 6537,
      "▁Pistole": 6538,
      "▁Zitr": 6539,
      "ichteten": 6540,
      "▁schenkt": 6541,
      "roter": 6542,
      "ropä": 6543,
      "iellen": 6544,
      "▁Män": 6545,
      "▁ganzen": 6546,
      "▁Tut": 6547,
      "▁geflie": 6548,
      "▁Wa": 6549,
      "▁Wir": 6550,
      "▁Wetter": 6551,
      "▁Wippe": 6552,
      "▁Wanne": 6553,
      "▁Waffel": 6554,
      "▁Wissenschaft": 6555,
      "▁Waffen": 6556,
      "▁Warte": 6557,
      "▁wenn": 6558,
      "▁wilden": 6559,
      "dest": 6560,
      "▁ant": 6561,
      "▁anzug": 6562,
      "▁Jenga": 6563,
      "▁lust": 6564,
      "▁lädt": 6565,
      "▁leitet": 6566,
      "▁Dom": 6567,
      "▁Draußen": 6568,
      "▁Dosen": 6569,
      "▁Dose": 6570,
      "▁Dschung": 6571,
      "▁Dinosaur": 6572,
      "▁zurecht": 6573,
      "▁zuhause": 6574,
      "▁steuert": 6575,
      "ney": 6576,
      "▁Ru": 6577,
      "▁Rast": 6578,
      "▁Laut": 6579,
      "▁Latz": 6580,
      "▁Lenk": 6581,
      "ungsk": 6582,
      "ungsm": 6583,
      "ierend": 6584,
      "▁voran": 6585,
      "etscher": 6586,
      "▁bleiben": 6587,
      "▁bleibt": 6588,
      "uren": 6589,
      "▁schwere": 6590,
      "utaten": 6591,
      "▁Graben": 6592,
      "olster": 6593,
      "▁Stil": 6594,
      "▁Ged": 6595,
      "▁Getreide": 6596,
      "▁denkt": 6597,
      "▁tromm": 6598,
      "änzern": 6599,
      "lex": 6600,
      "ikel": 6601,
      "▁beeindr": 6602,
      "▁richt": 6603,
      "▁religiö": 6604,
      "▁Ochsen": 6605,
      "unterricht": 6606,
      "▁nied": 6607,
      "▁umzäunten": 6608,
      "pfeln": 6609,
      "▁anderem": 6610,
      "▁Nummern": 6611,
      "imon": 6612,
      "▁Wasserstraße": 6613,
      "ellern": 6614,
      "isur": 6615,
      "egte": 6616,
      "later": 6617,
      "▁spielenden": 6618,
      "hedr": 6619,
      "▁entwe": 6620,
      "▁patr": 6621,
      "abteil": 6622,
      "gress": 6623,
      "gruppen": 6624,
      "grube": 6625,
      "▁Handwerker": 6626,
      "boxen": 6627,
      "▁Boote": 6628,
      "▁Body": 6629,
      "▁zweite": 6630,
      "anzt": 6631,
      "▁Cr": 6632,
      "▁Kok": 6633,
      "▁Kom": 6634,
      "▁Ufers": 6635,
      "▁Blut": 6636,
      "▁Block": 6637,
      "gelegten": 6638,
      "▁sieben": 6639,
      "▁Fahrradrennen": 6640,
      "▁Skim": 6641,
      "▁tippt": 6642,
      "▁hinweg": 6643,
      "▁Spielers": 6644,
      "▁erziel": 6645,
      "▁Kamm": 6646,
      "blatt": 6647,
      "bläser": 6648,
      "▁albern": 6649,
      "▁Basken": 6650,
      "▁hinteren": 6651,
      "etti": 6652,
      "▁Kopfstein": 6653,
      "▁Schwebe": 6654,
      "▁vorbeifahren": 6655,
      "▁Spitz": 6656,
      "▁Spinn": 6657,
      "▁Schneeball": 6658,
      "ütz": 6659,
      "▁Ihr": 6660,
      "▁Flammen": 6661,
      "▁Ansicht": 6662,
      "ansicht": 6663,
      "stücken": 6664,
      "inke": 6665,
      "ärger": 6666,
      "▁Stadtszene": 6667,
      "▁leben": 6668,
      "▁Indu": 6669,
      "▁Indian": 6670,
      "chtathlet": 6671,
      "▁Pferdes": 6672,
      "hohen": 6673,
      "▁Jeansshorts": 6674,
      "▁Gesellschaft": 6675,
      "▁Holzbrett": 6676,
      "ollie": 6677,
      "ätzen": 6678,
      "▁Wandmaler": 6679,
      "ketten": 6680,
      "▁Aufnah": 6681,
      "▁gestreifte": 6682,
      "▁verschm": 6683,
      "▁Gesichtsm": 6684,
      "▁Reihen": 6685,
      "affeln": 6686,
      "rid": 6687,
      "riff": 6688,
      "▁Musikinstrument": 6689,
      "▁Beutel": 6690,
      "▁Küsten": 6691,
      "▁Kunstgalerie": 6692,
      "▁reicht": 6693,
      "▁Felsens": 6694,
      "▁Berglandschaft": 6695,
      "▁Pfeife": 6696,
      "▁Basketballfeld": 6697,
      "astreifen": 6698,
      "▁Eisschn": 6699,
      "▁Footballfeld": 6700,
      "bricht": 6701,
      "▁Leop": 6702,
      "▁Vorstellung": 6703,
      "zeria": 6704,
      "▁Badehosen": 6705,
      "▁Badekappe": 6706,
      "schlange": 6707,
      "schlitten": 6708,
      "schwimmer": 6709,
      "▁genau": 6710,
      "▁Spielern": 6711,
      "essel": 6712,
      "▁Pok": 6713,
      "aterial": 6714,
      "blaue": 6715,
      "▁Alkohol": 6716,
      "▁Papa": 6717,
      "▁angefeuert": 6718,
      "ogie": 6719,
      "▁End": 6720,
      "▁Enten": 6721,
      "▁frischen": 6722,
      "▁frische": 6723,
      "▁Schnorch": 6724,
      "▁Landung": 6725,
      "▁teilt": 6726,
      "▁karierter": 6727,
      "▁Rennfahrer": 6728,
      "▁Betonstufen": 6729,
      "▁aller": 6730,
      "▁Gletscher": 6731,
      "Bahnstation": 6732,
      "▁Schauspieler": 6733,
      "▁telefonieren": 6734,
      "▁Torbogen": 6735,
      "▁Neon": 6736,
      "▁Teenagern": 6737,
      "etzter": 6738,
      "▁Rockband": 6739,
      "eeper": 6740,
      "grüner": 6741,
      "▁Schals": 6742,
      "lings": 6743,
      "▁Kanus": 6744,
      "▁Kaninchen": 6745,
      "▁Zigarre": 6746,
      "▁Winterjacke": 6747,
      "▁Wintertag": 6748,
      "hüpfen": 6749,
      "▁hüpfen": 6750,
      "▁Trock": 6751,
      "▁besprü": 6752,
      "▁beginnen": 6753,
      "kost": 6754,
      "▁geschlagen": 6755,
      "▁geschrieben": 6756,
      "▁Leichtathlet": 6757,
      "▁Volleyballspiel": 6758,
      "▁Herzen": 6759,
      "▁violetter": 6760,
      "▁Fischmarkt": 6761,
      "udeln": 6762,
      "▁Handtaschen": 6763,
      "▁Dekor": 6764,
      "▁Backflip": 6765,
      "▁Geldbeutel": 6766,
      "▁Tauziehen": 6767,
      "▁Ladens": 6768,
      "▁Coca": 6769,
      "▁Vogelperspektive": 6770,
      "▁Fahrzeugs": 6771,
      "▁Passagieren": 6772,
      "▁Kajaks": 6773,
      "▁profession": 6774,
      "handschuhen": 6775,
      "▁Knien": 6776,
      "▁traditionelle": 6777,
      "▁lilafarbener": 6778,
      "▁weiblichen": 6779,
      "▁Huhn": 6780,
      "▁gepolster": 6781,
      "▁dieses": 6782,
      "▁Backsteinstraße": 6783,
      "▁Fernsehen": 6784,
      "▁abgesperr": 6785,
      "▁gegnerische": 6786,
      "▁linke": 6787,
      "▁Elmo": 6788,
      "bewohner": 6789,
      "▁glückliche": 6790,
      "▁Baumstämmen": 6791,
      "▁Labrad": 6792,
      "▁Geländefahrzeug": 6793,
      "▁Übung": 6794,
      "▁Training": 6795,
      "▁Militärangehör": 6796,
      "▁Tages": 6797,
      "▁Innenhof": 6798,
      "▁Innenraum": 6799,
      "▁Beginn": 6800,
      "▁Begriff": 6801,
      "promenade": 6802,
      "▁eng": 6803,
      "▁Fliegen": 6804,
      "▁Cheerleaderin": 6805,
      "wärtss": 6806,
      "▁gießen": 6807,
      "▁aufgeblasen": 6808,
      "▁Bades": 6809,
      "▁krie": 6810,
      "▁Softballspieler": 6811,
      "mitarbeiter": 6812,
      "▁einsamen": 6813,
      "▁interagieren": 6814,
      "▁intervie": 6815,
      "▁Bücherreg": 6816,
      "▁dirigiert": 6817,
      "▁beschm": 6818,
      "▁braunhaariges": 6819,
      "▁hübsch": 6820,
      "instrumente": 6821,
      "▁Großstadt": 6822,
      "▁fröhliche": 6823,
      "seligkeiten": 6824,
      "▁pflanzen": 6825,
      "▁Möwen": 6826,
      "▁Palme": 6827,
      "▁getragen": 6828,
      "▁Ringkampf": 6829,
      "▁neuen": 6830,
      "▁Öl": 6831,
      "▁regelt": 6832,
      "▁regnet": 6833,
      "▁barfüßiger": 6834,
      "▁Kabel": 6835,
      "▁Kabine": 6836,
      "▁Urlaub": 6837,
      "▁dekorativ": 6838,
      "▁Filz": 6839,
      "▁breit": 6840,
      "▁khakifarbener": 6841,
      "▁Wildwasser": 6842,
      "▁Hundespielzeug": 6843,
      "▁Violett": 6844,
      "▁blondhaariger": 6845,
      "zuführen": 6846,
      "fallenen": 6847,
      "▁Motocrossfahrer": 6848,
      "▁langes": 6849,
      "▁Versuch": 6850,
      "▁nassem": 6851,
      "uscheln": 6852,
      "▁Häuser": 6853,
      "▁anzusehen": 6854,
      "▁Lebensmittelmarkt": 6855,
      "▁irgendeiner": 6856,
      "▁Schritt": 6857,
      "▁schlafend": 6858,
      "▁schlafendes": 6859,
      "▁Käse": 6860,
      "▁Käfig": 6861,
      "askott": 6862,
      "▁Ziege": 6863,
      "▁Nahen": 6864,
      "▁kümmern": 6865,
      "▁brennenden": 6866,
      "▁Fassade": 6867,
      "▁Pizzeria": 6868,
      "▁Warnweste": 6869,
      "▁Ruderboot": 6870,
      "▁Löwen": 6871,
      "▁Startlinie": 6872,
      "▁Einkaufstaschen": 6873,
      "▁Plüsch": 6874,
      "▁Schlittschuhen": 6875,
      "▁Schlittschuh": 6876,
      "▁Demonstration": 6877,
      "▁dünnen": 6878,
      "▁Pinsel": 6879,
      "▁Musikinstrumenten": 6880,
      "▁Absperrung": 6881,
      "Trikot": 6882,
      "▁Highschool": 6883,
      "▁faulenzt": 6884,
      "▁Afrikaner": 6885,
      "▁erhöh": 6886,
      "▁Fernseh": 6887,
      "▁ausgebreitet": 6888,
      "▁ausgebreiteten": 6889,
      "arium": 6890,
      "▁säubert": 6891,
      "▁sortiert": 6892,
      "▁Fackel": 6893,
      "▁Tankstelle": 6894,
      "▁reflektierenden": 6895,
      "▁gemusterten": 6896,
      "körben": 6897,
      "▁Fitnes": 6898,
      "iegs": 6899,
      "▁Broschür": 6900,
      "▁zielt": 6901,
      "▁trüben": 6902,
      "▁tropischen": 6903,
      "▁Wassermelonen": 6904,
      "▁Bohrmaschine": 6905,
      "▁versteckt": 6906,
      "▁Pflasterstraße": 6907,
      "gestreiften": 6908,
      "▁Kontrolle": 6909,
      "▁McDonalds": 6910,
      "▁Seni": 6911,
      "▁mexikan": 6912,
      "▁Apple": 6913,
      "▁verschwommen": 6914,
      "▁Rodeoreiter": 6915,
      "▁gefleckter": 6916,
      "▁Objekte": 6917,
      "▁Kaffeetasse": 6918,
      "▁Cheerleadern": 6919,
      "▁gesäumte": 6920,
      "▁Bananen": 6921,
      "▁Zebrastreifen": 6922,
      "▁Stammeskleidung": 6923,
      "▁einfachen": 6924,
      "▁Habseligkeiten": 6925,
      "▁Piraten": 6926,
      "▁trottet": 6927,
      "ispan": 6928,
      "▁hochzuklettern": 6929,
      "▁Toiletten": 6930,
      "▁burgunderroten": 6931,
      "▁historischen": 6932,
      "bühne": 6933,
      "nähe": 6934,
      "▁Subway": 6935,
      "▁Blazer": 6936,
      "▁buckeln": 6937,
      "schützern": 6938,
      "▁iPod": 6939,
      "▁Glastür": 6940,
      "▁Pullovern": 6941,
      "▁Times": 6942,
      "▁Wartungs": 6943,
      "▁wahrscheinlich": 6944,
      "▁Aktentasche": 6945,
      "▁krabbelt": 6946,
      "▁türkisen": 6947,
      "▁Friedenszeichen": 6948,
      "▁Schokoladen": 6949,
      "▁Square": 6950,
      "▁Barkeeper": 6951,
      "▁Popc": 6952,
      "▁schleift": 6953,
      "▁Digital": 6954,
      "▁Staffelei": 6955,
      "▁Felsklippe": 6956,
      "▁hochhackigen": 6957,
      "gestürzten": 6958,
      "▁Verschiedene": 6959,
      "▁Müllcontainer": 6960,
      "▁Brautjungfern": 6961,
      "▁Gesichtsausdruck": 6962,
      "▁Kameramann": 6963,
      "▁Smartphone": 6964,
      "▁geflochtenen": 6965,
      "café": 6966,
      "▁europä": 6967,
      "▁Ereignis": 6968,
      "▁seichtem": 6969,
      "▁Gokart": 6970,
      "▁Dschungel": 6971,
      "▁beeindrucken": 6972,
      "▁entweder": 6973,
      "▁Baskenmütze": 6974,
      "▁Kopfsteinpflaster": 6975,
      "▁Schwebebalken": 6976,
      "▁Industr": 6977,
      "▁Indianer": 6978,
      "▁Wandmalerei": 6979,
      "▁Eisschnell": 6980,
      "askottchen": 6981,
      "Aut": 6982,
      "Air": 6983,
      "BH": 6984,
      "Co": 6985,
      "Cola": 6986,
      "Kon": 6987,
      "Rad": 6988,
      "Sp": 6989,
      "bh": 6990,
      "bun": 6991,
      "bon": 6992,
      "baby": 6993,
      "bälle": 6994,
      "brechen": 6995,
      "ct": 6996,
      "car": 6997,
      "fiel": 6998,
      "fisch": 6999,
      "fass": 7000,
      "führen": 7001,
      "gurt": 7002,
      "hol": 7003,
      "hän": 7004,
      "hom": 7005,
      "hstück": 7006,
      "hemden": 7007,
      "if": 7008,
      "ide": 7009,
      "ider": 7010,
      "izen": 7011,
      "jama": 7012,
      "kn": 7013,
      "kä": 7014,
      "kie": 7015,
      "kollegen": 7016,
      "kapelle": 7017,
      "lim": 7018,
      "lassen": 7019,
      "mun": 7020,
      "mar": 7021,
      "mittel": 7022,
      "meister": 7023,
      "ness": 7024,
      "ober": 7025,
      "our": 7026,
      "ostümen": 7027,
      "ove": 7028,
      "outfit": 7029,
      "person": 7030,
      "pern": 7031,
      "packt": 7032,
      "position": 7033,
      "pistole": 7034,
      "papier": 7035,
      "pipe": 7036,
      "res": 7037,
      "ragt": 7038,
      "saft": 7039,
      "teln": 7040,
      "tuch": 7041,
      "tänzer": 7042,
      "tunnel": 7043,
      "teile": 7044,
      "usche": 7045,
      "wart": 7046,
      "wahl": 7047,
      "wiese": 7048,
      "watte": 7049,
      "werfer": 7050,
      "waffe": 7051,
      "wärmen": 7052,
      "ye": 7053,
      "äsch": 7054,
      "öße": 7055,
      "ücher": 7056,
      "übungen": 7057,
      "▁8": 7058,
      "inis": 7059,
      "ench": 7060,
      "erie": 7061,
      "▁eink": 7062,
      "▁einger": 7063,
      "▁einzufangen": 7064,
      "chor": 7065,
      "chtet": 7066,
      "aunen": 7067,
      "anell": 7068,
      "▁Eben": 7069,
      "▁Empf": 7070,
      "untr": 7071,
      "▁sü": 7072,
      "▁senk": 7073,
      "▁sorg": 7074,
      "▁Meg": 7075,
      "▁Massen": 7076,
      "▁dü": 7077,
      "▁dreck": 7078,
      "▁SMS": 7079,
      "▁intens": 7080,
      "underk": 7081,
      "undgebung": 7082,
      "▁mobil": 7083,
      "▁Fan": 7084,
      "▁Fäu": 7085,
      "▁außen": 7086,
      "geträn": 7087,
      "gestühlen": 7088,
      "arden": 7089,
      "ards": 7090,
      "▁aufrecht": 7091,
      "▁aufhat": 7092,
      "▁Hasen": 7093,
      "▁Haut": 7094,
      "▁Haken": 7095,
      "▁Hydranten": 7096,
      "▁Hubschrauber": 7097,
      "ießt": 7098,
      "▁Bur": 7099,
      "▁Blei": 7100,
      "▁Barr": 7101,
      "▁Busch": 7102,
      "▁bett": 7103,
      "▁bess": 7104,
      "schle": 7105,
      "schauf": 7106,
      "schul": 7107,
      "schuss": 7108,
      "oners": 7109,
      "onern": 7110,
      "stil": 7111,
      "ständ": 7112,
      "▁Kittel": 7113,
      "▁Kunde": 7114,
      "▁Kegeln": 7115,
      "▁Kimon": 7116,
      "tennis": 7117,
      "▁Go": 7118,
      "▁Gas": 7119,
      "▁Gän": 7120,
      "order": 7121,
      "▁helle": 7122,
      "trock": 7123,
      "train": 7124,
      "tresen": 7125,
      "▁Pow": 7126,
      "▁Ping": 7127,
      "▁Pain": 7128,
      "▁Position": 7129,
      "gendet": 7130,
      "▁Zelte": 7131,
      "▁Zauber": 7132,
      "▁Zutaten": 7133,
      "▁zeich": 7134,
      "▁zündet": 7135,
      "ichert": 7136,
      "▁schält": 7137,
      "▁schick": 7138,
      "▁schatt": 7139,
      "▁schippt": 7140,
      "rotes": 7141,
      "▁Tiger": 7142,
      "▁Tauch": 7143,
      "▁Tänzern": 7144,
      "▁kein": 7145,
      "▁keine": 7146,
      "▁kicken": 7147,
      "▁kehren": 7148,
      "▁geschn": 7149,
      "▁gefahren": 7150,
      "▁gehoben": 7151,
      "▁gekü": 7152,
      "▁gepfle": 7153,
      "▁Whe": 7154,
      "▁Wände": 7155,
      "▁Wunderk": 7156,
      "▁we": 7157,
      "▁wolk": 7158,
      "▁anschaut": 7159,
      "▁fal": 7160,
      "▁frü": 7161,
      "▁feuert": 7162,
      "▁Jung": 7163,
      "▁leiden": 7164,
      "▁Schle": 7165,
      "▁Schär": 7166,
      "▁Schäd": 7167,
      "▁Schienen": 7168,
      "▁Schrauben": 7169,
      "▁Dis": 7170,
      "▁Dess": 7171,
      "nev": 7172,
      "erste": 7173,
      "▁Rü": 7174,
      "▁Ringen": 7175,
      "▁Rummel": 7176,
      "▁Lu": 7177,
      "▁Lig": 7178,
      "▁Live": 7179,
      "reit": 7180,
      "reibt": 7181,
      "ierender": 7182,
      "▁Abst": 7183,
      "ettes": 7184,
      "allye": 7185,
      "▁blühenden": 7186,
      "nern": 7187,
      "▁Struktur": 7188,
      "atein": 7189,
      "ator": 7190,
      "atze": 7191,
      "▁sicher": 7192,
      "urnier": 7193,
      "ppel": 7194,
      "illen": 7195,
      "▁schweren": 7196,
      "▁Griff": 7197,
      "olf": 7198,
      "oliz": 7199,
      "nneren": 7200,
      "▁State": 7201,
      "▁Stelle": 7202,
      "▁schwarzweißer": 7203,
      "▁trocknet": 7204,
      "assage": 7205,
      "änteln": 7206,
      "leger": 7207,
      "▁beigen": 7208,
      "▁überblickt": 7209,
      "▁überdachten": 7210,
      "▁beauf": 7211,
      "▁bequ": 7212,
      "▁beendet": 7213,
      "▁rö": 7214,
      "▁ruft": 7215,
      "▁Offiz": 7216,
      "▁Hemdbluse": 7217,
      "▁umgestürzten": 7218,
      "pfütze": 7219,
      "imate": 7220,
      "rest": 7221,
      "▁Wasserball": 7222,
      "▁par": 7223,
      "▁pinken": 7224,
      "absperr": 7225,
      "▁verlegt": 7226,
      "▁verärger": 7227,
      "ustet": 7228,
      "▁Handgel": 7229,
      "fert": 7230,
      "boss": 7231,
      "booten": 7232,
      "boote": 7233,
      "afft": 7234,
      "▁untergeht": 7235,
      "immten": 7236,
      "anzeige": 7237,
      "▁kleinere": 7238,
      "▁Car": 7239,
      "▁Cam": 7240,
      "▁Com": 7241,
      "uchs": 7242,
      "aufführung": 7243,
      "aufgerä": 7244,
      "▁Ult": 7245,
      "▁herein": 7246,
      "▁heran": 7247,
      "▁Blon": 7248,
      "▁Blument": 7249,
      "gelb": 7250,
      "▁ethn": 7251,
      "▁etwa": 7252,
      "▁Fußweg": 7253,
      "▁tackelt": 7254,
      "uller": 7255,
      "▁Spielmann": 7256,
      "▁Spielzeuge": 7257,
      "▁org": 7258,
      "▁versehen": 7259,
      "▁erzä": 7260,
      "▁erreicht": 7261,
      "boarden": 7262,
      "bligen": 7263,
      "blumen": 7264,
      "▁Strandpromenade": 7265,
      "▁still": 7266,
      "▁stud": 7267,
      "▁Trinken": 7268,
      "▁Transp": 7269,
      "▁Trench": 7270,
      "zenerie": 7271,
      "ettel": 7272,
      "▁Schwanz": 7273,
      "▁Spag": 7274,
      "▁hochhält": 7275,
      "▁hochspringt": 7276,
      "agiert": 7277,
      "agaz": 7278,
      "▁Tischdecke": 7279,
      "▁Tischtennis": 7280,
      "▁Ir": 7281,
      "▁Ich": 7282,
      "▁Flanell": 7283,
      "▁rothaarigen": 7284,
      "font": 7285,
      "▁Fußballteam": 7286,
      "▁Fußballteams": 7287,
      "stron": 7288,
      "▁Gitarres": 7289,
      "sstudio": 7290,
      "▁beför": 7291,
      "▁Straßenbahn": 7292,
      "▁Straßenmarkt": 7293,
      "▁lebh": 7294,
      "▁Inhalt": 7295,
      "ffet": 7296,
      "▁Motorboot": 7297,
      "▁abgest": 7298,
      "▁Sandskulptur": 7299,
      "splatz": 7300,
      "spassage": 7301,
      "▁fahrenden": 7302,
      "▁Skateboardpark": 7303,
      "▁Skateboardtrick": 7304,
      "▁Gehwegs": 7305,
      "▁Arbeiten": 7306,
      "▁hellgelben": 7307,
      "deckten": 7308,
      "▁Gesichter": 7309,
      "▁Techn": 7310,
      "▁Schloss": 7311,
      "▁Schwimmwesten": 7312,
      "▁Hänge": 7313,
      "▁Holztisch": 7314,
      "▁Holzplat": 7315,
      "▁wiegt": 7316,
      "ollt": 7317,
      "▁Baums": 7318,
      "▁Baseballkleidung": 7319,
      "▁Bürste": 7320,
      "ford": 7321,
      "▁Aufschlag": 7322,
      "▁Aufmerksam": 7323,
      "▁Motorradfahrern": 7324,
      "▁Reisen": 7325,
      "▁Reise": 7326,
      "▁Radio": 7327,
      "▁Radrennfahrer": 7328,
      "▁haltend": 7329,
      "schaftlich": 7330,
      "▁dreiköpfige": 7331,
      "▁unaufgerä": 7332,
      "▁Tennisschuhen": 7333,
      "▁Musikern": 7334,
      "▁Krug": 7335,
      "ückten": 7336,
      "▁sport": 7337,
      "▁spült": 7338,
      "▁gelbbrauner": 7339,
      "▁Armband": 7340,
      "▁Bergg": 7341,
      "▁Pfannen": 7342,
      "▁Bron": 7343,
      "▁Mikrofone": 7344,
      "▁Mikrofonen": 7345,
      "braunem": 7346,
      "▁Eisbahn": 7347,
      "▁Eislaufen": 7348,
      "üllte": 7349,
      "▁Polo": 7350,
      "▁Spielzeugauto": 7351,
      "▁Vorles": 7352,
      "▁Blumenstrauß": 7353,
      "iven": 7354,
      "ivität": 7355,
      "steckt": 7356,
      "▁Badekleidung": 7357,
      "▁strickt": 7358,
      "schlacht": 7359,
      "▁essend": 7360,
      "▁Zeitungen": 7361,
      "▁Maulkörben": 7362,
      "▁Spielerin": 7363,
      "essor": 7364,
      "▁buntes": 7365,
      "▁Pose": 7366,
      "▁Karnev": 7367,
      "attle": 7368,
      "▁Polizeibe": 7369,
      "blaues": 7370,
      "skuchen": 7371,
      "smittel": 7372,
      "▁Kasten": 7373,
      "▁Metallzaun": 7374,
      "▁nav": 7375,
      "▁Umhängen": 7376,
      "▁Umhän": 7377,
      "autos": 7378,
      "ässer": 7379,
      "▁umgedre": 7380,
      "▁knie": 7381,
      "▁Seilspringen": 7382,
      "▁Promenade": 7383,
      "▁Schnür": 7384,
      "▁Schnell": 7385,
      "▁Schnuller": 7386,
      "hörern": 7387,
      "▁Landkarte": 7388,
      "▁Ausschau": 7389,
      "▁Ausflug": 7390,
      "▁Auswahl": 7391,
      "▁teilnimmt": 7392,
      "▁Betonbank": 7393,
      "▁gemüt": 7394,
      "▁Einkaufspassage": 7395,
      "ohmarkt": 7396,
      "▁Gemein": 7397,
      "klasse": 7398,
      "▁geradeaus": 7399,
      "werkzeug": 7400,
      "▁Ord": 7401,
      "▁Cowgirl": 7402,
      "▁raufen": 7403,
      "▁offener": 7404,
      "▁Autositz": 7405,
      "▁Bikinis": 7406,
      "▁Toten": 7407,
      "▁kommun": 7408,
      "▁Wanderweg": 7409,
      "▁Teenagerin": 7410,
      "▁Rasenmäher": 7411,
      "▁bricht": 7412,
      "▁Kampfkunst": 7413,
      "▁Schale": 7414,
      "▁schmettert": 7415,
      "▁liegende": 7416,
      "hüte": 7417,
      "hüten": 7418,
      "▁besuchen": 7419,
      "▁Mülltüte": 7420,
      "▁Chir": 7421,
      "▁Chines": 7422,
      "koffer": 7423,
      "▁üpp": 7424,
      "▁Fußgängerbrücke": 7425,
      "▁Weihnachten": 7426,
      "▁glät": 7427,
      "▁Dress": 7428,
      "▁Stücke": 7429,
      "▁Nachtclub": 7430,
      "▁Rollern": 7431,
      "▁farbenfroh": 7432,
      "▁decken": 7433,
      "▁surfen": 7434,
      "▁Gebir": 7435,
      "kröte": 7436,
      "▁Wettlauf": 7437,
      "▁Saal": 7438,
      "▁Mannschaftsk": 7439,
      "▁ausgestopf": 7440,
      "köpfigen": 7441,
      "▁Schülern": 7442,
      "▁Hochzeitskleidung": 7443,
      "▁Hochzeitstorte": 7444,
      "▁balgen": 7445,
      "▁gebaut": 7446,
      "▁jüngeres": 7447,
      "▁Kathedr": 7448,
      "▁Tänzerinnen": 7449,
      "▁Wohnung": 7450,
      "▁durchsucht": 7451,
      "▁kostüm": 7452,
      "▁irgendet": 7453,
      "▁Werkzeugen": 7454,
      "▁gegenüberliegenden": 7455,
      "▁Kirchen": 7456,
      "▁verkleideter": 7457,
      "bike": 7458,
      "▁Fernrohr": 7459,
      "▁abgedunkelten": 7460,
      "coat": 7461,
      "farbigen": 7462,
      "mädchen": 7463,
      "▁wäre": 7464,
      "▁wählt": 7465,
      "▁glückliches": 7466,
      "halm": 7467,
      "▁Fußballspielen": 7468,
      "▁Schaufeln": 7469,
      "▁verfolgen": 7470,
      "▁chinesischer": 7471,
      "▁Steg": 7472,
      "▁Bulle": 7473,
      "▁schmutziges": 7474,
      "▁Golfplatz": 7475,
      "▁erwachsenen": 7476,
      "▁Begleiter": 7477,
      "▁obwohl": 7478,
      "dienung": 7479,
      "produ": 7480,
      "▁Rückwärtss": 7481,
      "▁Nachmittag": 7482,
      "▁Karateanzug": 7483,
      "▁Karateanzügen": 7484,
      "▁wunderschön": 7485,
      "▁Hindernisparcours": 7486,
      "▁Zähnen": 7487,
      "▁kontroll": 7488,
      "▁Liebl": 7489,
      "▁Liegestühlen": 7490,
      "▁Meeresfrü": 7491,
      "▁weinendes": 7492,
      "▁ruhigem": 7493,
      "▁Badmin": 7494,
      "▁Kek": 7495,
      "▁wurden": 7496,
      "▁Seitenlinie": 7497,
      "▁Bullenreiter": 7498,
      "▁Gleis": 7499,
      "▁geschäftige": 7500,
      "▁Schaufensterfront": 7501,
      "▁Softballspiel": 7502,
      "gegenstand": 7503,
      "▁vorübergehen": 7504,
      "▁beschäd": 7505,
      "▁bestellt": 7506,
      "ica": 7507,
      "▁farbige": 7508,
      "▁event": 7509,
      "▁Festival": 7510,
      "▁bedeckter": 7511,
      "▁Gewehren": 7512,
      "▁Küchentresen": 7513,
      "stehenden": 7514,
      "▁fröhliches": 7515,
      "▁pflückt": 7516,
      "▁wenig": 7517,
      "▁Taucheranzug": 7518,
      "▁Öff": 7519,
      "▁gerichtet": 7520,
      "▁goldfarbenen": 7521,
      "▁Dunkeln": 7522,
      "▁unterschiedlicher": 7523,
      "besitz": 7524,
      "▁Kabeln": 7525,
      "▁Perücke": 7526,
      "▁Kartenspiel": 7527,
      "▁Professor": 7528,
      "▁verlassenen": 7529,
      "▁dekorierten": 7530,
      "wirft": 7531,
      "unktion": 7532,
      "▁Besuch": 7533,
      "▁Schiffs": 7534,
      "▁nackte": 7535,
      "▁nackten": 7536,
      "▁nacktes": 7537,
      "▁tätowierter": 7538,
      "▁Spazierstock": 7539,
      "▁begutachten": 7540,
      "▁Frühstück": 7541,
      "▁gehüllt": 7542,
      "▁füttern": 7543,
      "▁Joggen": 7544,
      "▁entgegenges": 7545,
      "▁Freizeitkleidung": 7546,
      "▁buntem": 7547,
      "▁Hochzeitskleid": 7548,
      "▁Weihnachtsmannkostüm": 7549,
      "▁Paket": 7550,
      "▁Pitch": 7551,
      "▁Notizen": 7552,
      "▁mehrfarbige": 7553,
      "▁Videospiele": 7554,
      "ymb": 7555,
      "▁kaukas": 7556,
      "▁Amboss": 7557,
      "gestellte": 7558,
      "▁Krankenhausbett": 7559,
      "▁armen": 7560,
      "▁bohrt": 7561,
      "ängst": 7562,
      "▁hochgehoben": 7563,
      "▁Essenswagen": 7564,
      "▁Fingernä": 7565,
      "▁Modellflugzeug": 7566,
      "ailing": 7567,
      "▁Minig": 7568,
      "▁Körbe": 7569,
      "▁Gürteln": 7570,
      "▁Warnwesten": 7571,
      "▁Videokamera": 7572,
      "▁Ärm": 7573,
      "▁servieren": 7574,
      "▁Batik": 7575,
      "▁angelein": 7576,
      "▁Doppel": 7577,
      "▁Lippenstift": 7578,
      "▁Klappstühlen": 7579,
      "▁Bordsteinkante": 7580,
      "▁Schotterweg": 7581,
      "▁Schotterstraße": 7582,
      "▁Sommerk": 7583,
      "▁Garagen": 7584,
      "▁Limon": 7585,
      "▁Limous": 7586,
      "▁akrobat": 7587,
      "▁befahrene": 7588,
      "▁schlendern": 7589,
      "▁Saiteninstrument": 7590,
      "▁irgendwo": 7591,
      "▁kompliz": 7592,
      "▁geöffnetem": 7593,
      "elstreifen": 7594,
      "▁inspizieren": 7595,
      "▁inspiziert": 7596,
      "▁Khakihose": 7597,
      "▁Punkten": 7598,
      "▁freut": 7599,
      "▁Aktion": 7600,
      "▁uniformierte": 7601,
      "▁probieren": 7602,
      "▁Hotdogs": 7603,
      "▁qual": 7604,
      "▁Sackhüpfen": 7605,
      "▁erwischt": 7606,
      "blätter": 7607,
      "blättern": 7608,
      "▁rauchend": 7609,
      "▁Stofftier": 7610,
      "▁Pyrami": 7611,
      "▁Durchgang": 7612,
      "geräte": 7613,
      "▁Bandmitglieder": 7614,
      "▁Eiswaffeln": 7615,
      "▁Bahngleisen": 7616,
      "▁marineblauen": 7617,
      "▁geschminkten": 7618,
      "▁Möbelstück": 7619,
      "▁türkisfarbenen": 7620,
      "▁Bulldo": 7621,
      "schneiden": 7622,
      "▁Pony": 7623,
      "▁Zuckerwatte": 7624,
      "▁gesenktem": 7625,
      "bereitung": 7626,
      "▁Beamte": 7627,
      "▁Krankenschwestern": 7628,
      "party": 7629,
      "würd": 7630,
      "äumt": 7631,
      "▁olymp": 7632,
      "▁Hörsaal": 7633,
      "▁Kiefern": 7634,
      "▁kunstvollen": 7635,
      "▁plant": 7636,
      "▁tiefen": 7637,
      "▁Schaulustige": 7638,
      "▁Obdachloser": 7639,
      "▁Schmetterling": 7640,
      "crew": 7641,
      "fältig": 7642,
      "▁Aquarium": 7643,
      "▁parken": 7644,
      "▁platziert": 7645,
      "▁verwirrt": 7646,
      "▁Textnach": 7647,
      "▁Poloshirt": 7648,
      "▁ärmellosem": 7649,
      "▁Speisekarte": 7650,
      "▁modernen": 7651,
      "▁akustische": 7652,
      "▁mensch": 7653,
      "arinette": 7654,
      "▁Thema": 7655,
      "▁Tempel": 7656,
      "▁Werbe": 7657,
      "▁fasziniert": 7658,
      "▁Nadelstreifen": 7659,
      "▁befindlichen": 7660,
      "▁regenbogen": 7661,
      "▁Schwimmflügeln": 7662,
      "▁Hüpfburg": 7663,
      "▁Konfetti": 7664,
      "▁Betonplatte": 7665,
      "▁Parasailing": 7666,
      "▁Stabhochsprung": 7667,
      "▁beteiligt": 7668,
      "▁wetteifern": 7669,
      "▁seitlich": 7670,
      "▁Salat": 7671,
      "▁Hawaii": 7672,
      "▁Domino": 7673,
      "▁Leoparden": 7674,
      "▁Schnorchel": 7675,
      "▁Dekorationen": 7676,
      "▁abgesperrten": 7677,
      "▁aufgeblasenen": 7678,
      "▁Bücherregal": 7679,
      "▁dekorativen": 7680,
      "▁Filzhut": 7681,
      "▁Fitnessstudio": 7682,
      "▁Senioren": 7683,
      "▁Popcorn": 7684,
      "▁Digitalkamera": 7685,
      "▁Kopfsteinpflasterstraße": 7686,
      "▁Industrie": 7687,
      "Konzert": 7688,
      "bunten": 7689,
      "oberfläche": 7690,
      "▁Empfang": 7691,
      "untry": 7692,
      "▁sorgfältig": 7693,
      "▁intensiv": 7694,
      "schaufel": 7695,
      "▁zeichnen": 7696,
      "▁Wunderker": 7697,
      "▁beaufsicht": 7698,
      "▁verärgert": 7699,
      "▁Ultimate": 7700,
      "▁Spielmannszug": 7701,
      "▁studiert": 7702,
      "▁Trenchcoat": 7703,
      "▁Aufmerksamkeit": 7704,
      "▁unaufgeräumten": 7705,
      "▁Vorlesung": 7706,
      "▁Polizeibeam": 7707,
      "▁Umhänge": 7708,
      "▁Kathedrale": 7709,
      "▁irgendetwas": 7710,
      "▁Badminton": 7711,
      "▁eventuell": 7712,
      "▁Limousine": 7713,
      "▁Pyramide": 7714,
      "0er": 7715,
      "Ar": 7716,
      "Bob": 7717,
      "Bade": 7718,
      "Base": 7719,
      "Compu": 7720,
      "Fr": 7721,
      "Gr": 7722,
      "Kl": 7723,
      "Mitarbeiter": 7724,
      "Rennen": 7725,
      "Restaurant": 7726,
      "Tisch": 7727,
      "Tunnel": 7728,
      "Tattoo": 7729,
      "Werbung": 7730,
      "bein": 7731,
      "biet": 7732,
      "bündel": 7733,
      "cap": 7734,
      "dische": 7735,
      "eckt": 7736,
      "fz": 7737,
      "fchen": 7738,
      "ftet": 7739,
      "fleisch": 7740,
      "fälle": 7741,
      "fpipe": 7742,
      "gar": 7743,
      "gter": 7744,
      "gumm": 7745,
      "gürt": 7746,
      "gäste": 7747,
      "ham": 7748,
      "helmen": 7749,
      "häng": 7750,
      "ix": 7751,
      "iot": 7752,
      "icke": 7753,
      "iqu": 7754,
      "iemen": 7755,
      "junge": 7756,
      "jagt": 7757,
      "ky": 7758,
      "kelt": 7759,
      "kart": 7760,
      "kolle": 7761,
      "kissen": 7762,
      "kiste": 7763,
      "lers": 7764,
      "llen": 7765,
      "met": 7766,
      "mischer": 7767,
      "mobil": 7768,
      "masten": 7769,
      "mänteln": 7770,
      "nte": 7771,
      "opp": 7772,
      "ofen": 7773,
      "oke": 7774,
      "pl": 7775,
      "pit": 7776,
      "por": 7777,
      "passen": 7778,
      "pullover": 7779,
      "piste": 7780,
      "pierc": 7781,
      "rat": 7782,
      "ringen": 7783,
      "rasse": 7784,
      "rutscht": 7785,
      "sein": 7786,
      "ses": 7787,
      "sur": 7788,
      "sänger": 7789,
      "sgeschäft": 7790,
      "sfest": 7791,
      "theke": 7792,
      "uen": 7793,
      "ugt": 7794,
      "uteten": 7795,
      "voller": 7796,
      "völ": 7797,
      "wt": 7798,
      "wal": 7799,
      "ware": 7800,
      "zz": 7801,
      "zchen": 7802,
      "zieht": 7803,
      "zahl": 7804,
      "ßten": 7805,
      "ßlich": 7806,
      "änen": 7807,
      "ähnen": 7808,
      "äfchen": 7809,
      "ös": 7810,
      "üsten": 7811,
      "ühlt": 7812,
      "▁6": 7813,
      "▁el": 7814,
      "▁att": 7815,
      "entr": 7816,
      "▁einzu": 7817,
      "▁einschlie": 7818,
      "ane": 7819,
      "any": 7820,
      "anas": 7821,
      "anis": 7822,
      "unner": 7823,
      "▁san": 7824,
      "▁sumpf": 7825,
      "▁synchron": 7826,
      "▁Einfahrt": 7827,
      "▁Mel": 7828,
      "▁Mal": 7829,
      "▁Mach": 7830,
      "▁Mast": 7831,
      "▁Make": 7832,
      "▁Masken": 7833,
      "▁Messe": 7834,
      "▁Material": 7835,
      "▁deu": 7836,
      "▁daf": 7837,
      "▁dicker": 7838,
      "itiert": 7839,
      "eld": 7840,
      "elie": 7841,
      "elfer": 7842,
      "eleine": 7843,
      "▁Sö": 7844,
      "▁San": 7845,
      "▁Sam": 7846,
      "▁Sol": 7847,
      "▁Saft": 7848,
      "▁Sumpf": 7849,
      "▁Sari": 7850,
      "▁Symb": 7851,
      "▁inner": 7852,
      "▁inform": 7853,
      "▁met": 7854,
      "▁mat": 7855,
      "▁merk": 7856,
      "▁maler": 7857,
      "▁minde": 7858,
      "▁misst": 7859,
      "▁Fund": 7860,
      "▁Far": 7861,
      "▁Fast": 7862,
      "▁Führung": 7863,
      "▁Faust": 7864,
      "geschen": 7865,
      "geBob": 7866,
      "ars": 7867,
      "arat": 7868,
      "artet": 7869,
      "▁aufgeb": 7870,
      "▁Hüt": 7871,
      "▁Hart": 7872,
      "▁Haust": 7873,
      "▁Harfe": 7874,
      "▁Haupt": 7875,
      "iester": 7876,
      "iegend": 7877,
      "tetes": 7878,
      "▁Bö": 7879,
      "▁Bahnen": 7880,
      "▁Bären": 7881,
      "▁bumm": 7882,
      "schale": 7883,
      "schonern": 7884,
      "ongeBob": 7885,
      "start": 7886,
      "steigt": 7887,
      "stöcke": 7888,
      "stöck": 7889,
      "▁Kau": 7890,
      "▁Kal": 7891,
      "▁Kre": 7892,
      "▁Kirm": 7893,
      "▁Kutsche": 7894,
      "▁Kollegen": 7895,
      "▁Geiger": 7896,
      "▁Gäste": 7897,
      "orb": 7898,
      "orangen": 7899,
      "▁hal": 7900,
      "▁harten": 7901,
      "alie": 7902,
      "altes": 7903,
      "tra": 7904,
      "trieben": 7905,
      "esst": 7906,
      "▁Prei": 7907,
      "▁Pend": 7908,
      "▁Prü": 7909,
      "▁Pack": 7910,
      "▁Patr": 7911,
      "▁Punkt": 7912,
      "▁Zom": 7913,
      "▁zerk": 7914,
      "▁zerb": 7915,
      "▁schrä": 7916,
      "rote": 7917,
      "roll": 7918,
      "▁Tun": 7919,
      "▁Trau": 7920,
      "▁Tüte": 7921,
      "▁Tinten": 7922,
      "▁Tellern": 7923,
      "▁krei": 7924,
      "▁künst": 7925,
      "▁künstler": 7926,
      "pielen": 7927,
      "ames": 7928,
      "ament": 7929,
      "▁gesche": 7930,
      "▁geschl": 7931,
      "▁gebogen": 7932,
      "▁gesteckt": 7933,
      "▁gejagt": 7934,
      "▁Wh": 7935,
      "▁Wäl": 7936,
      "▁Wür": 7937,
      "▁Welt": 7938,
      "▁Wort": 7939,
      "▁Wangen": 7940,
      "▁Werb": 7941,
      "▁Wäsch": 7942,
      "▁waten": 7943,
      "▁winken": 7944,
      "▁wasser": 7945,
      "▁winz": 7946,
      "▁anger": 7947,
      "▁anschein": 7948,
      "▁anschauen": 7949,
      "▁fechten": 7950,
      "▁funktion": 7951,
      "▁lok": 7952,
      "▁lehrt": 7953,
      "▁lenkt": 7954,
      "▁letzten": 7955,
      "▁Sche": 7956,
      "▁Schweiß": 7957,
      "▁Schanze": 7958,
      "▁Don": 7959,
      "▁Dir": 7960,
      "▁Dirt": 7961,
      "▁Dart": 7962,
      "▁Drä": 7963,
      "▁Dog": 7964,
      "▁Day": 7965,
      "▁Denk": 7966,
      "▁zueinander": 7967,
      "▁zuzu": 7968,
      "▁zupft": 7969,
      "▁zugeht": 7970,
      "▁zuhören": 7971,
      "▁zuguckt": 7972,
      "▁zugucken": 7973,
      "▁stecken": 7974,
      "nete": 7975,
      "▁Reit": 7976,
      "▁Rollen": 7977,
      "▁Runde": 7978,
      "▁Rampen": 7979,
      "▁Riesen": 7980,
      "▁Rallye": 7981,
      "▁Riemen": 7982,
      "▁Li": 7983,
      "▁Lo": 7984,
      "▁Lachen": 7985,
      "▁Lob": 7986,
      "▁Lichtern": 7987,
      "▁Ladung": 7988,
      "reich": 7989,
      "achte": 7990,
      "ierigkeiten": 7991,
      "▁Acker": 7992,
      "▁sitzend": 7993,
      "▁sitzendes": 7994,
      "▁vorbereiten": 7995,
      "etch": 7996,
      "▁klar": 7997,
      "▁klass": 7998,
      "umor": 7999
    },
    "merges": [
      [
        "i",
        "n"
      ],
      [
        "e",
        "n"
      ],
      [
        "e",
        "r"
      ],
      [
        "e",
        "in"
      ],
      [
        "▁",
        "ein"
      ],
      [
        "c",
        "h"
      ],
      [
        "a",
        "u"
      ],
      [
        "a",
        "n"
      ],
      [
        "▁",
        "E"
      ],
      [
        "e",
        "m"
      ],
      [
        "u",
        "n"
      ],
      [
        "▁",
        "s"
      ],
      [
        "▁E",
        "in"
      ],
      [
        "e",
        "i"
      ],
      [
        "▁",
        "M"
      ],
      [
        "▁",
        "d"
      ],
      [
        "i",
        "t"
      ],
      [
        "▁ein",
        "em"
      ],
      [
        "e",
        "l"
      ],
      [
        "▁",
        "S"
      ],
      [
        "▁",
        "in"
      ],
      [
        "un",
        "d"
      ],
      [
        "▁",
        "m"
      ],
      [
        "▁",
        "F"
      ],
      [
        "▁",
        "au"
      ],
      [
        "g",
        "e"
      ],
      [
        "▁m",
        "it"
      ],
      [
        "a",
        "r"
      ],
      [
        "▁au",
        "f"
      ],
      [
        "▁",
        "und"
      ],
      [
        "▁",
        "H"
      ],
      [
        "an",
        "n"
      ],
      [
        "i",
        "e"
      ],
      [
        "t",
        "e"
      ],
      [
        "▁M",
        "ann"
      ],
      [
        "▁",
        "B"
      ],
      [
        "▁",
        "b"
      ],
      [
        "s",
        "ch"
      ],
      [
        "o",
        "n"
      ],
      [
        "s",
        "t"
      ],
      [
        "r",
        "au"
      ],
      [
        "h",
        "r"
      ],
      [
        "▁",
        "v"
      ],
      [
        "▁",
        "K"
      ],
      [
        "▁ein",
        "er"
      ],
      [
        "w",
        "ei"
      ],
      [
        "▁",
        "i"
      ],
      [
        "▁Ein",
        "e"
      ],
      [
        "t",
        "er"
      ],
      [
        "t",
        "en"
      ],
      [
        "▁",
        "G"
      ],
      [
        "a",
        "s"
      ],
      [
        "o",
        "r"
      ],
      [
        "▁",
        "h"
      ],
      [
        "a",
        "l"
      ],
      [
        "▁F",
        "rau"
      ],
      [
        "t",
        "r"
      ],
      [
        "e",
        "s"
      ],
      [
        "c",
        "k"
      ],
      [
        "▁",
        "P"
      ],
      [
        "an",
        "d"
      ],
      [
        "g",
        "en"
      ],
      [
        "▁d",
        "er"
      ],
      [
        "▁",
        "Z"
      ],
      [
        "▁",
        "z"
      ],
      [
        "i",
        "ch"
      ],
      [
        "▁s",
        "ch"
      ],
      [
        "r",
        "o"
      ],
      [
        "i",
        "el"
      ],
      [
        "▁M",
        "ä"
      ],
      [
        "▁",
        "g"
      ],
      [
        "▁ein",
        "e"
      ],
      [
        "▁",
        "T"
      ],
      [
        "▁",
        "k"
      ],
      [
        "p",
        "iel"
      ],
      [
        "▁d",
        "ie"
      ],
      [
        "a",
        "m"
      ],
      [
        "▁",
        "ge"
      ],
      [
        "▁ein",
        "en"
      ],
      [
        "▁",
        "W"
      ],
      [
        "▁",
        "w"
      ],
      [
        "d",
        "e"
      ],
      [
        "▁",
        "an"
      ],
      [
        "h",
        "t"
      ],
      [
        "g",
        "t"
      ],
      [
        "b",
        "en"
      ],
      [
        "▁",
        "f"
      ],
      [
        "▁",
        "J"
      ],
      [
        "▁",
        "l"
      ],
      [
        "▁Z",
        "wei"
      ],
      [
        "ch",
        "en"
      ],
      [
        "▁S",
        "ch"
      ],
      [
        "▁",
        "D"
      ],
      [
        "▁i",
        "m"
      ],
      [
        "▁z",
        "u"
      ],
      [
        "in",
        "d"
      ],
      [
        "it",
        "z"
      ],
      [
        "▁s",
        "te"
      ],
      [
        "n",
        "e"
      ],
      [
        "er",
        "s"
      ],
      [
        "b",
        "er"
      ],
      [
        "▁",
        "R"
      ],
      [
        "▁",
        "L"
      ],
      [
        "h",
        "en"
      ],
      [
        "un",
        "g"
      ],
      [
        "r",
        "ei"
      ],
      [
        "f",
        "t"
      ],
      [
        "a",
        "ch"
      ],
      [
        "i",
        "er"
      ],
      [
        "▁",
        "A"
      ],
      [
        "▁s",
        "itz"
      ],
      [
        "▁v",
        "or"
      ],
      [
        "e",
        "t"
      ],
      [
        "al",
        "l"
      ],
      [
        "▁b",
        "l"
      ],
      [
        "▁k",
        "l"
      ],
      [
        "n",
        "er"
      ],
      [
        "ß",
        "en"
      ],
      [
        "▁S",
        "tr"
      ],
      [
        "u",
        "m"
      ],
      [
        "n",
        "en"
      ],
      [
        "a",
        "t"
      ],
      [
        "▁v",
        "on"
      ],
      [
        "un",
        "ge"
      ],
      [
        "▁s",
        "ich"
      ],
      [
        "u",
        "r"
      ],
      [
        "ä",
        "hr"
      ],
      [
        "▁s",
        "piel"
      ],
      [
        "▁kl",
        "ein"
      ],
      [
        "sch",
        "en"
      ],
      [
        "ä",
        "l"
      ],
      [
        "a",
        "d"
      ],
      [
        "d",
        "chen"
      ],
      [
        "▁Mä",
        "dchen"
      ],
      [
        "▁d",
        "em"
      ],
      [
        "p",
        "p"
      ],
      [
        "l",
        "ei"
      ],
      [
        "i",
        "l"
      ],
      [
        "▁sch",
        "w"
      ],
      [
        "▁",
        "ro"
      ],
      [
        "▁H",
        "und"
      ],
      [
        "u",
        "t"
      ],
      [
        "▁G",
        "r"
      ],
      [
        "▁K",
        "ind"
      ],
      [
        "ß",
        "e"
      ],
      [
        "ar",
        "z"
      ],
      [
        "ers",
        "on"
      ],
      [
        "o",
        "l"
      ],
      [
        "▁P",
        "erson"
      ],
      [
        "▁",
        "wei"
      ],
      [
        "e",
        "u"
      ],
      [
        "s",
        "en"
      ],
      [
        "d",
        "en"
      ],
      [
        "n",
        "ner"
      ],
      [
        "o",
        "t"
      ],
      [
        "▁Mä",
        "nner"
      ],
      [
        "a",
        "hr"
      ],
      [
        "▁S",
        "t"
      ],
      [
        "▁G",
        "e"
      ],
      [
        "▁schw",
        "arz"
      ],
      [
        "▁ste",
        "ht"
      ],
      [
        "b",
        "ei"
      ],
      [
        "▁Str",
        "a"
      ],
      [
        "i",
        "r"
      ],
      [
        "pp",
        "e"
      ],
      [
        "p",
        "r"
      ],
      [
        "▁d",
        "en"
      ],
      [
        "▁bl",
        "au"
      ],
      [
        "▁",
        "tr"
      ],
      [
        "▁s",
        "ein"
      ],
      [
        "▁sitz",
        "t"
      ],
      [
        "en",
        "d"
      ],
      [
        "and",
        "er"
      ],
      [
        "▁",
        "j"
      ],
      [
        "i",
        "sch"
      ],
      [
        "ü",
        "ber"
      ],
      [
        "▁J",
        "unge"
      ],
      [
        "f",
        "en"
      ],
      [
        "as",
        "s"
      ],
      [
        "m",
        "en"
      ],
      [
        "▁M",
        "en"
      ],
      [
        "g",
        "er"
      ],
      [
        "ä",
        "n"
      ],
      [
        "l",
        "e"
      ],
      [
        "u",
        "ppe"
      ],
      [
        "▁b",
        "ei"
      ],
      [
        "äl",
        "t"
      ],
      [
        "i",
        "k"
      ],
      [
        "▁",
        "über"
      ],
      [
        "ä",
        "u"
      ],
      [
        "▁Stra",
        "ße"
      ],
      [
        "▁b",
        "e"
      ],
      [
        "ähr",
        "end"
      ],
      [
        "▁w",
        "ährend"
      ],
      [
        "▁",
        "r"
      ],
      [
        "▁",
        "O"
      ],
      [
        "▁Men",
        "schen"
      ],
      [
        "▁Gr",
        "uppe"
      ],
      [
        "b",
        "all"
      ],
      [
        "d",
        "er"
      ],
      [
        "r",
        "ü"
      ],
      [
        "▁h",
        "ält"
      ],
      [
        "em",
        "d"
      ],
      [
        "▁i",
        "hr"
      ],
      [
        "▁spiel",
        "t"
      ],
      [
        "un",
        "ter"
      ],
      [
        "s",
        "e"
      ],
      [
        "▁",
        "V"
      ],
      [
        "te",
        "t"
      ],
      [
        "▁au",
        "s"
      ],
      [
        "▁H",
        "emd"
      ],
      [
        "▁s",
        "pr"
      ],
      [
        "ck",
        "e"
      ],
      [
        "▁Person",
        "en"
      ],
      [
        "▁",
        "ne"
      ],
      [
        "▁",
        "n"
      ],
      [
        "an",
        "g"
      ],
      [
        "ach",
        "t"
      ],
      [
        "en",
        "t"
      ],
      [
        "ü",
        "r"
      ],
      [
        "▁d",
        "as"
      ],
      [
        "in",
        "ter"
      ],
      [
        "▁",
        "um"
      ],
      [
        "e",
        "hr"
      ],
      [
        "lei",
        "d"
      ],
      [
        "p",
        "f"
      ],
      [
        "▁",
        "ander"
      ],
      [
        "a",
        "ar"
      ],
      [
        "ei",
        "l"
      ],
      [
        "▁ein",
        "es"
      ],
      [
        "▁W",
        "ass"
      ],
      [
        "b",
        "e"
      ],
      [
        "▁ne",
        "ben"
      ],
      [
        "in",
        "gt"
      ],
      [
        "▁",
        "N"
      ],
      [
        "i",
        "m"
      ],
      [
        "ur",
        "ch"
      ],
      [
        "▁Kind",
        "er"
      ],
      [
        "▁Frau",
        "en"
      ],
      [
        "r",
        "e"
      ],
      [
        "▁Wass",
        "er"
      ],
      [
        "▁ste",
        "hen"
      ],
      [
        "▁blau",
        "en"
      ],
      [
        "▁",
        "am"
      ],
      [
        "▁d",
        "urch"
      ],
      [
        "el",
        "l"
      ],
      [
        "▁g",
        "ro"
      ],
      [
        "▁i",
        "st"
      ],
      [
        "i",
        "s"
      ],
      [
        "r",
        "ad"
      ],
      [
        "ä",
        "gt"
      ],
      [
        "▁ro",
        "ten"
      ],
      [
        "▁wei",
        "ßen"
      ],
      [
        "▁sitz",
        "en"
      ],
      [
        "e",
        "g"
      ],
      [
        "▁D",
        "rei"
      ],
      [
        "h",
        "n"
      ],
      [
        "l",
        "a"
      ],
      [
        "▁spiel",
        "en"
      ],
      [
        "h",
        "e"
      ],
      [
        "▁",
        "ent"
      ],
      [
        "l",
        "ich"
      ],
      [
        "ar",
        "ben"
      ],
      [
        "▁",
        "p"
      ],
      [
        "a",
        "b"
      ],
      [
        "▁v",
        "er"
      ],
      [
        "ähr",
        "t"
      ],
      [
        "u",
        "s"
      ],
      [
        "ier",
        "t"
      ],
      [
        "g",
        "r"
      ],
      [
        "▁H",
        "and"
      ],
      [
        "f",
        "er"
      ],
      [
        "▁ge",
        "ht"
      ],
      [
        "ich",
        "t"
      ],
      [
        "▁tr",
        "ägt"
      ],
      [
        "el",
        "t"
      ],
      [
        "b",
        "o"
      ],
      [
        "▁f",
        "ährt"
      ],
      [
        "a",
        "f"
      ],
      [
        "k",
        "t"
      ],
      [
        "▁F",
        "ahr"
      ],
      [
        "▁g",
        "rü"
      ],
      [
        "t",
        "eil"
      ],
      [
        "ck",
        "t"
      ],
      [
        "▁g",
        "el"
      ],
      [
        "el",
        "n"
      ],
      [
        "▁L",
        "eu"
      ],
      [
        "ck",
        "en"
      ],
      [
        "▁b",
        "rau"
      ],
      [
        "▁K",
        "leid"
      ],
      [
        "▁",
        "unter"
      ],
      [
        "▁sch",
        "au"
      ],
      [
        "▁B",
        "o"
      ],
      [
        "▁O",
        "ber"
      ],
      [
        "▁klein",
        "es"
      ],
      [
        "im",
        "m"
      ],
      [
        "o",
        "s"
      ],
      [
        "▁m",
        "acht"
      ],
      [
        "u",
        "g"
      ],
      [
        "▁ent",
        "l"
      ],
      [
        "o",
        "ch"
      ],
      [
        "▁spr",
        "ingt"
      ],
      [
        "▁entl",
        "ang"
      ],
      [
        "▁z",
        "wei"
      ],
      [
        "an",
        "z"
      ],
      [
        "en",
        "n"
      ],
      [
        "i",
        "gen"
      ],
      [
        "ar",
        "bei"
      ],
      [
        "▁j",
        "unge"
      ],
      [
        "▁klein",
        "er"
      ],
      [
        "▁schwarz",
        "en"
      ],
      [
        "a",
        "gen"
      ],
      [
        "un",
        "gen"
      ],
      [
        "▁wei",
        "ß"
      ],
      [
        "ä",
        "ch"
      ],
      [
        "▁",
        "C"
      ],
      [
        "piel",
        "er"
      ],
      [
        "u",
        "ch"
      ],
      [
        "ehr",
        "er"
      ],
      [
        "▁Leu",
        "te"
      ],
      [
        "▁K",
        "o"
      ],
      [
        "au",
        "f"
      ],
      [
        "l",
        "er"
      ],
      [
        "▁H",
        "o"
      ],
      [
        "▁A",
        "r"
      ],
      [
        "u",
        "ß"
      ],
      [
        "▁ge",
        "hen"
      ],
      [
        "k",
        "lei"
      ],
      [
        "▁",
        "U"
      ],
      [
        "▁F",
        "el"
      ],
      [
        "i",
        "schen"
      ],
      [
        "e",
        "st"
      ],
      [
        "r",
        "il"
      ],
      [
        "an",
        "ge"
      ],
      [
        "▁h",
        "er"
      ],
      [
        "▁B",
        "l"
      ],
      [
        "g",
        "el"
      ],
      [
        "klei",
        "de"
      ],
      [
        "b",
        "äu"
      ],
      [
        "äl",
        "ter"
      ],
      [
        "o",
        "m"
      ],
      [
        "i",
        "g"
      ],
      [
        "i",
        "ge"
      ],
      [
        "▁s",
        "ie"
      ],
      [
        "▁Fahr",
        "rad"
      ],
      [
        "al",
        "ten"
      ],
      [
        "er",
        "n"
      ],
      [
        "▁",
        "et"
      ],
      [
        "▁S",
        "k"
      ],
      [
        "w",
        "as"
      ],
      [
        "h",
        "l"
      ],
      [
        "▁Ober",
        "teil"
      ],
      [
        "▁F",
        "uß"
      ],
      [
        "ir",
        "t"
      ],
      [
        "▁et",
        "was"
      ],
      [
        "f",
        "ahr"
      ],
      [
        "▁",
        "älter"
      ],
      [
        "▁w",
        "ir"
      ],
      [
        "▁",
        "t"
      ],
      [
        "ehrer",
        "e"
      ],
      [
        "▁B",
        "all"
      ],
      [
        "▁sein",
        "em"
      ],
      [
        "f",
        "arben"
      ],
      [
        "h",
        "irt"
      ],
      [
        "▁l",
        "ie"
      ],
      [
        "ei",
        "t"
      ],
      [
        "u",
        "l"
      ],
      [
        "▁h",
        "in"
      ],
      [
        "▁gro",
        "ßen"
      ],
      [
        "u",
        "ft"
      ],
      [
        "a",
        "cke"
      ],
      [
        "ne",
        "e"
      ],
      [
        "ier",
        "en"
      ],
      [
        "gr",
        "und"
      ],
      [
        "▁Ge",
        "bäu"
      ],
      [
        "ril",
        "le"
      ],
      [
        "▁ge",
        "kleide"
      ],
      [
        "▁S",
        "piel"
      ],
      [
        "ar",
        "k"
      ],
      [
        "▁H",
        "inter"
      ],
      [
        "z",
        "eu"
      ],
      [
        "▁",
        "or"
      ],
      [
        "▁F",
        "rei"
      ],
      [
        "▁v",
        "ers"
      ],
      [
        "b",
        "t"
      ],
      [
        "▁",
        "er"
      ],
      [
        "▁B",
        "au"
      ],
      [
        "▁K",
        "am"
      ],
      [
        "or",
        "t"
      ],
      [
        "il",
        "d"
      ],
      [
        "▁L",
        "uft"
      ],
      [
        "bo",
        "ar"
      ],
      [
        "äu",
        "ft"
      ],
      [
        "b",
        "l"
      ],
      [
        "s",
        "am"
      ],
      [
        "▁grü",
        "nen"
      ],
      [
        "▁M",
        "ehrere"
      ],
      [
        "▁Str",
        "and"
      ],
      [
        "▁s",
        "t"
      ],
      [
        "▁",
        "o"
      ],
      [
        "▁T",
        "r"
      ],
      [
        "er",
        "a"
      ],
      [
        "▁D",
        "er"
      ],
      [
        "w",
        "eg"
      ],
      [
        "▁l",
        "äuft"
      ],
      [
        "▁",
        "al"
      ],
      [
        "au",
        "fen"
      ],
      [
        "▁s",
        "ind"
      ],
      [
        "▁l",
        "äch"
      ],
      [
        "z",
        "en"
      ],
      [
        "a",
        "te"
      ],
      [
        "ö",
        "r"
      ],
      [
        "▁f",
        "ür"
      ],
      [
        "▁Hinter",
        "grund"
      ],
      [
        "▁B",
        "as"
      ],
      [
        "▁J",
        "ungen"
      ],
      [
        "▁d",
        "a"
      ],
      [
        "▁h",
        "inter"
      ],
      [
        "▁n",
        "ach"
      ],
      [
        "z",
        "e"
      ],
      [
        "▁h",
        "at"
      ],
      [
        "▁",
        "arbei"
      ],
      [
        "▁J",
        "acke"
      ],
      [
        "▁Frei",
        "en"
      ],
      [
        "▁D",
        "ie"
      ],
      [
        "▁ander",
        "en"
      ],
      [
        "s",
        "pieler"
      ],
      [
        "ot",
        "o"
      ],
      [
        "▁Kleid",
        "ung"
      ],
      [
        "st",
        "er"
      ],
      [
        "ung",
        "er"
      ],
      [
        "▁schau",
        "t"
      ],
      [
        "an",
        "t"
      ],
      [
        "et",
        "t"
      ],
      [
        "▁Ko",
        "pf"
      ],
      [
        "zeu",
        "g"
      ],
      [
        "de",
        "t"
      ],
      [
        "▁Sch",
        "w"
      ],
      [
        "▁vor",
        "bei"
      ],
      [
        "▁j",
        "unger"
      ],
      [
        "▁S",
        "p"
      ],
      [
        "▁h",
        "och"
      ],
      [
        "ä",
        "ft"
      ],
      [
        "▁Sch",
        "nee"
      ],
      [
        "a",
        "g"
      ],
      [
        "▁T",
        "isch"
      ],
      [
        "ü",
        "t"
      ],
      [
        "an",
        "k"
      ],
      [
        "▁H",
        "aar"
      ],
      [
        "l",
        "at"
      ],
      [
        "▁",
        "I"
      ],
      [
        "ü",
        "n"
      ],
      [
        "sch",
        "au"
      ],
      [
        "au",
        "s"
      ],
      [
        "▁F",
        "l"
      ],
      [
        "S",
        "hirt"
      ],
      [
        "o",
        "w"
[...]
